{
  "version": "1.0",
  "truncation": null,
  "padding": null,
  "added_tokens": [
    {
      "id": 0,
      "content": "<s>",
      "single_word": false,
      "lstrip": false,
      "rstrip": false,
      "normalized": false,
      "special": true
    },
    {
      "id": 1,
      "content": "<pad>",
      "single_word": false,
      "lstrip": false,
      "rstrip": false,
      "normalized": false,
      "special": true
    },
    {
      "id": 2,
      "content": "</s>",
      "single_word": false,
      "lstrip": false,
      "rstrip": false,
      "normalized": false,
      "special": true
    },
    {
      "id": 3,
      "content": "[UNK]",
      "single_word": false,
      "lstrip": false,
      "rstrip": false,
      "normalized": false,
      "special": true
    },
    {
      "id": 4,
      "content": "[INST]",
      "single_word": false,
      "lstrip": false,
      "rstrip": false,
      "normalized": false,
      "special": true
    },
    {
      "id": 5,
      "content": "[/INST]",
      "single_word": false,
      "lstrip": false,
      "rstrip": false,
      "normalized": false,
      "special": true
    }
  ],
  "normalizer": null,
  "pre_tokenizer": {
    "type": "ByteLevel",
    "add_prefix_space": false,
    "trim_offsets": true,
    "use_regex": true
  },
  "post_processor": {
    "type": "ByteLevel",
    "add_prefix_space": true,
    "trim_offsets": true,
    "use_regex": true
  },
  "decoder": {
    "type": "ByteLevel",
    "add_prefix_space": true,
    "trim_offsets": true,
    "use_regex": true
  },
  "model": {
    "type": "BPE",
    "dropout": null,
    "unk_token": "[UNK]",
    "continuing_subword_prefix": null,
    "end_of_word_suffix": null,
    "fuse_unk": false,
    "byte_fallback": false,
    "ignore_merges": false,
    "vocab": {
      "<s>": 0,
      "<pad>": 1,
      "</s>": 2,
      "[UNK]": 3,
      "[INST]": 4,
      "[/INST]": 5,
      "!": 6,
      "\"": 7,
      "#": 8,
      "$": 9,
      "%": 10,
      "&": 11,
      "'": 12,
      "(": 13,
      ")": 14,
      "*": 15,
      "+": 16,
      ",": 17,
      "-": 18,
      ".": 19,
      "/": 20,
      "0": 21,
      "1": 22,
      "2": 23,
      "3": 24,
      "4": 25,
      "5": 26,
      "6": 27,
      "7": 28,
      "8": 29,
      "9": 30,
      ":": 31,
      ";": 32,
      "<": 33,
      "=": 34,
      ">": 35,
      "?": 36,
      "@": 37,
      "A": 38,
      "B": 39,
      "C": 40,
      "D": 41,
      "E": 42,
      "F": 43,
      "G": 44,
      "H": 45,
      "I": 46,
      "J": 47,
      "K": 48,
      "L": 49,
      "M": 50,
      "N": 51,
      "O": 52,
      "P": 53,
      "Q": 54,
      "R": 55,
      "S": 56,
      "T": 57,
      "U": 58,
      "V": 59,
      "W": 60,
      "X": 61,
      "Y": 62,
      "Z": 63,
      "[": 64,
      "\\": 65,
      "]": 66,
      "^": 67,
      "_": 68,
      "`": 69,
      "a": 70,
      "b": 71,
      "c": 72,
      "d": 73,
      "e": 74,
      "f": 75,
      "g": 76,
      "h": 77,
      "i": 78,
      "j": 79,
      "k": 80,
      "l": 81,
      "m": 82,
      "n": 83,
      "o": 84,
      "p": 85,
      "q": 86,
      "r": 87,
      "s": 88,
      "t": 89,
      "u": 90,
      "v": 91,
      "w": 92,
      "x": 93,
      "y": 94,
      "z": 95,
      "{": 96,
      "|": 97,
      "}": 98,
      "~": 99,
      "¡": 100,
      "¢": 101,
      "£": 102,
      "¤": 103,
      "¥": 104,
      "¦": 105,
      "§": 106,
      "¨": 107,
      "©": 108,
      "ª": 109,
      "«": 110,
      "¬": 111,
      "®": 112,
      "¯": 113,
      "°": 114,
      "±": 115,
      "²": 116,
      "³": 117,
      "´": 118,
      "µ": 119,
      "¶": 120,
      "·": 121,
      "¸": 122,
      "¹": 123,
      "º": 124,
      "»": 125,
      "¼": 126,
      "½": 127,
      "¾": 128,
      "¿": 129,
      "À": 130,
      "Á": 131,
      "Â": 132,
      "Ã": 133,
      "Ä": 134,
      "Å": 135,
      "Æ": 136,
      "Ç": 137,
      "È": 138,
      "É": 139,
      "Ê": 140,
      "Ë": 141,
      "Ì": 142,
      "Í": 143,
      "Î": 144,
      "Ï": 145,
      "Ð": 146,
      "Ñ": 147,
      "Ò": 148,
      "Ó": 149,
      "Ô": 150,
      "Õ": 151,
      "Ö": 152,
      "×": 153,
      "Ø": 154,
      "Ù": 155,
      "Ú": 156,
      "Û": 157,
      "Ü": 158,
      "Ý": 159,
      "Þ": 160,
      "ß": 161,
      "à": 162,
      "á": 163,
      "â": 164,
      "ã": 165,
      "ä": 166,
      "å": 167,
      "æ": 168,
      "ç": 169,
      "è": 170,
      "é": 171,
      "ê": 172,
      "ë": 173,
      "ì": 174,
      "í": 175,
      "î": 176,
      "ï": 177,
      "ð": 178,
      "ñ": 179,
      "ò": 180,
      "ó": 181,
      "ô": 182,
      "õ": 183,
      "ö": 184,
      "÷": 185,
      "ø": 186,
      "ù": 187,
      "ú": 188,
      "û": 189,
      "ü": 190,
      "ý": 191,
      "þ": 192,
      "ÿ": 193,
      "Ā": 194,
      "ā": 195,
      "Ă": 196,
      "ă": 197,
      "Ą": 198,
      "ą": 199,
      "Ć": 200,
      "ć": 201,
      "Ĉ": 202,
      "ĉ": 203,
      "Ċ": 204,
      "ċ": 205,
      "Č": 206,
      "č": 207,
      "Ď": 208,
      "ď": 209,
      "Đ": 210,
      "đ": 211,
      "Ē": 212,
      "ē": 213,
      "Ĕ": 214,
      "ĕ": 215,
      "Ė": 216,
      "ė": 217,
      "Ę": 218,
      "ę": 219,
      "Ě": 220,
      "ě": 221,
      "Ĝ": 222,
      "ĝ": 223,
      "Ğ": 224,
      "ğ": 225,
      "Ġ": 226,
      "ġ": 227,
      "Ģ": 228,
      "ģ": 229,
      "Ĥ": 230,
      "ĥ": 231,
      "Ħ": 232,
      "ħ": 233,
      "Ĩ": 234,
      "ĩ": 235,
      "Ī": 236,
      "ī": 237,
      "Ĭ": 238,
      "ĭ": 239,
      "Į": 240,
      "į": 241,
      "İ": 242,
      "ı": 243,
      "Ĳ": 244,
      "ĳ": 245,
      "Ĵ": 246,
      "ĵ": 247,
      "Ķ": 248,
      "ķ": 249,
      "ĸ": 250,
      "Ĺ": 251,
      "ĺ": 252,
      "Ļ": 253,
      "ļ": 254,
      "Ľ": 255,
      "ľ": 256,
      "Ŀ": 257,
      "ŀ": 258,
      "Ł": 259,
      "ł": 260,
      "Ń": 261,
      "à¤": 262,
      "à¥": 263,
      "Ġà¤": 264,
      "à¤¾": 265,
      "à¥į": 266,
      "à¤Ĥ": 267,
      "à¥ĩ": 268,
      "à¤°": 269,
      "à¤¤": 270,
      "à¤¯": 271,
      "à¥Ģ": 272,
      "à¤²": 273,
      "à¤¨": 274,
      "à¤ķ": 275,
      "à¥ĭ": 276,
      "à¤¿": 277,
      "à¤ļ": 278,
      "à¤µ": 279,
      "à¤¾à¤Ĥ": 280,
      "à¤¸": 281,
      "à¥ģ": 282,
      "Ġà¤ķ": 283,
      "Ġà¤¤": 284,
      "à¤ª": 285,
      "à¤®": 286,
      "à¤£": 287,
      "Ġà¤Ĩ": 288,
      "à¤Ĺ": 289,
      "Ġà¤®": 290,
      "à¥ĩà¤Ĥ": 291,
      "à¥Ĥ": 292,
      "Ġà¤¸": 293,
      "à¤¹": 294,
      "Ġà¤ª": 295,
      "à¤¡": 296,
      "à¤¦": 297,
      "à¤³": 298,
      "à¤¶": 299,
      "à¤ľ": 300,
      "Ġà¤µ": 301,
      "Ġà¤¹": 302,
      "Ġà¤ľ": 303,
      "à¤Ł": 304,
      "Ġà¤¦": 305,
      "Ġà¤¨": 306,
      "à¤¬": 307,
      "Ġà¤¬": 308,
      "Ġà¤ħ": 309,
      "Ġ.": 310,
      "Ġà¤Ń": 311,
      "Ġà¤°": 312,
      "Ġà¤Ĺ": 313,
      "à¥Ģà¤Ĥ": 314,
      "Ġà¤²": 315,
      "à¤ĸ": 316,
      "à¤¤à¤²": 317,
      "Ġà¤ī": 318,
      "Ġà¤Ĩà¤¨": 319,
      "Ġà¤ĺ": 320,
      "à¤¾.": 321,
      "Ġà¤ĸ": 322,
      "Ġà¤ļ": 323,
      "Ġà¤ķà¤°": 324,
      "à¤¯à¤²": 325,
      "Ġà¤¶": 326,
      "Ġà¥": 327,
      "à¥ĭà¤Ĥ": 328,
      "à¤Ń": 329,
      "Ġà¤Ĩà¤¸": 330,
      "à¤§": 331,
      "Ġà¤¯": 332,
      "à¤·": 333,
      "ıà¤ķ": 334,
      "à¤Ĩ": 335,
      "à¤¥": 336,
      "à¤µà¤¨": 337,
      "Ġà¤«": 338,
      "Ġà¤ıà¤ķ": 339,
      "à¥ĭ.": 340,
      "à¥Ĥà¤Ĥ": 341,
      "Ġ,": 342,
      "à¤¹à¤£": 343,
      "à¥Ģ.": 344,
      "à¤°à¤¤": 345,
      "Ġà¤§": 346,
      "à¥Ī": 347,
      "à¤¯à¤¤": 348,
      "à¤µà¤ª": 349,
      "à¤µà¤°": 350,
      "à¤¤à¤°": 351,
      "à¥ĩà¤Ĥ.": 352,
      "à¥ĩ.": 353,
      "à¤ł": 354,
      "à¤Ĺà¤²": 355,
      "Ġà¤Ĩà¤ª": 356,
      "à¤¡à¤²": 357,
      "à¤¸à¤²": 358,
      "à¤°à¤ķ": 359,
      "Ġà¤¥": 360,
      "Ġà¤Ĩà¤®": 361,
      "Ġà¤¤à¤°": 362,
      "à¥ĥ": 363,
      "Ġà¤ĩ": 364,
      "Ġà¤ħà¤¶": 365,
      "Ġà¥¤": 366,
      "..": 367,
      "à¤«": 368,
      "à¤¯à¤ķ": 369,
      "à¤ħ": 370,
      "à¤¹à¤ľ": 371,
      "à¤¸à¤¤": 372,
      "à¤¾,": 373,
      "à¤Ĺà¤³": 374,
      "à¤µà¤¤": 375,
      "Ġà¤®à¤¨": 376,
      "à¤¿à¤Ĥ": 377,
      "Ġà¤¬à¤°": 378,
      "à¥¤": 379,
      "Ġà¤ªà¤³": 380,
      "à¤ķà¤°": 381,
      "à¥ģà¤Ĥ": 382,
      "à¤°à¤¸": 383,
      "Ġà¤Ĩà¤¶": 384,
      "à¤¯à¤ļ": 385,
      "Ġ?": 386,
      "à¤ªà¤°": 387,
      "à¤ĺ": 388,
      "à¤¬à¤°": 389,
      "à¤µà¤²": 390,
      "à¤¸à¤°": 391,
      "Ġà¤ªà¤°": 392,
      "Ġà¤¸à¤®": 393,
      "à¤¯à¤°": 394,
      "à¤µà¤ļ": 395,
      "à¤°à¤£": 396,
      "§à¥": 397,
      "à¤¦à¤°": 398,
      "à¤Ĺà¤¤": 399,
      "Ġà¤µà¤°": 400,
      "à¥ī": 401,
      "Ġà¤Ĩà¤ªà¤²": 402,
      "à¤ķà¤¡": 403,
      "à¥Ģ,": 404,
      "à¤¯à¤¨": 405,
      "à¤ķà¤£": 406,
      "à¤Łà¤²": 407,
      "à¤ī": 408,
      "à¤¹à¤³": 409,
      "Ġà¤ĺà¤°": 410,
      "à¤ªà¤£": 411,
      "à¤µà¤¸": 412,
      "à¤¤à¤ķ": 413,
      "Ġà¤Ĩà¤¯à¤²": 414,
      "Ġà¤ķà¤°à¤¤": 415,
      "Ġà¤Ĩà¤¤": 416,
      "à¤°à¤²": 417,
      "Ġà¤¸à¤Ĺà¤³": 418,
      "Ġà¤Ĩà¤¸à¤¤": 419,
      "Ġà¤ªà¤¡": 420,
      "à¤°à¤µ": 421,
      "à¤Ĺà¤°": 422,
      "à¤®à¤ķ": 423,
      "à¤ĥ": 424,
      "à¤µà¤³": 425,
      "à¤ķà¤²": 426,
      "Ġà¤ļà¤²": 427,
      "à¤Ĺà¤¡": 428,
      "à¤°à¤®": 429,
      "à¤¹à¤¯": 430,
      "à¥Į": 431,
      "à¤®à¤¨": 432,
      "Ġà¤ķà¤°à¤ª": 433,
      "Ġà¤Ŀ": 434,
      "à¤ķà¤¤": 435,
      "Ġà¤¸à¤°": 436,
      "à¤Łà¤ķ": 437,
      "à¤ģ": 438,
      "Ġà¤µà¤ļ": 439,
      "à¥ĩ,": 440,
      "à¤°à¤Ĺ": 441,
      "à¥ĭ,": 442,
      "à¤Ĩà¤¨": 443,
      "à¥¦": 444,
      "Ġà¤Ĩà¤µ": 445,
      "Ġà¥¥": 446,
      "à¤±": 447,
      "Ġ!": 448,
      "à¥ħ": 449,
      "Ġà¤Ĩà¤¸à¤²": 450,
      "Ġà¤ħà¤¸": 451,
      "à¤¦à¤²": 452,
      "Ġà¤īà¤²": 453,
      "Ġà¤Ĩà¤¯": 454,
      "à¤¼": 455,
      "à¤Ī": 456,
      "Ġà¤Ĩà¤®à¤ļ": 457,
      "à¤µà¤£": 458,
      "à¤Ŀ": 459,
      "Ġà¤¤à¤¶": 460,
      "à¤ŀ": 461,
      "à¥ĩà¤Ĥ,": 462,
      "Ġà¤ļà¤¡": 463,
      "Ġà¥§à¥": 464,
      "à¤ĩ": 465,
      "à¤®à¤ļ": 466,
      "Ġà¤īà¤¦": 467,
      "à¤¾à¤Ĥ.": 468,
      "à¤ıà¤ķ": 469,
      "à¤ªà¤¨": 470,
      "Ġà¤§à¤°": 471,
      "Ġà¤¡": 472,
      "à¥¨": 473,
      "Ġà¤ĵ": 474,
      "Ġà¤ħà¤¨": 475,
      "à¤¤à¤¨": 476,
      "Ġà¤Ł": 477,
      "Ġà¤ªà¤¯à¤²": 478,
      "Ġà¤ķà¤µ": 479,
      "Ġà¤īà¤ª": 480,
      "à¤³à¤Ł": 481,
      "Ġà¤ħà¤°": 482,
      "à¥Ģà¤Ĥ.": 483,
      "à¤°à¤ª": 484,
      "Ġà¤¦à¤µà¤°": 485,
      "à¤°à¤ļ": 486,
      "à¤¡à¤Ł": 487,
      "à¤µà¤ķ": 488,
      "Ġà¤ķà¤¶": 489,
      "à¤ªà¤²": 490,
      "à¥§à¥": 491,
      "à¤ľà¤¨": 492,
      "Ġà¤ķà¤¡": 493,
      "à¤¶à¤¨": 494,
      "à¤µà¤Ł": 495,
      "Ġà¤ĸà¤°": 496,
      "à¥«": 497,
      "Ġà¤ķà¤³": 498,
      "à¥©": 499,
      "à¤ªà¤¤": 500,
      "à¤ı": 501,
      "à¥ª": 502,
      "à¤¡à¤ª": 503,
      "Ġà¤ı": 504,
      "à¤®à¤¤": 505,
      "Ġà¤ªà¤°à¤¤": 506,
      "Ġà¤®à¤¹": 507,
      "à¥Ń": 508,
      "à¤¯à¤¸": 509,
      "Ġ...": 510,
      "Ġà¤Ĩà¤¯à¤ķ": 511,
      "Ġà¤Ĩà¤¦": 512,
      "à¤°à¤ľ": 513,
      "à¤¹à¤°": 514,
      "à¤µà¤¯": 515,
      "Ġà¤¬à¤¸": 516,
      "Ġà¤Ĩà¤ªà¤£": 517,
      "Ġà¤®à¤°": 518,
      "à¤Ľ": 519,
      "Ġà¤µà¤¤": 520,
      "Ġà¤ķà¤²": 521,
      "Ġà¤®à¤¨à¤¶": 522,
      "Ġà¤ªà¤¡à¤²": 523,
      "Ġà¤Ĩà¤ľ": 524,
      "à¤·à¤£": 525,
      "à¤¢": 526,
      "Ġà¤īà¤¤à¤°": 527,
      "à¥¬": 528,
      "Ġà¤¸à¤¤": 529,
      "à¤¹à¤¡": 530,
      "Ġà¤¨à¤µ": 531,
      "Ġà¤ĩà¤¤à¤²": 532,
      "à¤µà¤¡": 533,
      "à¤²à¤¤": 534,
      "à¥¥": 535,
      "à¤¸à¤ķ": 536,
      "Ġà¤ĺà¤¡": 537,
      "à¤¾?": 538,
      "à¤¹à¤£à¤Ł": 539,
      "Ġà¤¦à¤°": 540,
      "à¥Īà¤Ĥ": 541,
      "à¥¯": 542,
      "à¤ľà¤µ": 543,
      "Ġà¤īà¤ªà¤°": 544,
      "Ġà¤Ĩà¤®à¤ķ": 545,
      "Ġà¤Ĺà¤ľ": 546,
      "Ġà¥¨": 547,
      "à¤Łà¤°": 548,
      "à¤¦à¤¨": 549,
      "à¥®": 550,
      "à¤®à¤£": 551,
      "à¤°à¤¹": 552,
      "Ġà¤¸à¤Ĺà¤²": 553,
      "à¤²à¤¯": 554,
      "...": 555,
      "à¤°à¤¯": 556,
      "à¤²à¤ķ": 557,
      "Ġà¤¸à¤¦": 558,
      "à¤¡à¤ķ": 559,
      "Ġà¤ĸà¤¬à¤°": 560,
      "à¤¯à¤®": 561,
      "Ġà¤ķà¤¸à¤²": 562,
      "Ġà¤īà¤¬": 563,
      "à¤¸à¤¨": 564,
      "Ġà¤ħà¤§": 565,
      "à¤¾à¤ģ": 566,
      "à¤Ńà¤°": 567,
      "à¤Ĩà¤¸": 568,
      "à¤°à¤¶": 569,
      "Ġà¤ħà¤ķ": 570,
      "Ġà¤īà¤¤": 571,
      "Ġà¤¸à¤®à¤ľ": 572,
      "à¤¸à¤®": 573,
      "à¤Ĺà¤£": 574,
      "Ġà¤¸à¤ķ": 575,
      "Ġà¤Ĩà¤°": 576,
      "Ġà¤²à¤Ĺ": 577,
      "à¤ħà¤¶": 578,
      "à¤¹à¤¡à¤²": 579,
      "à¤¾à¤Ĥ,": 580,
      "Ġà¤Ńà¤°": 581,
      "Ġà¤īà¤¦à¤ķ": 582,
      "Ġà¤ķà¤¥": 583,
      "Ġà¤¤à¤¯": 584,
      "Ġà¤µà¤³": 585,
      "Ġà¤ķà¤°à¤ļ": 586,
      "Ġà¤ħà¤Ń": 587,
      "Ġà¤µà¤¸": 588,
      "à¤ķà¤³": 589,
      "à¤°à¤Ń": 590,
      "Ġà¤ªà¤¡à¤Ł": 591,
      "à¤¸à¤ª": 592,
      "à¤¹à¤£à¤²": 593,
      "à¥§": 594,
      "à¤°à¤¦": 595,
      "à¤¦à¤¤": 596,
      "à¤ķà¤ļ": 597,
      "à¤µà¤ľ": 598,
      "Ġà¤¨à¤¦à¤°": 599,
      "à¤¡à¤¯": 600,
      "à¤¹à¤¤": 601,
      "à¤½": 602,
      "Ġà¤ľà¤²": 603,
      "à¤¯à¤Ł": 604,
      "à¤¨à¤ļ": 605,
      "Ġà¤ħà¤ľ": 606,
      "à¤¯à¤£": 607,
      "à¤¤à¤®": 608,
      "Ġà¤ĩà¤¤": 609,
      "à¤ªà¤¯": 610,
      "à¤ªà¤¡": 611,
      "à¤µà¤¯à¤²": 612,
      "Ġà¤ľà¤¨": 613,
      "à¤¤à¤¯": 614,
      "Ġà¤ħà¤ª": 615,
      "à¤Ĺà¤ª": 616,
      "à¤§à¤¨": 617,
      "à¤®à¤¦": 618,
      "Ġà¤Ĩà¤¡": 619,
      "Ġà¤¶à¤ķ": 620,
      "Ġà¤ķà¤¸": 621,
      "à¤®à¤²": 622,
      "à¤¤à¤ļ": 623,
      "Ġà¤²à¤ķ": 624,
      "Ġà¤īà¤¡": 625,
      "à¤ªà¤³": 626,
      "à¤®à¤°": 627,
      "à¤¶à¤¯": 628,
      "à¤¨à¤¸": 629,
      "à¤£à¤¯": 630,
      "à¤³à¤ª": 631,
      "à¤¨à¤¯": 632,
      "à¤Ĩà¤¤": 633,
      "Ġà¤®à¤¦": 634,
      "Ġà¤ªà¤¤": 635,
      "à¤¬à¤²": 636,
      "à¤§à¤°": 637,
      "à¤¤à¤³": 638,
      "Ġà¤ľà¤°": 639,
      "Ġà¤ħà¤¸à¤²": 640,
      "à¤£à¤ķ": 641,
      "à¤®à¤³": 642,
      "Ġà¤Ĺà¤°à¤ľ": 643,
      "Ġà¤ªà¤¦": 644,
      "à¤¨à¤µ": 645,
      "à¤ļà¤²": 646,
      "à¤ľà¤°": 647,
      "Ġà¤Ľ": 648,
      "à¤Ĩà¤¶": 649,
      "à¤¸à¤±": 650,
      "à¤¯à¤¶": 651,
      "à¤¯à¤¦": 652,
      "à¤³à¤ļ": 653,
      "à¤ķà¤µ": 654,
      "Ġà¤¬à¤¦à¤²": 655,
      "Ġà¤Ķ": 656,
      "à¤ĵ": 657,
      "Ġà¤®à¤¤": 658,
      "à¤ĺà¤°": 659,
      "Ġà¤¸à¤°à¤ķ": 660,
      "à¤¯à¤¬": 661,
      "à¤³à¤¯": 662,
      "à¤ĸà¤£": 663,
      "à¤¤à¤¶": 664,
      "Ġà¤ªà¤³à¤¯à¤¤": 665,
      "à¤²à¤¨": 666,
      "à¤¦à¤ķ": 667,
      "à¥ĭà¤Ĥ.": 668,
      "à¤¾à¥¤": 669,
      "Ġà¤Ĩà¤¹": 670,
      "à¤¡à¤ļ": 671,
      "à¤¬à¤¡": 672,
      "à¤¹à¤£à¤ª": 673,
      "à¤ļà¤¨": 674,
      "à¥¦à¥¦": 675,
      "Ġà¤ĳ": 676,
      "à¤Ĺà¤µ": 677,
      "à¤Ńà¤µ": 678,
      "Ġà¤īà¤°": 679,
      "Ġà¤µà¤ļà¤ª": 680,
      "Ġà¤«à¤ķà¤¤": 681,
      "Ġà¤¤à¤¸": 682,
      "Ġà¤īà¤ł": 683,
      "Ġà¤µà¤¯à¤²": 684,
      "à¤ªà¤ķ": 685,
      "à¤¹à¤¨": 686,
      "à¤³à¤ľ": 687,
      "à¤ķà¤¯": 688,
      "à¤Ĩà¤ªà¤²": 689,
      "à¤¸à¤¤à¤¨": 690,
      "à¤¸à¤µ": 691,
      "Ġà¤īà¤ľà¤µ": 692,
      "à¤ķà¤¸": 693,
      "Ġà¤Ķà¤°": 694,
      "Ġà¤ħà¤®": 695,
      "Ġà¤Ĩà¤ķ": 696,
      "à¤°à¤ĸ": 697,
      "Ġà¤Ĩà¤£": 698,
      "à¤¤à¤¤": 699,
      "Ġà¤Ĩà¤¯à¤ľ": 700,
      "à¤ĸà¤²": 701,
      "Ġà¥§à¥¯": 702,
      "Ġà¤®à¤³": 703,
      "à¤ľà¤ķ": 704,
      "à¤¤à¤µ": 705,
      "à¤¤à¤¸": 706,
      "à¤¨à¤ķ": 707,
      "à¤Ĩà¤®": 708,
      "Ġà¤Ĺà¤°": 709,
      "à¥ĩ?": 710,
      "à¤ªà¤¸": 711,
      "à¤¦à¤®": 712,
      "Ġà¤µà¤¯à¤°": 713,
      "à¤Ĭ": 714,
      "Ġà¤°à¤¸": 715,
      "Ġà¤ªà¤³à¤¯à¤²": 716,
      "à¤°à¤¨": 717,
      "à¤¿.": 718,
      "à¤¨à¤¤": 719,
      "à¤ķà¤Ł": 720,
      "Ġà¤ªà¤£": 721,
      "à¤Ĺà¤ļ": 722,
      "Ġà¤¬à¤¸à¤²": 723,
      "à¤®à¤¸": 724,
      "à¤¡à¤µ": 725,
      "Ġà¥©": 726,
      "Ġà¤¨à¤¹": 727,
      "Ġà¤ł": 728,
      "Ġà¤ļà¤²à¤¤": 729,
      "à¤¹à¤¯à¤¨": 730,
      "à¤¡à¤¤": 731,
      "à¤³à¤¤": 732,
      "à¤²à¤ª": 733,
      "Ġà¥¯": 734,
      "Ġà¤µà¤³à¤ĸ": 735,
      "à¤ľà¤²": 736,
      "Ġà¤Ĩà¤µà¤¯": 737,
      "Ġà¤īà¤£": 738,
      "Ġà¤īà¤®": 739,
      "à¤ªà¤¦": 740,
      "à¤ķà¤°à¤£": 741,
      "à¤°à¤¬": 742,
      "à¤³à¤³": 743,
      "à¤¯à¤µ": 744,
      "Ġà¤ªà¤¯à¤¸": 745,
      "Ġà¥ª": 746,
      "Ġà¤ıà¤ķà¤²": 747,
      "à¤Ĩà¤¯": 748,
      "à¤¾!": 749,
      "Ġà¤ªà¤³à¤¯": 750,
      "à¤¸à¤Ĺà¤³": 751,
      "à¥ĩà¤Ĥ?": 752,
      "Ġà¤ĩà¤¶": 753,
      "Ġà¤ħà¤£": 754,
      "à¤¶à¤ķ": 755,
      "Ġà¤Ĩà¤²": 756,
      "Ġà¤¤à¤¤": 757,
      "à¤¹à¤µ": 758,
      "à¤¬à¤³": 759,
      "à¤ķà¤ª": 760,
      "à¤¦à¤¯": 761,
      "à¤¬à¤¨": 762,
      "à¤Ĩà¤®à¤ļ": 763,
      "à¤ĸà¤°": 764,
      "à¤¬à¤¤": 765,
      "Ġà¤¤à¤ķà¤²": 766,
      "Ġà¤īà¤²à¤¯à¤¤": 767,
      "à¤ªà¤¯à¤²": 768,
      "à¥Ģà¤Ĥ,": 769,
      "Ġà¤¶à¤¬": 770,
      "à¤Łà¤¨": 771,
      "à¤µà¤¶": 772,
      "Ġà¤ķà¤°à¤¤à¤²": 773,
      "Ġà¤¸à¤Ń": 774,
      "à¤ľà¤¯": 775,
      "Ġà¤ªà¤°à¤¸": 776,
      "à¤Ĺà¤¨": 777,
      "à¥ĭ?": 778,
      "Ġà¤®à¤ľ": 779,
      "Ġà¤¦à¤µà¤°à¤²": 780,
      "à¤ķà¤¶": 781,
      "à¤ªà¤¶": 782,
      "à¤³à¤Ĺ": 783,
      "Ġà¤Ĩà¤¸à¤¤à¤¨": 784,
      "Ġà¤Ĩà¤¸à¤¤à¤²": 785,
      "à¤ļà¤ķ": 786,
      "Ġà¤ħà¤¤": 787,
      "à¤¤à¤ķà¤ļ": 788,
      "à¤ļà¤ª": 789,
      "Ġà¤Ĳ": 790,
      "à¤®à¤Ĺ": 791,
      "Ġà¥¤à¥¤": 792,
      "à¤³à¤¨": 793,
      "à¤ļà¤°": 794,
      "à¤Ļ": 795,
      "à¤¬à¤¯": 796,
      "à¤ħà¤°": 797,
      "Ġà¥§": 798,
      "Ġà¤Ńà¤ķ": 799,
      "Ġà¤ĩà¤¸": 800,
      "à¤°à¤¥": 801,
      "Ġà¤¯à¤¤": 802,
      "à¤ħà¤¸": 803,
      "à¤ķà¤¨": 804,
      "à¤ļà¤µ": 805,
      "à¤Łà¤¯": 806,
      "à¤ħà¤¨": 807,
      "à¤¦à¤ª": 808,
      "à¤®à¤¹": 809,
      "Ġà¤ľà¤®": 810,
      "à¤·à¤ķ": 811,
      "à¥Ģ?": 812,
      "Ġà¤¸à¤¹": 813,
      "à¤¨à¤¶": 814,
      "à¤²à¤µ": 815,
      "à¥ģ,": 816,
      "Ġà¤ķà¤®": 817,
      "à¤ļà¤¤": 818,
      "à¤²à¤ļ": 819,
      "à¤¾...": 820,
      "à¤³à¤ķ": 821,
      "Ġà¤Ĩà¤Ī": 822,
      "à¤¶à¤£": 823,
      "Ġà¥«": 824,
      "Ġà¤ªà¤¸": 825,
      "à¤ĸà¤ķ": 826,
      "Ġà¤Ĩà¤Ĺ": 827,
      "Ġà¤ªà¤¯à¤¶": 828,
      "Ġà¤Ĺà¤£": 829,
      "à¤¹à¤£à¤¤": 830,
      "Ġà¤īà¤ľ": 831,
      "à¤¿,": 832,
      "Ġà¤īà¤¸": 833,
      "à¤Ĺà¤¦": 834,
      "Ġà¤ĺà¤Ł": 835,
      "Ġà¤ĩà¤²": 836,
      "Ġà¤µà¤Ł": 837,
      "Ġà¤¹à¤¯": 838,
      "à¤Ĺà¤®": 839,
      "à¤ªà¤Ł": 840,
      "Ġà¤¹à¤°": 841,
      "Ġà¤§à¤¨": 842,
      "Ġà¤¬à¤¶": 843,
      "Ġà¤¹à¤ľ": 844,
      "Ġà¤ĩà¤¨": 845,
      "à¤¦à¤µ": 846,
      "Ġà¤ķà¤°à¤¨": 847,
      "Ġà¤¸à¤µ": 848,
      "à¤Ĥ.": 849,
      "Ġà¤ļà¤²à¤¯": 850,
      "à¤Ĩà¤°": 851,
      "à¥Ģà¥¤": 852,
      "Ġà¤«à¤³": 853,
      "Ġà¥Ń": 854,
      "à¤Ĩà¤¯à¤²": 855,
      "à¤ĸà¤¦": 856,
      "à¥ī.": 857,
      "à¤¨à¤ª": 858,
      "à¤¨à¤°": 859,
      "à¤¹à¤£à¤ľ": 860,
      "Ġà¤®à¤§": 861,
      "Ġà¤ħà¤¦": 862,
      "Ġà¤¸à¤ķà¤¯à¤²": 863,
      "à¤£à¤µ": 864,
      "à¤ľà¤¤": 865,
      "Ġà¤¬à¤°à¤¯à¤²": 866,
      "Ġà¤¸à¤°à¤²": 867,
      "à¤£à¤Ł": 868,
      "Ġà¤ħà¤µ": 869,
      "à¤ķà¤°à¤¤": 870,
      "à¤ĸà¤¤": 871,
      "à¤Ĺà¤¸": 872,
      "à¤ķà¤°à¤ª": 873,
      "à¤¯à¤ª": 874,
      "Ġà¤®à¤°à¤£": 875,
      "Ġà¤Ĩà¤§": 876,
      "Ġà¤ľà¤Ĺ": 877,
      "à¤¡à¤Ĺ": 878,
      "à¥Īà¥¤": 879,
      "Ġà¤ķà¤¨": 880,
      "Ġà¤īà¤°à¤²": 881,
      "à¤ĸà¤¡": 882,
      "à¤¤à¤ª": 883,
      "à¤¡à¤³": 884,
      "à¤¾à¤ĥ": 885,
      "Ġà¤ħà¤²": 886,
      "Ġà¤¶à¤ķà¤¤": 887,
      "Ġà¤«à¤Ł": 888,
      "à¤ªà¤°à¤¸": 889,
      "à¤²à¤²": 890,
      "à¤¡à¤£": 891,
      "à¤ªà¤°à¤¤": 892,
      "à¤ľà¤ª": 893,
      "à¤¸à¤£": 894,
      "à¤ķà¤¡à¤²": 895,
      "à¤§à¤µ": 896,
      "Ġà¤ªà¤ķ": 897,
      "Ġà¤¤à¤³": 898,
      "à¤®à¤¯": 899,
      "Ġà¤®à¤Ĺ": 900,
      "à¥ĩà¥¤": 901,
      "Ġà¤Ī": 902,
      "Ġà¤Ĩà¤ł": 903,
      "à¤¼à¤¾": 904,
      "à¤¡à¤¨": 905,
      "Ġà¥¬": 906,
      "à¤Ĩà¤¸à¤¤": 907,
      "à¤¯à¤ľ": 908,
      "Ġà¤ħà¤£à¤Ńà¤µ": 909,
      "à¤¬à¤¸": 910,
      "à¤®à¤Ł": 911,
      "Ġà¤°à¤¹": 912,
      "Ġà¤¸à¤ªà¤¨": 913,
      "Ġà¤Ńà¤¶": 914,
      "à¤¸à¤¦": 915,
      "à¤¸à¤ļ": 916,
      "à¤ĩà¤¤à¤²": 917,
      "à¤Ĩà¤ľ": 918,
      "Ġà¤¦à¤µ": 919,
      "à¤µà¤¤à¤²": 920,
      "à¤ĸà¤¨": 921,
      "à¤īà¤²": 922,
      "à¤ļà¤¯": 923,
      "Ġà¤ļà¤°": 924,
      "Ġà¤ªà¤¡à¤Łà¤²": 925,
      "Ġà¤Ĺà¤³": 926,
      "à¤³à¤ĸ": 927,
      "Ġà¤µà¤¹": 928,
      "à¥Ĥ,": 929,
      "à¥ģ.": 930,
      "à¤µà¤¦": 931,
      "à¤²à¤Ĺ": 932,
      "à¤£à¤ļ": 933,
      "à¤³à¤Łà¤²": 934,
      "Ġà¤«à¤ķ": 935,
      "Ġà¤īà¤ķ": 936,
      "Ġà¤¯à¤¹": 937,
      "à¤Łà¤ķà¤ļ": 938,
      "à¤¹à¤£à¤ļ": 939,
      "à¤µà¤°à¤£": 940,
      "Ġà¤¬à¤¡": 941,
      "à¤¦à¤³": 942,
      "Ġà¤ĳà¤«": 943,
      "Ġà¤īà¤ªà¤ķ": 944,
      "Ġà¤īà¤Ĺà¤¡": 945,
      "Ġà¤īà¤ļ": 946,
      "à¤°à¤¯à¤¤": 947,
      "à¤°à¤§": 948,
      "à¤¬à¤ª": 949,
      "Ġà¤ªà¤°à¤®": 950,
      "à¤£à¤¨": 951,
      "Ġà¤¬à¤³": 952,
      "à¤Ĩà¤¸à¤²": 953,
      "à¤·à¤¯": 954,
      "Ġà¤®à¤¸": 955,
      "à¥ģà¤ĥ": 956,
      "à¤īà¤ªà¤°": 957,
      "à¤¬à¤¦": 958,
      "à¤¡à¤¸": 959,
      "Ġà¥®": 960,
      "à¤Ĩà¤µ": 961,
      "à¤¨à¤®": 962,
      "Ġà¤ķà¤°à¤£": 963,
      "Ġà¤ĵà¤¡": 964,
      "à¤Ĺà¤Ł": 965,
      "à¤¨à¤²": 966,
      "Ġà¤¹à¤³": 967,
      "à¤¶à¤µ": 968,
      "à¤²à¤¸": 969,
      "Ġà¤¬à¤¹": 970,
      "Ġà¤°à¤µ": 971,
      "à¤µà¤Ĺ": 972,
      "à¤¥à¤¨": 973,
      "Ġà¤Ĭ": 974,
      "Ġà¤ľà¤¶": 975,
      "Ġà¤ķà¤¹": 976,
      "à¤²à¤®": 977,
      "à¤Ńà¤¶": 978,
      "Ġà¤ªà¤Ł": 979,
      "à¤±à¤¯": 980,
      "Ġà¤°à¤ķ": 981,
      "Ġà¤ķà¤¡à¤²": 982,
      "à¤Ńà¤ķ": 983,
      "à¤Ĩà¤ª": 984,
      "à¤®à¤¨à¤¶": 985,
      "à¤µà¤®": 986,
      "à¤¯à¤¤à¤²": 987,
      "Ġà¤Ĩà¤®à¤Ĺ": 988,
      "à¤²à¤¦": 989,
      "Ġà¤ľà¤®à¤¨": 990,
      "Ġà¤¨à¤ľ": 991,
      "à¤ĩà¤¤": 992,
      "à¤¨à¤¡": 993,
      "à¤ķà¤¥": 994,
      "Ġà¤¶à¤°": 995,
      "Ġà¤¦à¤µà¤°à¤¤": 996,
      "Ġà¤Ĩà¤¸à¤ļ": 997,
      "Ġà¤Ńà¤¯à¤£": 998,
      "à¤ļà¤£": 999,
      "Ġà¤ķà¤ł": 1000,
      "Ġà¤ĺà¤¡à¤¯": 1001,
      "à¥Ģ!": 1002,
      "Ġà¤ĺà¤°à¤ļ": 1003,
      "--": 1004,
      "à¤ħà¤§": 1005,
      "Ġà¤Ĩà¤¸à¤ª": 1006,
      "Ġà¤ħà¤ĸ": 1007,
      "Ġà¤¸à¤²": 1008,
      "à¤Ĩà¤¦": 1009,
      "Ġà¤Ĩà¤¦à¤²": 1010,
      "à¤ķà¤®": 1011,
      "à¤·à¤°": 1012,
      "Ġà¤®à¤³à¤¬": 1013,
      "à¤¡à¤°": 1014,
      "Ġà¤¦à¤µà¤°à¤ª": 1015,
      "Ġà¤Ńà¤°à¤¤": 1016,
      "Ġà¤ıà¤ķà¤ł": 1017,
      "Ġà¤¨à¤ķ": 1018,
      "à¤Łà¤µ": 1019,
      "Ġà¤¸à¤°à¤¤": 1020,
      "à¤¤à¤°à¤²": 1021,
      "Ġà¤Ńà¤Ł": 1022,
      "à¤Łà¤¤": 1023,
      "à¤Ĺà¤¤à¤²": 1024,
      "à¤³à¤¸": 1025,
      "à¤¬à¤ļ": 1026,
      "Ġà¤ıà¤ķà¤¦": 1027,
      "Ġà¤®à¤²": 1028,
      "à¤·à¤¤": 1029,
      "Ġà¤ĺà¤¡à¤²": 1030,
      "à¥ĩà¤Ĥà¥¤": 1031,
      "Ġà¤¬à¤¸à¤¤": 1032,
      "à¤¬à¤¶": 1033,
      "Ġà¤ķà¤³à¤¨": 1034,
      "Ġà¤ªà¤£à¤ľ": 1035,
      "à¤¦à¤ļ": 1036,
      "à¥įà¥į": 1037,
      "à¤¯à¤¯": 1038,
      "Ġà¤¸à¤¨": 1039,
      "à¥ĩ!": 1040,
      "Ġà¤°à¤Ĺà¤¤": 1041,
      "à¥§à¥¯": 1042,
      "à¤ľà¤®": 1043,
      "Ġà¤¦à¤ķ": 1044,
      "à¤£à¤¤": 1045,
      "à¥§à¥¦": 1046,
      "à¤ļà¤¡": 1047,
      "Ġà¤ķà¤ªà¤¡": 1048,
      "Ġà¤¢": 1049,
      "Ġà¤µà¤ļà¤¨": 1050,
      "Ġà¤¤à¤ª": 1051,
      "à¤Łà¤ª": 1052,
      "à¥ĳ": 1053,
      "à¤¦à¤µà¤°": 1054,
      "Ġà¤¸à¤ª": 1055,
      "Ġà¤¤à¤¥": 1056,
      "à¤Ĺà¤ľ": 1057,
      "Ġà¤Ĩà¤¯à¤ķà¤²": 1058,
      "à¤Ĩà¤ªà¤£": 1059,
      "à¥ĭ!": 1060,
      "à¤ĸà¤¯à¤²": 1061,
      "Ġà¤¬à¤Ĺà¤°": 1062,
      "Ġà¥§à¥®": 1063,
      "Ġà¤¬à¤¨": 1064,
      "Ġà¤¸à¤¬": 1065,
      "à¤¼à¥Ģ": 1066,
      "à¤®à¤§": 1067,
      "à¤³à¤£": 1068,
      "à¤īà¤ª": 1069,
      "à¤Łà¤®": 1070,
      "Ġà¤ľà¤¯": 1071,
      "Ġà¤µà¤ĸà¤¦": 1072,
      "Ġà¥¨à¥¦": 1073,
      "Ġà¤°à¤®": 1074,
      "à¤Ĺà¤¶": 1075,
      "à¤³à¤¶": 1076,
      "à¤Ĩà¤¯à¤ķ": 1077,
      "à¤°à¤ªà¤£": 1078,
      "Ġà¤¨à¤°": 1079,
      "à¤ľà¤¸": 1080,
      "à¤¹à¤¸": 1081,
      "Ġ..": 1082,
      "à¤¨à¤¨": 1083,
      "Ġà¤ħà¤ªà¤¨": 1084,
      "à¥Ģ...": 1085,
      "Ġà¤¤à¤¸à¤²": 1086,
      "Ġà¤¨à¤¶": 1087,
      "Ġà¤¤à¤°à¤£": 1088,
      "à¤®à¤ľ": 1089,
      "Ġà¤īà¤°à¤¤": 1090,
      "à¤ĸà¤¯à¤¤": 1091,
      "Ġà¥§à¥¦": 1092,
      "à¤¹à¤²": 1093,
      "à¤īà¤¦": 1094,
      "à¤ķà¤¸à¤²": 1095,
      "Ġà¤īà¤²à¤¯à¤²": 1096,
      "Ġà¤Ńà¤¯": 1097,
      "Ġà¤Ĺà¤¤": 1098,
      "Ġà¤²à¤ľ": 1099,
      "Ġà¤ªà¤µ": 1100,
      "à¤¨à¤¦": 1101,
      "à¤ħà¤ķ": 1102,
      "Ġà¤ķà¤£": 1103,
      "Ġà¤Ńà¤²": 1104,
      "à¤¹à¤Łà¤²": 1105,
      "à¤³à¤µà¤³": 1106,
      "à¤ªà¤¡à¤²": 1107,
      "Ġà¤ĵà¤Ĺ": 1108,
      "Ġà¤ħà¤¬": 1109,
      "Ġà¤®à¤¦à¤²": 1110,
      "à¤Ĺà¤¯": 1111,
      "Ġà¤Ĺà¤¡": 1112,
      "à¤Ĩà¤®à¤ķ": 1113,
      "à¤īà¤¤": 1114,
      "à¤§à¤¤": 1115,
      "Ġà¤Ĩà¤µà¤¡": 1116,
      "Ġà¤¤à¤ķ": 1117,
      "Ġà¤¬à¤²": 1118,
      "Ġà¤§à¤µ": 1119,
      "Ġà¤Ĩà¤«": 1120,
      "à¥Įà¤Ĥ": 1121,
      "Ġà¤Ĩà¤¯à¤ļ": 1122,
      "Ġà¤¬à¤°à¤ª": 1123,
      "à¤¹à¤±": 1124,
      "à¥ĭ...": 1125,
      "à¤¸à¤Ĺà¤²": 1126,
      "Ġà¤ķà¤°à¤¤à¤¨": 1127,
      "Ġà¤¥à¤³": 1128,
      "à¤²à¤¬": 1129,
      "à¥Ī,": 1130,
      "Ġà¤Ńà¤µ": 1131,
      "à¤®à¤µ": 1132,
      "à¤ħà¤ª": 1133,
      "Ġà¤§à¤°à¤²": 1134,
      "Ġà¤®à¤®": 1135,
      "Ġà¤µà¤¤à¤²": 1136,
      "Ġà¥¦": 1137,
      "Ġ....": 1138,
      "Ġà¤£": 1139,
      "Ġà¤īà¤¸à¤ķ": 1140,
      "à¥Ĥ.": 1141,
      "à¤°à¤³": 1142,
      "à¤ħà¤Ń": 1143,
      "à¤¸à¤¯": 1144,
      "à¤¿à¤ĥ": 1145,
      "Ġà¤Ŀà¤Ĺà¤¡": 1146,
      "à¤¡à¤Łà¤²": 1147,
      "à¤§à¤ķ": 1148,
      "à¤ĸà¤³": 1149,
      "à¤¹à¤³à¤³": 1150,
      "Ġà¤¨à¤®": 1151,
      "Ġà¤Ĳà¤¸": 1152,
      "à¤¬à¤Ĺà¤°": 1153,
      "à¤®à¤ª": 1154,
      "Ġà¤ıà¤ķà¤Ł": 1155,
      "à¤°à¤¡": 1156,
      "Ġà¤¬à¤°à¤¯à¤¤": 1157,
      "à¤Ĩà¤¯à¤ľ": 1158,
      "Ġà¤Ĺà¤¯": 1159,
      "Ġà¤Ńà¤°à¤²": 1160,
      "à¤ľà¤Ĺ": 1161,
      "à¤µà¤ļà¤¨": 1162,
      "à¤µà¤Ń": 1163,
      "à¤Ĩà¤ķ": 1164,
      "Ġà¤ľà¤£": 1165,
      "à¤µà¤ľà¤£": 1166,
      "Ġà¤ĭ": 1167,
      "à¤Ĭà¤¨": 1168,
      "Ġà¤µà¤¡": 1169,
      "à¤ħà¤®": 1170,
      "Ġà¤ħà¤Ĺ": 1171,
      "à¤Łà¤£": 1172,
      "à¤Łà¤¸": 1173,
      "Ġà¤¹à¤®": 1174,
      "à¤²à¤°": 1175,
      "Ġà¤īà¤ķà¤¤": 1176,
      "à¥Ĥà¤ģ": 1177,
      "Ġà¤īà¤¡à¤¯à¤²": 1178,
      "à¤Ĩà¤¡": 1179,
      "à¤µà¤¤à¤£": 1180,
      "Ġà¤°à¤¡": 1181,
      "Ġà¤ļà¤¡à¤¶": 1182,
      "à¤°à¤µà¤£": 1183,
      "....": 1184,
      "Ġà¤ļà¤ķ": 1185,
      "Ġà¤ħà¤¹": 1186,
      "Ġà¤¹à¤µ": 1187,
      "à¤¥à¤µ": 1188,
      "Ġà¤¦à¤¤": 1189,
      "à¤«à¤³": 1190,
      "Ġà¤ħà¤µà¤¸": 1191,
      "Ġà¤ļà¤³à¤µà¤³": 1192,
      "Ġà¤ªà¤¡à¤¤": 1193,
      "à¤®à¤¶": 1194,
      "Ġà¤Īà¤¶": 1195,
      "à¤ĳ": 1196,
      "Ġà¤ĺà¤¡à¤£": 1197,
      "Ġà¤Ĩà¤ļ": 1198,
      "à¤ªà¤ļ": 1199,
      "Ġà¤Ńà¤Ĺà¤µ": 1200,
      "Ġà¥§à¥«": 1201,
      "Ġà¤ĺà¤°à¤ķ": 1202,
      "Ġà¤ıà¤µ": 1203,
      "à¤¦à¤¸": 1204,
      "Ġà¤¸à¤ķà¤²": 1205,
      "à¤¬à¤ķ": 1206,
      "à¤°à¤¤à¤²": 1207,
      "Ġà¤īà¤¨": 1208,
      "à¤µà¤µ": 1209,
      "Ġà¤ħà¤ļ": 1210,
      "Ġà¤¬à¤±": 1211,
      "à¤¦à¤¶": 1212,
      "à¤³à¤µ": 1213,
      "Ġà¤¨à¤Ĺà¤°": 1214,
      "à¤¸à¤±à¤¯": 1215,
      "Ġà¤īà¤łà¤²": 1216,
      "Ġà¤ıà¤¸": 1217,
      "à¤Ĩà¤Ĺ": 1218,
      "Ġà¤ħà¤£à¤ķ": 1219,
      "Ġà¤¶à¤ķà¤¨": 1220,
      "à¤£à¤¸": 1221,
      "à¤®à¤°à¤£": 1222,
      "à¤¸à¤°à¤²": 1223,
      "à¤Ĺà¤°à¤Ń": 1224,
      "à¤ªà¤ª": 1225,
      "à¥ĩà¤Ĥ!": 1226,
      "à¤īà¤¦à¤ķ": 1227,
      "Ġà¤Ĩà¤¦à¤°": 1228,
      "à¥§à¥¨": 1229,
      "Ġà¤ķà¤¦": 1230,
      "à¤łà¤²": 1231,
      "à¤ĺà¤¡": 1232,
      "à¤¶à¤¦": 1233,
      "Ġà¤§à¤¡": 1234,
      "Ġà¤ħà¤¸à¤¤": 1235,
      "à¤µà¤¥": 1236,
      "à¤¹à¤£à¤Łà¤ķà¤ļ": 1237,
      "à¤ħà¤ľ": 1238,
      "00": 1239,
      "Ġà¤¸à¤Ĺ": 1240,
      "Ġà¤Ĩà¤µà¤¯à¤ļ": 1241,
      "à¤īà¤¤à¤°": 1242,
      "Ġà¤¬à¤ļ": 1243,
      "à¤¼à¥ĩ": 1244,
      "Ġà¤¹à¤¸": 1245,
      "Ġà¤ªà¤¶": 1246,
      "Ġà¤¶à¤£": 1247,
      "à¤¹à¤°à¤¤": 1248,
      "à¤ĩà¤²": 1249,
      "à¥ĩ...": 1250,
      "Ġà¤¸à¤¹à¤ľ": 1251,
      "Ġà¤ķà¤³à¤Ł": 1252,
      "à¤¥à¤ķ": 1253,
      "à¤¡à¤®": 1254,
      "Ġà¤ĸà¤£": 1255,
      "Ġà¤µà¤ķ": 1256,
      "Ġà¥§à¥¨": 1257,
      "à¤¯à¤ķà¤²": 1258,
      "à¥§à¥®": 1259,
      "à¥¤à¥¤": 1260,
      "Ġà¤ªà¤¡à¤¨": 1261,
      "Ġà¤«à¤°": 1262,
      "à¤ķà¤¯à¤¤": 1263,
      "Ġà¤ħà¤¡": 1264,
      "à¤īà¤ľà¤µ": 1265,
      "à¤°à¤ķà¤°à¤£": 1266,
      "Ġà¤ıà¤ķà¤ļ": 1267,
      "à¥§à¥«": 1268,
      "à¤¤à¤¦": 1269,
      "à¤¸à¤¤à¤²": 1270,
      "à¤¾à¤Ĥ?": 1271,
      "Ġà¤ªà¤¨": 1272,
      "Ġà¤°à¤ļà¤¨": 1273,
      "à¤¯à¤Ń": 1274,
      "Ġà¤ªà¤°à¤¬": 1275,
      "à¤³à¤®": 1276,
      "Ġà¤¸à¤®à¤ľà¤²": 1277,
      "Ġà¤¸à¤°à¤¸": 1278,
      "Ġà¤Ńà¤°à¤ª": 1279,
      "à¤¹à¤Ĺ": 1280,
      "à¤ħà¤¸à¤²": 1281,
      "Ġà¤¬à¤°à¤¯": 1282,
      "à¥§à¥ª": 1283,
      "à¥Ĥà¤Ĥ?": 1284,
      "à¤ľà¤ļ": 1285,
      "Ġà¤ķà¤ª": 1286,
      "à¥¨à¥¦": 1287,
      "à¤¦à¤°à¤Ĺà¤¤": 1288,
      "Ġà¤Ĩà¤¯à¤ķà¤¤": 1289,
      "à¤¶à¤¬": 1290,
      "Ġà¤µà¤ļà¤ļ": 1291,
      "à¤Ĥ,": 1292,
      "Ġà¤ıà¤®": 1293,
      "à¥ĩà¤Ĥ...": 1294,
      "Ġà¤µà¤¯à¤¤": 1295,
      "Ġà¤Ĩà¤¬": 1296,
      "Ġà¤ľà¤ª": 1297,
      "à¤³à¤²": 1298,
      "Ġà¤¸à¤®à¤°": 1299,
      "à¤µà¤¯à¤°": 1300,
      "à¥ĭà¤Ĥ,": 1301,
      "Ġà¤§à¤°à¤¤": 1302,
      "Ġà¤Ĩà¤µà¤¯à¤ķ": 1303,
      "à¥Īà¤Ĥà¥¤": 1304,
      "Ġà¤ļà¤²à¤ª": 1305,
      "à¤¸à¤°à¤ķ": 1306,
      "Ġà¤Ńà¤Ĺ": 1307,
      "à¤½à¤½": 1308,
      "Ġà¤ıà¤ķà¤¦à¤®": 1309,
      "Ġà¤¦à¤¯": 1310,
      "à¤ĸà¤ª": 1311,
      "Ġà¤ľà¤¡": 1312,
      "Ġà¤ľà¤¬": 1313,
      "à¤ĩà¤¨": 1314,
      "Ġà¤¸à¤°à¤ª": 1315,
      "à¥§à¥©": 1316,
      "Ġà¤Ĩà¤ĸ": 1317,
      "à¤·à¤®": 1318,
      "à¤¹à¤°à¤ª": 1319,
      "à¤Łà¤ļ": 1320,
      "Ġà¤®à¤£": 1321,
      "à¤¹à¤£à¤¸à¤°": 1322,
      "à¤®à¤®": 1323,
      "Ġà¥§à¥¬": 1324,
      "Ġà¤ĵà¤ķ": 1325,
      "Ġà¤ªà¤¹": 1326,
      "Ġà¤¹à¤ķ": 1327,
      "Ġà¤ıà¤ķà¤®": 1328,
      "Ġà¤Ĩà¤¯à¤¤": 1329,
      "à¥ĭà¥¤": 1330,
      "à¥Ģà¤Ĥà¥¤": 1331,
      "à¤Ĳ": 1332,
      "à¥«à¥«": 1333,
      "à¤¸à¤²à¤®": 1334,
      "à¥į.": 1335,
      "à¤ķà¤¯à¤²": 1336,
      "à¤¹à¤£à¤Łà¤ķ": 1337,
      "à¤¦à¤ĸà¤£": 1338,
      "à¤°à¤¦à¤°": 1339,
      "Ġà¤µà¤¨": 1340,
      "à¤ªà¤¡à¤Ł": 1341,
      "à¥§à¥¬": 1342,
      "Ġà¤®à¤¹à¤¤": 1343,
      "Ġà¤Ĩà¤µà¤¡à¤Ł": 1344,
      "à¤Ĩà¤µà¤¯": 1345,
      "Ġà¤ķà¤³à¤³": 1346,
      "Ġà¤¸à¤°à¤³": 1347,
      "Ġà¤µà¤¤à¤¨": 1348,
      "Ġà¤Ĺà¤£à¤ªà¤¤": 1349,
      "à¥§à¥Ń": 1350,
      "Ġà¤īà¤ĸà¤²": 1351,
      "à¤¹à¤£à¤£": 1352,
      "Ġà¤¯à¤¶": 1353,
      "Ġà¤¯à¤ľ": 1354,
      "à¤«à¤²": 1355,
      "à¥¦à¥¦à¥¦à¥¦": 1356,
      "Ġà¥§à¥Ń": 1357,
      "à¤¹à¤®": 1358,
      "Ġà¤¦à¤¶": 1359,
      "à¤¨à¤¦à¤°": 1360,
      "Ġà¤¸à¤®à¤ľà¤¤": 1361,
      "à¤²à¤Ń": 1362,
      "à¤¸à¤Ńà¤°": 1363,
      "à¤¤à¤ªà¤£": 1364,
      "à¤¸à¤³": 1365,
      "Ġà¤°à¤¤": 1366,
      "Ġà¤ĺà¤¡à¤Ł": 1367,
      "Ġà¥§à¥©": 1368,
      "à¤¼à¥ĭ": 1369,
      "à¤īà¤¬": 1370,
      "à¤ĸà¤¬à¤°": 1371,
      "Ġà¤¹à¤¤": 1372,
      "à¤°à¤ķà¤²": 1373,
      "Ġà¤¥à¤°": 1374,
      "à¤¯à¤µà¤¸": 1375,
      "Ġà¤īà¤¨à¤ķ": 1376,
      "à¤ıà¤¸": 1377,
      "Ġà¤µà¤Ĺ": 1378,
      "Ġà¤¸à¤°à¤¦": 1379,
      "---": 1380,
      "Ġà¤¤à¤¨": 1381,
      "Ġà¤ªà¤¡à¤ª": 1382,
      "à¥Ńà¥Ń": 1383,
      "Ġà¤¤à¤®": 1384,
      "à¤°à¤°": 1385,
      "Ġà¤®à¤¡à¤Ĺ": 1386,
      "à¤«à¤°": 1387,
      "à¤²à¤¯à¤¤": 1388,
      "à¤¶à¤²": 1389,
      "Ġà¤¸à¤¯à¤¤": 1390,
      "Ġà¤ľà¤³": 1391,
      "Ġà¥§à¥ª": 1392,
      "Ġà¤µà¤°à¤¸": 1393,
      "Ġà¤ľà¤¸": 1394,
      "Ġà¤°à¤ĺ": 1395,
      "à¤ªà¤£à¤ľ": 1396,
      "à¤¥à¤°": 1397,
      "à¥¨à¥¨": 1398,
      "Ġà¤īà¤Ĺ": 1399,
      "Ġà¤īà¤¦à¤°à¤Ĺà¤¤": 1400,
      "à¤Ĩà¤Ī": 1401,
      "Ġà¤¸à¤®à¤¸": 1402,
      "Ġà¤¸à¤ľ": 1403,
      "à¤°à¤Ĺà¤¤": 1404,
      "Ġà¤ķà¤ļ": 1405,
      "Ġà¤īà¤¶": 1406,
      "Ġà¤®à¤ł": 1407,
      "à¤°à¤¸à¤¨": 1408,
      "Ġà¤ļà¤µà¤¥": 1409,
      "Ġà¤¸à¤ķà¤¤": 1410,
      "à¤¨à¤Ł": 1411,
      "à¤³à¤¯à¤²": 1412,
      "à¤¨à¤¹": 1413,
      "à¤¶à¤°": 1414,
      "à¤¿à¥¤": 1415,
      "Ġà¤ħà¤¥à¤µ": 1416,
      "à¤¨à¤ªà¤£": 1417,
      "à¤ķà¤°à¤ļ": 1418,
      "Ġà¤µà¤¯": 1419,
      "à¤¬à¤¦à¤²": 1420,
      "à¤¯à¤¡": 1421,
      "Ġà¤¤à¤£": 1422,
      "Ġà¤ķà¤Ł": 1423,
      "à¤¹à¤³à¤¯": 1424,
      "à¤¯à¤Ĺ": 1425,
      "Ġà¤¬à¤¸à¤ķ": 1426,
      "à¤¡à¤¯à¤²": 1427,
      "à¤£à¤²": 1428,
      "à¤¥à¤³": 1429,
      "à¤¤à¤Ĺ": 1430,
      "Ġà¤ķà¤ªà¤²": 1431,
      "Ġà¥¨à¥¦à¥¦": 1432,
      "Ġà¤Ĩà¤¸à¤¨": 1433,
      "Ġà¤°à¤¥": 1434,
      "Ġà¤Ĩà¤®à¤¦": 1435,
      "à¤¨à¤Ĺ": 1436,
      "à¤īà¤®": 1437,
      "à¥į,": 1438,
      "à¤¯à¤¤à¤¨": 1439,
      "à¤¨à¤ľ": 1440,
      "à¤¡à¤ļà¤£": 1441,
      "Ġà¤¬à¤¦": 1442,
      "Ġà¤ªà¤°à¤ķ": 1443,
      "Ġà¤¦à¤¨à¤ª": 1444,
      "à¤ħà¤¤": 1445,
      "à¤µà¤°à¤µ": 1446,
      "Ġà¤¬à¤¸à¤ª": 1447,
      "Ġà¤ĺà¤Łà¤ķ": 1448,
      "Ġà¤¤à¤¦": 1449,
      "Ġà¤µà¤ľ": 1450,
      "Ġà¤ħà¤¦à¤®": 1451,
      "Ġà¤µà¤³à¤ĸà¤¤": 1452,
      "Ġà¤µà¤°à¤µ": 1453,
      "Ġà¤ĩà¤®": 1454,
      "Ġà¤ħà¤µà¤¤": 1455,
      "à¤ªà¤®": 1456,
      "Ġà¤Ĺà¤µ": 1457,
      "à¤ľà¤¶": 1458,
      "Ġà¤ħà¤ªà¤°": 1459,
      "à¤®à¤¦à¤²": 1460,
      "Ġà¤«à¤°à¤ķ": 1461,
      "à¥Ĵ": 1462,
      "à¤ĸà¤Ł": 1463,
      "à¤ĸà¤¯": 1464,
      "Ġà¤®à¤°à¤¤": 1465,
      "à¤¸à¤®à¤ľ": 1466,
      "à¤ĩà¤¸": 1467,
      "à¤Ĺà¤¦à¤°": 1468,
      "Ġà¤ıà¤¨": 1469,
      "à¤¯à¤¥": 1470,
      "à¤¸à¤Ń": 1471,
      "à¤µà¤³à¤ĸ": 1472,
      "Ġà¤¤à¤°à¤¨": 1473,
      "à¥¯à¥¯": 1474,
      "Ġà¤Ĩà¤Ł": 1475,
      "Ġà¤¤à¤¡": 1476,
      "Ġà¤ĸà¤¡": 1477,
      "à¥Ĥà¤Ĥ.": 1478,
      "à¥Ĥ?": 1479,
      "Ġà¤Ĩà¤µà¤¯à¤¨": 1480,
      "à¤ıà¤ķà¤²": 1481,
      "Ġà¤¸à¤®à¤¯": 1482,
      "Ġà¤ıà¤ĸ": 1483,
      "à¤ľà¤³": 1484,
      "Ġà¤¦à¤µà¤°à¤ļ": 1485,
      "à¤¸à¤¹": 1486,
      "Ġà¤®à¤¡": 1487,
      "Ġà¤ĵà¤°": 1488,
      "Ġà¤ķà¤®à¤²": 1489,
      "à¥ĥ.": 1490,
      "à¤£à¤Ĺ": 1491,
      "Ġà¤°à¤¡à¤Ł": 1492,
      "Ġà¤Łà¤ķ": 1493,
      "à¤¤à¤¬": 1494,
      "à¤īà¤¨": 1495,
      "à¤°à¤®à¤£": 1496,
      "Ġà¤ľà¤µ": 1497,
      "Ġà¤°à¤ļ": 1498,
      "à¤¯à¤¸à¤°": 1499,
      "Ġà¤¸à¤ļ": 1500,
      "à¤ĩà¤¶": 1501,
      "Ġà¤¨à¤®à¤¸": 1502,
      "à¥©à¥¦": 1503,
      "à¤·à¤¸": 1504,
      "à¤ķà¤¦": 1505,
      "Ġà¤¯à¤¥": 1506,
      "à¤·à¤¦": 1507,
      "Ġà¤¨à¤¯": 1508,
      "Ġà¤ªà¤°à¤¤à¤²": 1509,
      "à¤¬à¤Ł": 1510,
      "à¥ĥà¤Ĥ": 1511,
      "à¤°à¤¥à¤®": 1512,
      "à¤¶à¤¤": 1513,
      "Ġà¤¹à¤¨": 1514,
      "Ġà¤īà¤ªà¤¦": 1515,
      "Ġà¤ĵà¤²": 1516,
      "Ġà¤£à¤µ": 1517,
      "Ġà¤ªà¤ª": 1518,
      "Ġà¤ıà¤ķà¤¸": 1519,
      "à¤Ĩà¤²": 1520,
      "à¤¸à¤¯à¤¤": 1521,
      "Ġà¤ķà¤¬": 1522,
      "Ġà¤ļà¤¤": 1523,
      "à¤¯à¤ķà¤°": 1524,
      "Ġà¤ľà¤¤à¤¨": 1525,
      "à¤®à¤¡": 1526,
      "à¤¥à¤²": 1527,
      "à¤Ŀà¤°": 1528,
      "à¤²à¤¯à¤²": 1529,
      "à¤Ĺà¤°à¤ľ": 1530,
      "à¤ħà¤£": 1531,
      "Ġà¤ªà¤²": 1532,
      "à¤«à¤ķà¤¤": 1533,
      "à¥¨à¥ª": 1534,
      "Ġà¤Ŀà¤°": 1535,
      "à¤¸à¤¸": 1536,
      "à¤Ĩà¤£": 1537,
      "Ġà¤īà¤°à¤¤à¤²": 1538,
      "à¥«à¥¦": 1539,
      "Ġà¤®à¤ľà¤¤": 1540,
      "Ġà¤¤à¤²": 1541,
      "à¤£à¤®": 1542,
      "à¥Ĥà¤Ĥ,": 1543,
      "Ġà¤ªà¤¡à¤ļ": 1544,
      "à¤¹à¤°à¤£": 1545,
      "à¤¸à¤ªà¤£": 1546,
      "Ġà¤ħà¤ļà¤ķ": 1547,
      "à¤Īà¤¨": 1548,
      "Ġà¤ĩà¤ļ": 1549,
      "à¤¬à¤£": 1550,
      "Ġà¤¨à¤ķà¤³": 1551,
      "à¤²à¤ĸ": 1552,
      "Ġà¤Ĩà¤¯à¤¦à¤¨": 1553,
      "Ġà¤Ĺà¤¦": 1554,
      "Ġà¤Ĩà¤µà¤¯à¤¬": 1555,
      "à¤ªà¤µ": 1556,
      "Ġà¤ħà¤¡à¤ļà¤£": 1557,
      "à¤¤à¤°à¤£": 1558,
      "à¤Ńà¤Ł": 1559,
      "à¥¨à¥¬": 1560,
      "Ġà¤®à¤¤à¤¦": 1561,
      "Ġà¤¬à¤¤": 1562,
      "à¥¨à¥©": 1563,
      "Ġà¤ħà¤ķà¤¸": 1564,
      "à¤ľà¤¯à¤¤": 1565,
      "à¤Ńà¤²": 1566,
      "à¤£à¤Ńà¤°": 1567,
      "Ġà¤Ĩà¤¡à¤µ": 1568,
      "Ġà¤ķà¤·": 1569,
      "à¤¤à¤ķà¤²": 1570,
      "Ġà¤ĸà¤¤": 1571,
      "à¤Īà¤ķ": 1572,
      "Ġà¤Ńà¤ľà¤¨": 1573,
      "à¤¡à¤¶": 1574,
      "Ġà¤ĸà¤±": 1575,
      "à¤Łà¤¯à¤²": 1576,
      "à¤¸à¤¬": 1577,
      "Ġà¥§à¥§à¥": 1578,
      "Ġà¤¦à¤µà¤²": 1579,
      "à¤ĺà¤Łà¤¨": 1580,
      "Ġà¤¬à¤¦à¤²à¤¤": 1581,
      "Ġà¤ªà¤¦à¤µ": 1582,
      "à¥ģà¤ģ": 1583,
      "à¤ķà¤ªà¤£": 1584,
      "Ġà¤¯à¤®": 1585,
      "à¥§à¥§": 1586,
      "à¥§à¥§à¥": 1587,
      "Ġà¤¨à¤µà¤²": 1588,
      "Ġà¤¸à¤®à¤ľà¤¨": 1589,
      "Ġà¤Ĩà¤°à¤¤": 1590,
      "Ġà¤ªà¤°à¤µ": 1591,
      "Ġà¤Ĩà¤ķà¤°": 1592,
      "Ġà¤µà¤£": 1593,
      "à¤¯à¤®à¤¨": 1594,
      "à¤µà¤§": 1595,
      "à¤µà¤¯à¤¤": 1596,
      "Ġà¤¹à¤°à¤¶": 1597,
      "Ġà¤Ĩà¤ªà¤¯à¤²": 1598,
      "Ġà¤¸à¤ĸ": 1599,
      "à¤īà¤°": 1600,
      "Ġà¤īà¤¡à¤¯à¤¤": 1601,
      "à¤¸à¤°à¤¤": 1602,
      "Ġà¤®à¤¦à¤¤": 1603,
      "à¤¹à¤¯à¤ķ": 1604,
      "à¤µà¤¹": 1605,
      "à¤°à¤ķà¤Ł": 1606,
      "à¤łà¤°": 1607,
      "à¥¨à¥«": 1608,
      "Ġà¤ªà¤¦à¤°": 1609,
      "Ġà¤¹à¤Ł": 1610,
      "Ġà¤īà¤Ń": 1611,
      "à¤°à¤µà¤°": 1612,
      "à¤ľà¤£": 1613,
      "Ġà¤¹à¤¡": 1614,
      "à¥ĩà¤ĥ": 1615,
      "Ġà¤īà¤¡à¤¯": 1616,
      "à¤ªà¤³à¤¯à¤¤": 1617,
      "Ġà¤Ĺà¤²": 1618,
      "à¤³à¤¯à¤¤": 1619,
      "Ġà¤ĩà¤Ĺà¤°": 1620,
      "à¤ħà¤²": 1621,
      "à¤¹à¤ķ": 1622,
      "Ġà¤®à¤¯": 1623,
      "à¤ªà¤¯à¤¸": 1624,
      "à¤¤à¤ľ": 1625,
      "à¤¡à¤¯à¤¤": 1626,
      "Ġà¤§à¤°à¤ª": 1627,
      "à¤®à¤³à¤¬": 1628,
      "Ġà¤°à¤ľ": 1629,
      "Ġà¤īà¤ªà¤¯": 1630,
      "à¤µà¤¤à¤¨": 1631,
      "à¤īà¤£": 1632,
      "à¤ķà¤ķ": 1633,
      "à¤¶à¤®": 1634,
      "à¥ªà¥¦": 1635,
      "Ġà¤ıà¤²": 1636,
      "à¤µà¤ļà¤ª": 1637,
      "Ġà¤ħà¤¯": 1638,
      "Ġà¤¶à¤¤": 1639,
      "à¤«à¤Ł": 1640,
      "à¤Īà¤²": 1641,
      "Ġà¤ĩà¤¬": 1642,
      "à¤¦à¤£": 1643,
      "Ġà¤Ĺà¤Ł": 1644,
      "à¥¨à¥®": 1645,
      "Ġà¤Ĩà¤Ĺà¤³": 1646,
      "Ġà¤ļà¤²à¤ļ": 1647,
      "à¤°à¤ªà¤¤": 1648,
      "à¤£à¤ª": 1649,
      "à¤²à¤¤à¤²": 1650,
      "à¤®à¤Ń": 1651,
      "Ġà¤²à¤¡": 1652,
      "à¤Ķ": 1653,
      "Ġà¤Ĩà¤³": 1654,
      "à¤°à¤ķà¤°": 1655,
      "à¤ķà¤¡à¤ļ": 1656,
      "à¤¾à¤Ĥ...": 1657,
      "à¤ļà¤²à¤¤": 1658,
      "Ġà¤ľà¤Ĺà¤¤": 1659,
      "Ġà¤ľà¤Ĺà¤ª": 1660,
      "Ġà¤²à¤²": 1661,
      "à¥ģà¥¤": 1662,
      "à¤¡à¤¬": 1663,
      "à¤ªà¤·": 1664,
      "Ġà¤°à¤ļà¤²": 1665,
      "Ġà¤ľà¤®à¤²": 1666,
      "à¤ħà¤¦": 1667,
      "Ġà¤ħà¤Ł": 1668,
      "Ġà¤ľà¤¨à¤¤": 1669,
      "Ġà¤¶à¤°à¤£": 1670,
      "à¥Ńà¥¦": 1671,
      "à¤ķà¤¬": 1672,
      "à¤īà¤ľ": 1673,
      "à¥Ģà¤ĥ": 1674,
      "Ġà¤«à¤²": 1675,
      "à¤£à¤µà¤¤": 1676,
      "Ġà¤ļà¤¡à¤²": 1677,
      "à¤¤à¤Ń": 1678,
      "à¤¾à¤Ĥ!": 1679,
      "à¤ªà¤³à¤¯à¤²": 1680,
      "à¤½à¤ª": 1681,
      "Ġà¤·": 1682,
      "à¤¬à¤¹": 1683,
      "à¤ĺà¤Ł": 1684,
      "à¤µà¤ķà¤¶": 1685,
      "à¤®à¤³à¤¶": 1686,
      "Ġà¤°à¤¡à¤¤": 1687,
      "Ġà¤ªà¤°à¤®à¤³": 1688,
      "Ġà¤®à¤ľà¤Ĺà¤¤": 1689,
      "Ġà¤®à¤ķ": 1690,
      "Ġà¤Ĺà¤Ī": 1691,
      "Ġà¤µà¤ļà¤¤": 1692,
      "Ġà¤¨à¤³": 1693,
      "à¤Īà¤ļ": 1694,
      "à¤Ĺà¤¯à¤¤": 1695,
      "à¤µà¤¤à¤£à¤ļ": 1696,
      "à¤ħà¤µ": 1697,
      "à¤Ĩà¤ł": 1698,
      "Ġà¥¨à¥«": 1699,
      "Ġà¤ªà¤Ĺ": 1700,
      "à¤ľà¤°à¤¤": 1701,
      "Ġà¤¨à¤ª": 1702,
      "à¤¸à¤ķà¤¯à¤²": 1703,
      "à¤Łà¤¬": 1704,
      "Ġà¤¦à¤³": 1705,
      "Ġà¤¸à¤¯": 1706,
      "à¤ĸà¤ļ": 1707,
      "à¤«à¤¡": 1708,
      "Ġà¤¶à¤¸": 1709,
      "à¥¨à¥Ń": 1710,
      "à¤¤à¤Ńà¤°": 1711,
      "à¤ķà¤ľ": 1712,
      "à¤¯à¤¤à¤°": 1713,
      "à¤¬à¤¯à¤ļ": 1714,
      "à¤ļà¤¶": 1715,
      "à¤łà¤¯": 1716,
      "à¤ªà¤°à¤®": 1717,
      "Ġà¤¸à¤¦à¤ļ": 1718,
      "à¤¶à¤ª": 1719,
      "à¤¸à¤ĺ": 1720,
      "Ġà¤īà¤²à¤¯": 1721,
      "Ġà¤¸à¤Ł": 1722,
      "Ġà¤ķà¤®à¤°": 1723,
      "à¤¡à¤ķà¤°": 1724,
      "Ġà¤¹à¤²": 1725,
      "à¤ķà¤µà¤£": 1726,
      "Ġà¥ªà¥¦": 1727,
      "Ġà¤¸à¤¹à¤ķ": 1728,
      "Ġà¤ħà¤ªà¤®": 1729,
      "à¤ªà¤³à¤¯": 1730,
      "à¤īà¤¡": 1731,
      "Ġà¤¡à¤¬": 1732,
      "à¤²à¤ľ": 1733,
      "à¤ĸà¤µ": 1734,
      "à¤¨à¤Ń": 1735,
      "à¤¯à¤¹": 1736,
      "Ġà¤°à¤¡à¤ª": 1737,
      "à¤²à¤¤à¤¡": 1738,
      "à¥ĭà¤ĥ": 1739,
      "Ġà¤µà¤²": 1740,
      "à¥©à¥©": 1741,
      "à¤¦à¤Ĺ": 1742,
      "à¤¾..": 1743,
      "à¤Ĺà¤¯à¤²": 1744,
      "Ġà¤ĭà¤·": 1745,
      "à¤²à¤ªà¤£": 1746,
      "à¤ļà¤®": 1747,
      "à¤¨à¤Ĺà¤°": 1748,
      "Ġà¤½": 1749,
      "Ġà¥¨à¥ª": 1750,
      "Ġà¤ļà¤®à¤ķ": 1751,
      "à¤²à¤Ĺà¤¡": 1752,
      "à¤Ńà¤¯": 1753,
      "à¤¸à¤Ĺ": 1754,
      "à¤Ĩà¤§": 1755,
      "Ġà¤Ĺà¤°à¤®": 1756,
      "à¤¸à¤ªà¤¨": 1757,
      "Ġà¤¨à¤¸": 1758,
      "Ġà¤¥à¤°à¤¥": 1759,
      "Ġà¤¯à¤¦": 1760,
      "Ġà¤ķà¤³à¤ª": 1761,
      "Ġà¥§à¥¯à¥¬": 1762,
      "à¤¸à¤ªà¤Ł": 1763,
      "Ġà¤°à¤¶": 1764,
      "à¤Ĺà¤¬": 1765,
      "Ġà¤¦à¤²": 1766,
      "à¤ľà¤Ń": 1767,
      "Ġà¤¸à¤®à¤Ŀ": 1768,
      "à¤½à¤¸": 1769,
      "à¤¯à¤¯à¤¨": 1770,
      "à¤Ĩà¤¹": 1771,
      "à¤¨à¤¬": 1772,
      "Ġà¥§à¥¯à¥®": 1773,
      "à¥Īà¤Ĥ,": 1774,
      "Ġà¤¹à¤³à¤¦": 1775,
      "à¤¥à¤®": 1776,
      "Ġà¤ıà¤ª": 1777,
      "Ġà¤¨à¤¦": 1778,
      "à¤¿à¥į": 1779,
      "à¥Į.": 1780,
      "Ġà¤²à¤µ": 1781,
      "à¤ıà¤²": 1782,
      "Ġà¤¸à¤¸": 1783,
      "Ġà¤īà¤²à¤¯à¤¨": 1784,
      "Ġà¤°à¤ĸ": 1785,
      "à¤¹à¤£à¤Łà¤²": 1786,
      "à¤°à¤«": 1787,
      "Ġà¤īà¤ªà¤¨": 1788,
      "Ġà¤¸à¤£": 1789,
      "Ġà¤ĩà¤ľ": 1790,
      "Ġà¤ļà¤ķà¤ļ": 1791,
      "Ġà¤Ĳà¤ķ": 1792,
      "Ġà¤¥à¤¯": 1793,
      "Ġà¤Ĩà¤¡à¤ĸà¤³": 1794,
      "Ġà¤īà¤Ł": 1795,
      "à¤¦à¤¬": 1796,
      "Ġà¤ĩà¤¸à¤ķ": 1797,
      "Ġà¥§à¥§": 1798,
      "à¤°à¤ķà¤¤": 1799,
      "Ġà¤ļà¤²à¤¯à¤¤": 1800,
      "Ġà¤¦à¤¬": 1801,
      "à¥©à¥¬": 1802,
      "à¤ªà¤¯à¤¶": 1803,
      "Ġà¤ķà¤°à¤ķ": 1804,
      "à¤¶à¤¸": 1805,
      "à¥Ģà¤Ĥ?": 1806,
      "à¥ªà¥¬": 1807,
      "à¤µà¤ľà¤¨": 1808,
      "à¤¸à¤°à¤ª": 1809,
      "à¤ĩà¤Ł": 1810,
      "à¤ĭ": 1811,
      "Ġà¤¶à¤¶": 1812,
      "à¤°à¤ªà¤Ł": 1813,
      "à¤ķà¤²à¤¨": 1814,
      "Ġà¤īà¤°à¤«": 1815,
      "à¤Ĩà¤¯à¤ļ": 1816,
      "à¤ķà¤°à¤¨": 1817,
      "Ġà¤Ĩà¤¶à¤¯": 1818,
      "Ġà¤ĩà¤°": 1819,
      "Ġà¤Ĳà¤¶": 1820,
      "Ġà¤®à¤¶": 1821,
      "Ġà¤ĸà¤¯": 1822,
      "Ġà¤ĵà¤ª": 1823,
      "Ġà¤īà¤°à¤¨": 1824,
      "à¤¼à¤¿": 1825,
      "Ġà¤¸à¤§": 1826,
      "à¤¬à¤±": 1827,
      "à¥©à¥®": 1828,
      "Ġà¤°à¤¹à¤¤": 1829,
      "à¥ªà¥Ń": 1830,
      "Ġà¤īà¤®à¤³à¤¶": 1831,
      "Ġà¤ĩà¤¤à¤°": 1832,
      "à¥¨à¥§": 1833,
      "Ġà¤¶à¤¤à¤®": 1834,
      "Ġà¤īà¤ªà¤ļ": 1835,
      "Ġà¤ļà¤µà¤ķà¤¶": 1836,
      "à¤ĸà¤®": 1837,
      "UR": 1838,
      "à¤¬à¤¯à¤²": 1839,
      "SO": 1840,
      "CE": 1841,
      "Ġ---": 1842,
      "ĠSO": 1843,
      "URCE": 1844,
      "ĠSOURCE": 1845,
      "à¥įà¥¤": 1846,
      "Ġà¤¦à¤¸": 1847,
      "à¤ļà¤²à¤¯": 1848,
      "à¤¥à¤¸": 1849,
      "à¤ħà¤ĸ": 1850,
      "à¤¤à¤¡": 1851,
      "Ġà¤īà¤°à¤ļ": 1852,
      "Ġà¤¸à¤Ĺà¤³à¤¯": 1853,
      "à¤Ĩà¤¸à¤¤à¤²": 1854,
      "Ġà¤Ĩà¤ªà¤¶": 1855,
      "à¤ķà¤°à¤¤à¤²": 1856,
      "Ġà¤¶à¤ķà¤²": 1857,
      "Ġà¤µà¤ľà¤¨": 1858,
      "Ġà¤¥à¤ķ": 1859,
      "Ġà¥©à¥¦": 1860,
      "Ġà¥¨à¥©": 1861,
      "à¤Ĩà¤®à¤Ĺ": 1862,
      "à¤µà¤¬": 1863,
      "à¤¡à¤¦": 1864,
      "Ġà¥¨à¥¬": 1865,
      "Ġà¤¬à¤¸à¤¯à¤²": 1866,
      "Ġà¤ªà¤¯": 1867,
      "Ġà¤¬à¤Ĺ": 1868,
      "Ġà¤§à¤¨à¤¯": 1869,
      "à¤¤à¤¥": 1870,
      "Ġà¤ªà¤£à¤¸": 1871,
      "à¤Ĩà¤¸à¤¤à¤¨": 1872,
      "à¤ķà¤Ĺ": 1873,
      "Ġà¤ļà¤²à¤¨": 1874,
      "Ġà¤¸à¤µà¤£": 1875,
      "à¥¨à¥¯": 1876,
      "à¤¥à¤ª": 1877,
      "à¤īà¤ķ": 1878,
      "Ġà¤Ĩà¤¯à¤ķà¤¨": 1879,
      "à¤Ĩà¤¦à¤²": 1880,
      "Ġà¥¨à¥Ń": 1881,
      "Ġà¤µà¤¶": 1882,
      "Ġà¤¸à¤¤à¤¤": 1883,
      "à¤¤à¤°à¤°": 1884,
      ".,": 1885,
      "à¥©à¥ª": 1886,
      "à¤īà¤ł": 1887,
      "à¤°à¤Ĺà¤Ł": 1888,
      "à¤¬à¤¸à¤²": 1889,
      "Ġà¤¨à¤Ł": 1890,
      "Ġà¤µà¤Ĺà¤¤": 1891,
      "Ġà¤ħà¤®à¤°": 1892,
      "à¤ħà¤Ĺ": 1893,
      "à¤°à¤¯à¤²": 1894,
      "Ġà¤ĳà¤Ĺà¤¸": 1895,
      "à¤¹à¤µà¤°": 1896,
      "Ġà¤īà¤¦à¤¯": 1897,
      "Ġà¤ķà¤³à¤¤": 1898,
      "Ġà¤ĺà¤Łà¤¨": 1899,
      "Ġà¤ķà¤µà¤¨": 1900,
      "à¥Īà¤ĥ": 1901,
      "à¤ªà¤¯à¤¤": 1902,
      "Ġà¥§à¥¯à¥«": 1903,
      "à¤Ńà¤Ĺ": 1904,
      "à¤īà¤²à¤¯à¤¤": 1905,
      "à¤®à¤¬": 1906,
      "Ġà¤Ĩà¤Īà¤¨": 1907,
      "Ġà¥§à¥¯à¥¯": 1908,
      "à¤ıà¤ķà¤¦": 1909,
      "à¤«à¤ķ": 1910,
      "Ġà¤¨à¤°à¤ķ": 1911,
      "à¥©à¥«": 1912,
      "à¤®à¤¡à¤Ĺ": 1913,
      "à¤ľà¤¬": 1914,
      "Ġà¤®à¤¨à¤¸": 1915,
      "Ġà¤²à¤¹": 1916,
      "Ġà¤®à¤¡à¤ķ": 1917,
      "à¤¥à¤¯": 1918,
      "Ġà¤²à¤¯": 1919,
      "Ġà¤ĳà¤ķ": 1920,
      "Ġà¤īà¤µ": 1921,
      "à¤®à¤£à¤°": 1922,
      "Ġà¤µà¤Ĺà¤¡": 1923,
      "Ġà¤ļà¤°à¤£": 1924,
      "Ġà¤Ĺà¤ļ": 1925,
      "Ġà¤°à¤£": 1926,
      "Ġà¤Ĩà¤ľà¤¯": 1927,
      "à¤īà¤ļ": 1928,
      "à¤¹à¤¬": 1929,
      "Ġà¤ªà¤³à¤¯à¤¨": 1930,
      "à¤¸à¤ľ": 1931,
      "à¤¨à¤µà¤²": 1932,
      "Ġà¤¨à¤®à¤¨": 1933,
      "à¤¨à¤¸à¤Ń": 1934,
      "à¤Ńà¤Ĺà¤µ": 1935,
      "Ġà¤Ĩà¤ªà¤¸": 1936,
      "Ġà¤ķà¤µà¤³": 1937,
      "Ġà¤ķà¤¤": 1938,
      "à¤¹à¤¡à¤µ": 1939,
      "Ġà¤ļà¤¨": 1940,
      "à¤°à¤¤à¤¨": 1941,
      "Ġà¤ıà¤ķà¤µà¤Ł": 1942,
      "Ġà¤¸à¤Ĺà¤Ł": 1943,
      "à¤ľà¤¦": 1944,
      "à¥©à¥Ń": 1945,
      "Ġà¤Ĩà¤µà¤¡à¤²": 1946,
      "à¤°à¤·": 1947,
      "à¤¹à¤£à¤¨": 1948,
      "Ġà¤ĵà¤¤": 1949,
      "Ġà¤¤à¤µ": 1950,
      "Ġà¤¦à¤¨": 1951,
      "à¤ļà¤ļ": 1952,
      "à¤²à¤ķà¤°": 1953,
      "Ġà¤Ĩà¤ªà¤Ł": 1954,
      "à¤¶à¤¨à¤²": 1955,
      "Ġà¤īà¤Ĺà¤¡à¤²": 1956,
      "à¤Łà¤Ńà¤°": 1957,
      "à¤Łà¤ªà¤£": 1958,
      "à¤µà¤¤à¤ķà¤ļ": 1959,
      "Ġà¤Ĩà¤Ń": 1960,
      "à¤Ńà¤¦": 1961,
      "Ġà¤µà¤£à¤Ł": 1962,
      "Ġà¤§à¤²": 1963,
      "à¤Ĺà¤ķ": 1964,
      "à¤ľà¤¡": 1965,
      "à¤īà¤¸": 1966,
      "à¤ıà¤®": 1967,
      "à¤Ķà¤°": 1968,
      "Ġà¤¤à¤ľ": 1969,
      "à¥ªà¥®": 1970,
      "à¤ļà¤¸": 1971,
      "à¤³à¤¦": 1972,
      "à¤ķà¤¤à¤²": 1973,
      "à¤³à¤Ĺà¤¡": 1974,
      "à¥ªà¥«": 1975,
      "à¤ħà¤®à¤°": 1976,
      "à¤µà¤¨à¤ļ": 1977,
      "à¤¯à¤Łà¤ķ": 1978,
      "à¤§à¤®": 1979,
      "à¤§à¤¡": 1980,
      "à¤¤à¤¹": 1981,
      "Ġà¤ĩà¤¤à¤ķ": 1982,
      "Ġà¤®à¤²à¤¯": 1983,
      "Ġà¤ħà¤®à¤ķ": 1984,
      "à¤¥à¤¤": 1985,
      "à¤®à¤¹à¤¤": 1986,
      "Ġà¤ħà¤ªà¤ĺ": 1987,
      "0000": 1988,
      "à¤ļà¤¯à¤²": 1989,
      "Ġà¤¤à¤¬": 1990,
      "à¤¯à¤±": 1991,
      "à¤¹à¤¶": 1992,
      "à¤Ľà¤¤": 1993,
      "à¤¸à¤Ł": 1994,
      "Ġà¤¬à¤ķ": 1995,
      "à¤¢à¤°": 1996,
      "à¤²à¤¶": 1997,
      "à¤¦à¤µà¤°à¤²": 1998,
      "Ġà¤¸à¤¤à¤°": 1999,
      "à¤µà¤¤à¤ķ": 2000,
      "à¤¯à¤µà¤¹": 2001,
      "à¤¤à¤°à¤ļ": 2002,
      "à¤£à¤¤à¤°": 2003,
      "Ġà¤¨à¤ĸ": 2004,
      "à¤Łà¤Ń": 2005,
      "Ġà¤¬à¤¦à¤²à¤²": 2006,
      "à¤ªà¤¥": 2007,
      "à¤ľà¤µà¤Ł": 2008,
      "Ġà¤¬à¤Ł": 2009,
      "Ġà¥§à¥¯à¥Ń": 2010,
      "à¤īà¤ªà¤ķ": 2011,
      "Ġà¥¯à¥¯": 2012,
      "Ġà¤ĩà¤ķà¤°": 2013,
      "Ġà¤µà¤¸à¤¤": 2014,
      "Ġà¤ĺà¤¡à¤¯à¤²": 2015,
      "Ġà¥¨à¥§": 2016,
      "Ġà¤¸à¤¹à¤¸": 2017,
      "Ġà¤ĵà¤¡à¤²": 2018,
      "Ġà¤§à¤ķ": 2019,
      "Ġà¤¤à¤Ł": 2020,
      "Ġà¤ĸà¤³": 2021,
      "à¤¯à¤¸à¤¨": 2022,
      "à¤¸à¤µà¤£": 2023,
      "à¤Ĺà¤§": 2024,
      "à¤¬à¤ľ": 2025,
      "à¤¯à¤ªà¤£": 2026,
      "Ġà¤ªà¤¸à¤°": 2027,
      "Ġà¤ªà¤¥": 2028,
      "Ġà¤ħà¤£à¤Ń": 2029,
      "Ġà¥¨à¥®": 2030,
      "Ġà¤ľà¤¤": 2031,
      "à¤ıà¤¨": 2032,
      "Ġà¤ªà¤²à¤¤à¤¡": 2033,
      "à¤¤à¤£": 2034,
      "Ġà¤Ĩà¤łà¤µ": 2035,
      "à¤ħà¤£à¤Ńà¤µ": 2036,
      "Ġà¤ªà¤¢": 2037,
      "à¤¡à¤Łà¤¨": 2038,
      "à¥©à¥¨": 2039,
      "Ġà¤īà¤Ĺà¤¤": 2040,
      "à¤°à¤ĺ": 2041,
      "à¤§à¤²": 2042,
      "à¤Ĩà¤¬": 2043,
      "Ġà¤¤à¤³à¤¯": 2044,
      "à¤µà¤ªà¤£": 2045,
      "Ġà¤īà¤¸à¤°": 2046,
      "à¤ħà¤¹": 2047,
      "à¤¸à¤°à¤¸": 2048,
      "Ġà¤ĩà¤¤à¤¨": 2049,
      "Ġà¤«à¤¡": 2050,
      "Ġà¤§à¤ªà¤ķ": 2051,
      "à¥ªà¥ª": 2052,
      "Ġà¤ıà¤ķà¤°": 2053,
      "Ġà¤Ĩà¤Īà¤ķ": 2054,
      "à¤¨à¤ķà¤°": 2055,
      "Ġà¤¸à¤µà¤ķ": 2056,
      "Ġà¤ªà¤¯à¤°": 2057,
      "à¤¬à¤°à¤ª": 2058,
      "à¤Īà¤¶": 2059,
      "à¤µà¤¯à¤µ": 2060,
      "à¤ľà¤¯à¤²": 2061,
      "Ġà¤ķà¤³à¤Łà¤²": 2062,
      "à¤ĺà¤°à¤ļ": 2063,
      "à¤µà¤ļà¤²": 2064,
      "à¤ĳà¤«": 2065,
      "à¤¬à¤Ĺ": 2066,
      "à¤łà¤ķ": 2067,
      "Ġà¤Ĺà¤ı": 2068,
      "Ġà¤ĳà¤°": 2069,
      "Ġà¤ħà¤°à¤¬": 2070,
      "Ġà¤ħà¤³": 2071,
      "à¤¾à¤Ĥà¥¤": 2072,
      "Ġà¤ªà¤ļ": 2073,
      "Ġà¤°à¤¡à¤²": 2074,
      "à¥¦à¥¦à¥¦": 2075,
      "Ġà¤¤à¤³à¤®à¤³": 2076,
      "Ġà¤īà¤ªà¤²à¤¬": 2077,
      "à¤ľà¤®à¤¨": 2078,
      "à¥©à¥¯": 2079,
      "à¤Ńà¤¯à¤£": 2080,
      "à¤ªà¤°à¤²": 2081,
      "à¤ĺà¤¨": 2082,
      "à¤Īà¤¬": 2083,
      "Ġà¤ªà¤¹à¤²": 2084,
      "à¤¯à¤µà¤°": 2085,
      "Ġà¤ļà¤¡à¤Ł": 2086,
      "Ġà¤ħà¤łà¤°": 2087,
      "Ġà¤Ĩà¤ĺ": 2088,
      "Ġà¤¤à¤°à¤¹": 2089,
      "Ġà¤īà¤²à¤¯à¤¤à¤¨": 2090,
      "à¤Ĺà¤µà¤¤": 2091,
      "Ġà¤³": 2092,
      "à¤¸à¤ķà¤²": 2093,
      "à¥¦à¥¦à¥¦à¥¦à¥¦à¥¦à¥¦à¥¦": 2094,
      "Ġà¤ĺà¤¡à¤¤": 2095,
      "à¥«à¥Ń": 2096,
      "Ġà¤ıà¤¦": 2097,
      "Ġà¤Ĩà¤µà¤¶": 2098,
      "Ġà¤ħà¤Łà¤ķ": 2099,
      "à¤¤à¤³à¤¸": 2100,
      "Ġà¤¯à¤ķ": 2101,
      "à¤ļà¤°à¤£": 2102,
      "Ġà¤¬à¤³à¤Ĺ": 2103,
      "Ġà¤ķà¤Ń": 2104,
      "Ġà¤¨à¤Ĺ": 2105,
      "à¤¤à¤«": 2106,
      "à¤¢à¤µ": 2107,
      "à¤ķà¤ł": 2108,
      "à¤®à¤ł": 2109,
      "Ġà¤ªà¤§": 2110,
      "à¤īà¤Ĺà¤¡": 2111,
      "Ġà¤īà¤°à¤ª": 2112,
      "Ġà¤µà¤³à¤ĸà¤²": 2113,
      "Ġà¤ľà¤¬à¤°": 2114,
      "à¤¢à¤²": 2115,
      "à¤ªà¤°à¤ª": 2116,
      "Ġà¤ľà¤®à¤¤": 2117,
      "à¥¬à¥¦": 2118,
      "à¤¸à¤ĸ": 2119,
      "à¤¹à¤¦": 2120,
      "Ġà¤¦à¤°à¤µ": 2121,
      "à¤¯à¤ķà¤¡": 2122,
      "à¤Łà¤ķà¤ķ": 2123,
      "à¤ĺà¤¡à¤¯": 2124,
      "Ġà¤µà¤¨à¤¸": 2125,
      "à¤¯à¤Łà¤¨": 2126,
      "Ġà¤ļà¤²à¤¯à¤²": 2127,
      "Ġà¤§à¤¡à¤ª": 2128,
      "Ġà¥¨à¥¯": 2129,
      "à¤·à¤ª": 2130,
      "à¤ĵà¤¡": 2131,
      "à¤Ńà¤°à¤¤": 2132,
      "à¤ħà¤¬": 2133,
      "Ġà¤ķà¤³à¤ļ": 2134,
      "à¤£à¤¶": 2135,
      "Ġà¤ļà¤®à¤¤": 2136,
      "Ġà¤ļà¤¡à¤ļ": 2137,
      "Ġà¤¸à¤¹à¤¨": 2138,
      "à¥ªà¥¨": 2139,
      "à¤¬à¤°à¤¯à¤²": 2140,
      "Ġà¤¤à¤ªà¤¶": 2141,
      "Ġà¤«à¤¸": 2142,
      "Ġà¤ķà¤¡à¤ķà¤¡": 2143,
      "à¤¬à¤°à¤ļ": 2144,
      "à¥ªà¥¯": 2145,
      "à¤Ĺà¤Ń": 2146,
      "Ġà¤Ńà¤°à¤¸": 2147,
      "à¤¶à¤ķà¤¤": 2148,
      "à¤ħà¤ļ": 2149,
      "Ġà¤¬à¤¢": 2150,
      "Ġà¤Ńà¤µà¤¨": 2151,
      "à¤¦à¤¤à¤²": 2152,
      "Ġà¤ķà¤¡à¤ķ": 2153,
      "Ġà¤¹à¤°à¤ķà¤¤": 2154,
      "Ġà¤ĵà¤³": 2155,
      "à¤ľà¤§": 2156,
      "à¤ªà¤¤à¤²": 2157,
      "Ġà¤¶à¤¤à¤ķ": 2158,
      "à¤°à¤¤à¤°": 2159,
      "à¤°à¤ļà¤¨": 2160,
      "an": 2161,
      "à¤Ĺà¤¤à¤¨": 2162,
      "à¥ĭ..": 2163,
      "à¥įà¤¾": 2164,
      "à¤µà¤§à¤°": 2165,
      "Ġà¤ķà¤²à¤®": 2166,
      "Ġà¤Ŀà¤Ĺ": 2167,
      "Ġà¤Ĩà¤ªà¤¯à¤¤": 2168,
      "à¤¹à¤°à¤°": 2169,
      "Ġà¤°à¤ļà¤£": 2170,
      "Ġà¥«à¥¦": 2171,
      "Ġà¤ĺà¤¡à¤ª": 2172,
      "à¤Łà¤¯à¤¤": 2173,
      "à¤³à¤Łà¤¨": 2174,
      "à¤¡à¤¸à¤¡": 2175,
      "à¤¹à¤¡à¤ªà¤£": 2176,
      "à¤Ńà¤¤": 2177,
      "Ġà¤ļà¤£": 2178,
      "Ġà¤Ĳà¤¤": 2179,
      "Ġà¤ĩà¤ķ": 2180,
      "Ġà¤īà¤·": 2181,
      "Ġà¤Ĩà¤¦à¤®": 2182,
      "Ġà¤ħà¤¤à¤°": 2183,
      "Ġà¤¬à¤¦à¤²à¤ª": 2184,
      "Ġà¤ħà¤¥": 2185,
      "à¥«à¥®": 2186,
      "Ġà¤īà¤§": 2187,
      "à¥¥à¥¥": 2188,
      "à¤£à¤ªà¤£": 2189,
      "Ġà¤¦à¤°à¤¬": 2190,
      "à¤ķà¤¹": 2191,
      "à¤¨à¤Ĺà¤¡": 2192,
      "à¤¯à¤Ńà¤°": 2193,
      "à¤¨à¤µà¤¤": 2194,
      "à¤¤à¤ķà¤°": 2195,
      "Ġà¤¦à¤®": 2196,
      "à¤®à¤ļà¤°": 2197,
      "à¤°à¤ļà¤²": 2198,
      "Ġà¤ĸà¤Ł": 2199,
      "à¤£à¤¬": 2200,
      "à¤µà¤ķà¤°": 2201,
      "Ġà¥¨à¥¨": 2202,
      "à¤ķà¤¡à¤¸": 2203,
      "Ġ.....": 2204,
      "à¤®à¤ĸ": 2205,
      "Ġà¤ıà¤ķà¤¤": 2206,
      "à¤¬à¤¤à¤£": 2207,
      "à¤Ĺà¤ªà¤£": 2208,
      "à¤¨à¤¤à¤³": 2209,
      "à¤£à¤µà¤²": 2210,
      "Ġà¤¸à¤°à¤ļ": 2211,
      "Ġà¤¬à¤¸à¤ļ": 2212,
      "Ġà¤ľà¤¹": 2213,
      "Ġà¤Ĩà¤µà¤¡à¤¨": 2214,
      "Ġà¤ªà¤Łà¤²": 2215,
      "Ġà¤īà¤ªà¤¸": 2216,
      "à¤²à¤£": 2217,
      "Ġà¤ķà¤³à¤¸": 2218,
      "Ġà¤ħà¤¨à¤µà¤³à¤ĸ": 2219,
      "Ġà¤Ĩà¤µà¤°": 2220,
      "Ġà¤ĺà¤¸à¤ĺ": 2221,
      "à¥©à¥§": 2222,
      "Ġà¤²à¤ĺ": 2223,
      "à¤ļà¤¯à¤¤": 2224,
      "Ġà¤§à¤°à¤ļ": 2225,
      "à¥«à¥¬": 2226,
      "à¤¼à¤¾à¤Ĥ": 2227,
      "à¤¶à¤¶": 2228,
      "Ġà¤¨à¤°à¤¸": 2229,
      "Ġà¤īà¤¸à¤¨": 2230,
      "Ġà¤Ĩà¤Īà¤ļ": 2231,
      "à¤µà¤ķà¤³": 2232,
      "Ġà¤µà¤¤à¤ķà¤ļ": 2233,
      "Ġà¤¦à¤¨à¤ªà¤°": 2234,
      "à¤Łà¤Ł": 2235,
      "Ġà¤²à¤¤": 2236,
      "à¤°à¤Ńà¤°": 2237,
      "à¤µà¤°à¤¸": 2238,
      "à¤¤à¤°à¤¨": 2239,
      "Ġà¤¬à¤ľ": 2240,
      "à¤ķà¤Ń": 2241,
      "à¤¦à¤Ń": 2242,
      "Ġà¤ªà¤°à¤Ĺà¤Ł": 2243,
      "Ġà¤īà¤¡à¤ķ": 2244,
      "Ġà¤§à¤°à¤£": 2245,
      "Ġà¤Ĺà¤¡à¤Ĺà¤¡": 2246,
      "Ġà¤ªà¤°à¤¦": 2247,
      "Ġà¤ħà¤µà¤¶": 2248,
      "Ġà¤ĭà¤¤": 2249,
      "Ġà¤ħà¤¶à¤ķ": 2250,
      "à¤«à¤¸": 2251,
      "Ġà¤ĳà¤ªà¤°": 2252,
      "à¤¨à¤ªà¤¤": 2253,
      "à¤Ĩà¤µà¤¡": 2254,
      "Ġà¤Ĩà¤ļà¤°à¤£": 2255,
      "Ġà¤¨à¤®à¤³": 2256,
      "à¤Ĳà¤¶": 2257,
      "Ġà¤ķà¤¹à¤¤": 2258,
      "à¤Ĩà¤¸à¤ª": 2259,
      "à¤µà¤°à¤ļ": 2260,
      "à¥®à¥¦": 2261,
      "Ġà¤¬à¤¡à¤¬à¤¡": 2262,
      "Ġà¤®à¤¨à¤¯à¤¤": 2263,
      "Ġà¤¸à¤®à¤Ĺ": 2264,
      "Ġà¤ıà¤ķà¤µ": 2265,
      "à¤¡à¤ªà¤£": 2266,
      "à¤Ĺà¤£à¤ªà¤¤": 2267,
      "Ġà¤µà¤¸à¤£": 2268,
      "à¤ħà¤£à¤ķ": 2269,
      "à¤²à¤¡": 2270,
      "à¤¸à¤®à¤°": 2271,
      "Ġà¤¸à¤¦à¤°": 2272,
      "à¤°à¤Ĺà¤³": 2273,
      "Ġà¤ĸà¤¨": 2274,
      "à¤łà¤£": 2275,
      "à¤ļà¤¤à¤¨": 2276,
      "à¤°à¤Ł": 2277,
      "Ġà¤¨à¤·": 2278,
      "à¤¦à¤¦": 2279,
      "à¤¦à¤¨à¤¶": 2280,
      "Ġà¤¸à¤¡": 2281,
      "Ġà¤ĩà¤µ": 2282,
      "à¤ıà¤µ": 2283,
      "à¤µà¤°à¤²": 2284,
      "Ġà¤ĵà¤¡à¤Ł": 2285,
      "à¤ĺà¤®": 2286,
      "Ġà¤ªà¤³à¤¯à¤¤à¤²": 2287,
      "Ġà¤¤à¤ªà¤¸": 2288,
      "à¤µà¤°à¤¤": 2289,
      "à¤ªà¤¡à¤Łà¤²": 2290,
      "à¤ªà¤¡à¤ª": 2291,
      "Ġà¤¬à¤Ĺà¤²": 2292,
      "à¤£à¤¦": 2293,
      "à¤ľà¤¹": 2294,
      "à¤Ĩà¤µà¤¯à¤ļ": 2295,
      "Ġà¤¬à¤ĺ": 2296,
      "à¤Łà¤¦": 2297,
      "à¤¢à¤¤": 2298,
      "à¥¬à¥¬": 2299,
      "à¥¯à¥¦": 2300,
      "Ġà¤ļà¤ķà¤ļà¤ķ": 2301,
      "Ġà¤¸à¤¡à¤¸à¤¡": 2302,
      "à¤³à¤¬": 2303,
      "à¤¦à¤¨à¤ª": 2304,
      "Ġà¤§à¤°à¤¨": 2305,
      "Ġà¤īà¤¸à¤³": 2306,
      "Ġà¤ķà¤²à¤ķà¤¤": 2307,
      "Ġà¤¨à¤ľà¤°": 2308,
      "à¤¾....": 2309,
      "à¤¹à¤°à¤ļ": 2310,
      "Ġà¤ªà¤¡à¤µ": 2311,
      "à¤³à¤ķà¤°": 2312,
      "Ġà¤ķà¤£à¤ķà¤£": 2313,
      "à¤Ĩà¤ļ": 2314,
      "à¤Ĺà¤¤à¤ķà¤ļ": 2315,
      "à¤ĩà¤¯": 2316,
      "Ġà¤¬à¤¸à¤¨": 2317,
      "Ġà¤ļà¤²à¤¤à¤²": 2318,
      "Ġà¤ħà¤«": 2319,
      "Ġà¤ķà¤ķ": 2320,
      "à¤¸à¤¡": 2321,
      "à¤ĩà¤®": 2322,
      "à¤Ĳà¤¸": 2323,
      "Ġà¤ĩà¤·": 2324,
      "à¤½à¤¨": 2325,
      "Ġà¤Ĩà¤µà¤²": 2326,
      "à¥Ĥ!": 2327,
      "Ġà¤¯à¤¶à¤¸": 2328,
      "à¤Ĥ!": 2329,
      "à¤ıà¤ķà¤ł": 2330,
      "Ġà¤§à¤®": 2331,
      "Ġà¤µà¤³à¤µà¤³": 2332,
      "à¤ķà¤®à¤²": 2333,
      "Ġà¤ķà¤§": 2334,
      "Ġ!!": 2335,
      "à¤³à¤¤à¤²": 2336,
      "Ġà¤ħà¤¨à¤¨": 2337,
      "Ġà¤¬à¤°à¤µ": 2338,
      "Ġà¤¸à¤°à¤¨": 2339,
      "à¤¬à¤¯à¤¤": 2340,
      "à¤¯à¤³": 2341,
      "Ġà¤ķà¤®à¤³": 2342,
      "Ġà¤ıà¤¤": 2343,
      "Ġà¤ħà¤ķà¤°": 2344,
      "à¤Ĺà¤µà¤£": 2345,
      "Ġà¤ªà¤°à¤¶": 2346,
      "à¥«à¥¯": 2347,
      "Ġà¤Ĩà¤ªà¤ķ": 2348,
      "Ġà¤ħà¤µà¤ļ": 2349,
      "Ġà¤¨à¤¨": 2350,
      "Ġà¤ħà¤°à¤£": 2351,
      "Ġà¤ĺà¤Łà¤®": 2352,
      "Ġà¤µà¤§": 2353,
      "Ġà¤¨à¤¸à¤¤": 2354,
      "Ġà¤¹à¤³à¤¡": 2355,
      "à¤µà¤¨à¤¯": 2356,
      "Ġà¤¸à¤°à¤Ń": 2357,
      "Ġà¤¤à¤µà¤³": 2358,
      "Ġà¤ĸà¤²": 2359,
      "à¤łà¤¤": 2360,
      "à¤µà¤°à¤ª": 2361,
      "à¤ļà¤µà¤¥": 2362,
      "Ġà¤¹à¤°à¤£": 2363,
      "Ġà¤¤à¤°à¤¸": 2364,
      "à¤¥à¤¬": 2365,
      "à¤¸à¤°à¤¶": 2366,
      "Ġà¤ĵà¤µ": 2367,
      "Ġà¤Ńà¤°à¤µ": 2368,
      "Ġà¤Ŀà¤¡": 2369,
      "à¤¬à¤Ī": 2370,
      "à¤½à¤¤": 2371,
      "à¥Ī.": 2372,
      "Ġà¥Ĳ": 2373,
      "à¤īà¤°à¤²": 2374,
      "à¥Ĥà¤ģà¥¤": 2375,
      "à¥ªà¥§": 2376,
      "à¤ĥà¥¤": 2377,
      "Ġà¤Ŀà¤³": 2378,
      "Ġà¤ļà¤¡à¤¸": 2379,
      "à¥®à¥®": 2380,
      "Ġà¤ªà¤¡à¤¬": 2381,
      "Ġà¤¦à¤µà¤°à¤¤à¤²": 2382,
      "Ġà¤ķà¤°à¤¯": 2383,
      "à¤°à¤µà¤¤": 2384,
      "Ġà¤¸à¤®à¤¤": 2385,
      "Ġà¥©à¥«": 2386,
      "à¥Ńà¥«": 2387,
      "Ġà¤°à¤¹à¤¸": 2388,
      "Ġà¤ķà¤³à¤µà¤³": 2389,
      "à¤Ĩà¤ĸ": 2390,
      "à¥Ńà¥¬": 2391,
      "à¤¬à¤¤à¤²": 2392,
      "à¤·à¤¨": 2393,
      "à¤Ľà¤¨": 2394,
      "à¤¹à¤°à¤²": 2395,
      "Ġà¤ıà¤¡": 2396,
      "Ġà¤µà¤³à¤ĸà¤¨": 2397,
      "Ġà¥ªà¥«": 2398,
      "à¤µà¤ľà¤²": 2399,
      "à¤ĺà¤¡à¤²": 2400,
      "à¤ķà¤¤à¤°": 2401,
      "à¤ľà¤µà¤£": 2402,
      "Ġà¤īà¤«": 2403,
      "à¤Ĩà¤®à¤¦": 2404,
      "à¤¼à¥į": 2405,
      "Ġà¤ĺà¤¨": 2406,
      "Ġà¤¨à¤¤": 2407,
      "Ġà¤Ńà¤Ĺà¤¤": 2408,
      "Ġà¤¯à¤²": 2409,
      "à¤¸à¤°à¤ļ": 2410,
      "à¤ªà¤¹": 2411,
      "à¤ļà¤¤à¤²": 2412,
      "à¤Ĩà¤¯à¤ķà¤²": 2413,
      "à¥ªà¥©": 2414,
      "Ġà¤Ńà¤µà¤¤": 2415,
      "à¤ĵà¤ķ": 2416,
      "Ġà¥¬à¥¦": 2417,
      "à¤ħà¤¯": 2418,
      "à¤²à¤®à¤¤": 2419,
      "à¤ķà¤·": 2420,
      "Ġà¤¬à¤¡à¤¯": 2421,
      "Ġà¤ªà¤°à¤¤à¤¤": 2422,
      "Ġà¤°à¤Ĺ": 2423,
      "à¤¯à¤²à¤®à¤¨": 2424,
      "à¥Ģ..": 2425,
      "à¤ĵà¤Ĺ": 2426,
      "à¤Ĩà¤«": 2427,
      "Ġà¤¤à¤ľà¤µ": 2428,
      "à¤¬à¤§": 2429,
      "Ġà¤Ĩà¤µà¤¸": 2430,
      "à¤¤à¤¸à¤²": 2431,
      "à¤°à¤®à¤¤": 2432,
      "Ġà¤Ĩà¤¸à¤ķ": 2433,
      "à¤Ĭà¤¸": 2434,
      "Ġà¤Ĩà¤Ŀ": 2435,
      "à¤«à¤¨": 2436,
      "à¤³à¤µà¤£": 2437,
      "Ġà¤ªà¤°à¤¯": 2438,
      "à¤ĵà¤²": 2439,
      "Ġà¤®à¤°à¤ª": 2440,
      "Ġà¤¸à¤³à¤¸": 2441,
      "Ġà¤ļà¤¡à¤¤": 2442,
      "Ġà¤Ĭà¤°": 2443,
      "à¤®à¤ľà¤Ĺà¤¤": 2444,
      "à¥ĩà¤ģ": 2445,
      "Ġ.,": 2446,
      "à¤ıà¤ļ": 2447,
      "à¥Ģà¤Ĥ...": 2448,
      "à¤Ŀà¤Ĺ": 2449,
      "à¤°à¤µà¤ļà¤¨": 2450,
      "Ġà¤¬à¤¸à¤¤à¤²": 2451,
      "à¤ħà¤¡": 2452,
      "Ġà¤ĺà¤£": 2453,
      "à¤ıà¤Ĺ": 2454,
      "à¤¹à¤°à¤¤à¤²": 2455,
      "Ġà¤Ĩà¤¨à¤¨": 2456,
      "Ġà¤ĺà¤®": 2457,
      "à¤¯à¤«": 2458,
      "Ġà¤ľà¤µà¤³": 2459,
      "Ġà¤²à¤ĸ": 2460,
      "à¤ľà¤¨à¤¶": 2461,
      "à¤¯à¤§": 2462,
      "Ġà¤Ĩà¤µà¤¤": 2463,
      "Ġà¤ķà¤¡à¤ļ": 2464,
      "à¥Ģà¤Ĥ!": 2465,
      "Ġà¤ĳà¤¸": 2466,
      "à¤¶à¤¨à¤°": 2467,
      "à¤¹à¤Ł": 2468,
      "Ġà¤ĩà¤¨à¤ķ": 2469,
      "Ġà¤ĸà¤¡à¤ª": 2470,
      "à¤µà¤ł": 2471,
      "Ġà¤®à¤°à¤¤à¤²": 2472,
      "Ġà¤¶à¤ķà¤¤à¤²": 2473,
      "Ġà¤Ĺà¤¡à¤¬à¤¡": 2474,
      "à¤ªà¤°à¤µ": 2475,
      "à¤¯à¤°à¤¸": 2476,
      "Ġà¤ķà¤³à¤¯à¤²": 2477,
      "Ġà¤ļà¤¢": 2478,
      "à¤¦à¤µà¤°à¤ª": 2479,
      "à¤§à¤¸": 2480,
      "Ġà¥©à¥§": 2481,
      "Ġà¤ħà¤ļà¤³à¤¯": 2482,
      "à¤ķà¤±": 2483,
      "Ġà¤¬à¤¯": 2484,
      "à¤Ĥ?": 2485,
      "à¤£à¤°": 2486,
      "Ġà¤¤à¤³à¤ª": 2487,
      "à¤Łà¤Ĺ": 2488,
      "à¤Ńà¤µà¤¤": 2489,
      "Ġà¤ħà¤·": 2490,
      "à¤ıà¤ķà¤Ł": 2491,
      "Ġà¥¥à¥¥": 2492,
      "Ġà¤¤à¤Ĺ": 2493,
      "à¤°à¤µà¤³": 2494,
      "à¤ķà¤ªà¤¡": 2495,
      "Ġà¤Ńà¤ľ": 2496,
      "à¤°à¤¹à¤£": 2497,
      "à¤£à¤ľ": 2498,
      "à¤¯à¤ľà¤£": 2499,
      "à¤·à¤®à¤¤": 2500,
      "Ġà¤īà¤²à¤¯à¤¤à¤²": 2501,
      "Ġà¤ħà¤µà¤²": 2502,
      "à¤ĩà¤ķ": 2503,
      "à¥Ńà¥®": 2504,
      "Ġà¤ħà¤ķà¤²": 2505,
      "Ġà¤¯à¤¸": 2506,
      "à¤Ŀà¤¨": 2507,
      "Ġà¤ĩà¤Ł": 2508,
      "à¤¥à¤¶": 2509,
      "à¤ķà¤³à¤¨": 2510,
      "à¤µà¤ĸà¤¦": 2511,
      "Ġà¤ķà¤µà¤¡": 2512,
      "à¥¬à¥®": 2513,
      "Ġà¤ľà¤¬à¤°à¤¦à¤¸": 2514,
      "Ġà¤ķà¤°à¤¤à¤ķà¤ļ": 2515,
      "à¤ĺà¤°à¤ķ": 2516,
      "Ġà¤ĺà¤¡à¤¯à¤¤": 2517,
      "Ġà¤ħà¤ªà¤Ń": 2518,
      "à¤Ĺà¤µà¤¡": 2519,
      "Ġà¤Ńà¤¸": 2520,
      "Ġà¤®à¤°à¤ļ": 2521,
      "Ġà¤ļà¤®": 2522,
      "Ġà¤ļà¤ª": 2523,
      "Ġà¤¯à¤¯": 2524,
      "Ġà¤īà¤²à¤Ł": 2525,
      "à¤ªà¤°à¤¬": 2526,
      "Ġà¤Łà¤ª": 2527,
      "à¤¹à¤°à¤¬": 2528,
      "Ġà¤ıà¤ļ": 2529,
      "Ġà¤¯à¤¶à¤µ": 2530,
      "à¤ĺà¤µ": 2531,
      "Ġà¤Ĩà¤ĩà¤²": 2532,
      "à¤¤à¤°à¤ķ": 2533,
      "à¤Īà¤¸": 2534,
      "à¤¿à¤Ĥ.": 2535,
      "à¤ªà¤¡à¤¤": 2536,
      "Ġà¤¸à¤«": 2537,
      "à¤§à¤³": 2538,
      "Ġà¤łà¤°": 2539,
      "Ġà¤¶à¤¹à¤°": 2540,
      "Ġà¤ĸà¤¤à¤ĸà¤¤": 2541,
      "Ġà¤Ľà¤¤": 2542,
      "à¤¼à¥ĩà¤Ĥ": 2543,
      "à¤Ĺà¤°à¤£": 2544,
      "Ġà¤ľà¤Ĺà¤¨": 2545,
      "à¤¯à¤¨à¤²": 2546,
      "Ġà¤ĵà¤Ł": 2547,
      "à¤£à¤ªà¤¤": 2548,
      "à¤¸à¤¶": 2549,
      "Ġà¤ĸà¤ª": 2550,
      "à¤ĩà¤ļ": 2551,
      "à¤²à¤Ł": 2552,
      "à¤Ĩà¤¯à¤¤": 2553,
      "Ġà¤«à¤Łà¤ķ": 2554,
      "Ġà¤§à¤®à¤ķ": 2555,
      "à¤ħà¤¥": 2556,
      "Ġà¤Ĭà¤£": 2557,
      "à¤°à¤£à¤ªà¤£": 2558,
      "Ġà¤¬à¤¯à¤²": 2559,
      "Ġà¤¤à¤¬à¤²": 2560,
      "à¤¡à¤µà¤²": 2561,
      "Ġà¤ļà¤²à¤£": 2562,
      "à¤¸à¤®à¤¸": 2563,
      "à¤Łà¤ķà¤Ł": 2564,
      "à¤Ĩà¤¸à¤ļ": 2565,
      "Ġà¤ĺà¤¸à¤ĺà¤¶": 2566,
      "Ġà¥Ńà¥Ń": 2567,
      "à¤§à¤¯": 2568,
      "Ġà¤ħà¤ªà¤ķ": 2569,
      "à¤³à¤ªà¤£": 2570,
      "Ġà¥Ńà¥¦": 2571,
      "à¤§à¤ª": 2572,
      "Ġà¤ħà¤Ĺà¤°": 2573,
      "à¥«à¥ª": 2574,
      "Ġà¤¦à¤¸à¤ķ": 2575,
      "Ġà¤ķà¤³à¤²": 2576,
      "à¥Ī?": 2577,
      "à¤Ŀà¤Ĺà¤¡": 2578,
      "à¤¦à¤µà¤°à¤¤": 2579,
      "Ġà¤¹à¤¯à¤ķ": 2580,
      "à¤°à¤ªà¤¦": 2581,
      "à¤ķà¤ķà¤²": 2582,
      "à¤³à¤°": 2583,
      "Ġà¤ħà¤µà¤§": 2584,
      "à¤ħà¤ªà¤°": 2585,
      "à¤ĺà¤¡à¤£": 2586,
      "Ġà¥©à¥¬": 2587,
      "Ġà¤¸à¤ªà¤£": 2588,
      "Ġà¤¸à¤®à¤ķ": 2589,
      "Ġà¥¦à¥¦": 2590,
      "Ġà¤¹à¤²à¤ķ": 2591,
      "Ġà¤¨à¤²": 2592,
      "à¤°à¤¦à¤ķ": 2593,
      "Ġà¤¸à¤°à¤¤à¤¨": 2594,
      "Ġà¤¹à¤ľà¤°": 2595,
      "à¤ħà¤ļà¤ķ": 2596,
      "à¤µà¤¤à¤ļ": 2597,
      "à¤ĸà¤¸": 2598,
      "à¤ĵà¤ª": 2599,
      "Ġà¤°à¤¬": 2600,
      "à¥¥à¥¤": 2601,
      "Ġà¤īà¤¡à¤Ĺ": 2602,
      "à¤Łà¤°à¤¨": 2603,
      "Ġà¤Ĩà¤ªà¤Ĩà¤ªà¤²": 2604,
      "à¤łà¤¨": 2605,
      "Ġà¤¨à¤µà¤°": 2606,
      "à¤°à¤¸à¤°à¤£": 2607,
      "à¤ĸà¤ķà¤°": 2608,
      "à¤¹à¤°à¤¶": 2609,
      "Ġà¥ªà¥Ń": 2610,
      "Ġà¤ĵà¤¡à¤ª": 2611,
      "à¤Ńà¤¸": 2612,
      "Ġà¤ĵà¤ł": 2613,
      "Ġà¤¦à¤ĸà¤²": 2614,
      "Ġà¤Ĩà¤ªà¤¯": 2615,
      "à¤¯à¤°à¤ļ": 2616,
      "Ġà¤°à¤¦": 2617,
      "à¤°à¤¸à¤¤": 2618,
      "à¤µà¤Ńà¤°": 2619,
      "à¤³à¤ªà¤¯": 2620,
      "Ġà¤µà¤¯à¤¨": 2621,
      "à¤¹à¤ļ": 2622,
      "Ġà¤ħà¤µà¤ķ": 2623,
      "à¤£à¤Ń": 2624,
      "à¤Łà¤ķà¤°": 2625,
      "Ġà¤Ĩà¤¡à¤®": 2626,
      "Ġà¥©à¥Ń": 2627,
      "à¤¦à¤°à¤ķ": 2628,
      "Ġà¤ıà¤ľ": 2629,
      "à¤²à¤Ńà¤°": 2630,
      "Ġà¤ľà¤ĸà¤®": 2631,
      "à¤¬à¤¸à¤¤": 2632,
      "à¤Ŀà¤²": 2633,
      "Ġà¤®à¤Ĺà¤°": 2634,
      "Ġà¤¨à¤¯à¤¨": 2635,
      "à¤¹à¤ķà¤²": 2636,
      "à¤Ĺà¤¤à¤ķ": 2637,
      "à¤¶à¤ļ": 2638,
      "à¥¯à¥®": 2639,
      "à¥«à¥¨": 2640,
      "à¤°à¤®à¤¨": 2641,
      "à¤ħà¤ªà¤¨": 2642,
      "à¥¬à¥Ń": 2643,
      "Ġà¤ķà¤¥à¤¨": 2644,
      "Ġà¤īà¤¡à¤¤": 2645,
      "Ġà¥©à¥®": 2646,
      "à¤¸à¤«": 2647,
      "Ġà¤ķà¤Ī": 2648,
      "à¥Ĥà¤Ĥ!": 2649,
      "Ġà¤¥à¤°à¤¥à¤°à¤¤": 2650,
      "à¤¯à¤²à¤®à¤¨à¤¶": 2651,
      "Ġà¤ļà¤µ": 2652,
      "à¤ĺà¤Łà¤£": 2653,
      "Ġà¥©à¥ª": 2654,
      "Ġà¤ļà¤¡à¤ª": 2655,
      ".....": 2656,
      "Ġà¤ħà¤µà¤¯à¤µ": 2657,
      "Ġà¤¤à¤²à¤µ": 2658,
      "Ġà¥§à¥¦à¥¦": 2659,
      "à¤Ĩà¤¦à¤°": 2660,
      "Ġà¤īà¤ªà¤®": 2661,
      "à¤¸à¤ªà¤²": 2662,
      "à¤ıà¤ķà¤®": 2663,
      "à¤µà¤¢": 2664,
      "à¤ıà¤¶à¤¨": 2665,
      "à¤°à¤¸à¤®à¤ľ": 2666,
      "à¤µà¤³à¤£": 2667,
      "à¤§à¤¶": 2668,
      "à¤ķà¤²à¤®": 2669,
      "Ġà¤µà¤°à¤¦": 2670,
      "à¤¸à¤µà¤°": 2671,
      "Ġà¤ħà¤¨à¤®à¤¨": 2672,
      "à¥¯à¥Ń": 2673,
      "Ġà¤¦à¤¶à¤°à¤¥": 2674,
      "à¤¸à¤¹à¤ľ": 2675,
      "Ġà¤Ĺà¤¨": 2676,
      "à¤ªà¤°à¤ķ": 2677,
      "à¥ĩ..": 2678,
      "Ġà¤ķà¤³à¤¯": 2679,
      "Ġà¤¶à¤¨": 2680,
      "Ġà¥¨à¥¦à¥§à¥¦": 2681,
      "Ġà¤ļà¤¡à¤¯à¤²": 2682,
      "à¤ıà¤ķà¤¸": 2683,
      "Ġà¤Ĩà¤¢": 2684,
      "!!": 2685,
      "Ġà¤¸à¤¹à¤µ": 2686,
      "à¤ľà¤¯à¤¨": 2687,
      "à¤«à¤¤": 2688,
      "à¤®à¤ļà¤¨": 2689,
      "Ġà¤ĸà¤³à¤ĸ": 2690,
      "Ġà¤¦à¤£": 2691,
      "Ġà¤ħà¤¸à¤¹": 2692,
      "Ġà¤µà¤¡à¤¯à¤²": 2693,
      "à¤°à¤¶à¤¸": 2694,
      "Ġà¤®à¤¦à¤¨": 2695,
      "Ġà¤¨à¤Ĺà¤°à¤ª": 2696,
      "à¤¨à¤µà¤£": 2697,
      "à¤ķà¤¡à¤¯": 2698,
      "à¤¤à¤®à¤¤": 2699,
      "à¤¯à¤ķà¤¤": 2700,
      "à¤ıà¤ª": 2701,
      "Ġà¤µà¤¨à¤µ": 2702,
      "Ġà¤¬à¤ļà¤ª": 2703,
      "Ġà¤¸à¤¹à¤ľà¤¤": 2704,
      "à¤¸à¤°à¤¨": 2705,
      "à¥¬à¥«": 2706,
      "Ġà¤ļà¤²à¤²": 2707,
      "à¤Ĺà¤¡à¤ļ": 2708,
      "à¤ĸà¤¤à¤²": 2709,
      "à¥¬à¥¨": 2710,
      "à¤¤à¤°à¤ª": 2711,
      "Ġà¤Ĩà¤¯à¤ķà¤¤à¤²": 2712,
      "Ġà¤Ĩà¤µà¤¯à¤Ń": 2713,
      "à¤¨à¤ĸ": 2714,
      "à¤®à¤ķà¤¥": 2715,
      "à¤¾à¤ģ,": 2716,
      "à¤ļà¤³à¤µà¤³": 2717,
      "Ġà¤¬à¤¯à¤°": 2718,
      "Ġà¤ħà¤µà¤¸à¤°": 2719,
      "à¤ľà¤ķà¤°": 2720,
      "à¤ªà¤ĸ": 2721,
      "Ġà¤¶à¤®": 2722,
      "à¤ļà¤ªà¤°": 2723,
      "Ġà¤ıà¤«": 2724,
      "à¤ĺà¤£": 2725,
      "à¤łà¤µ": 2726,
      "à¤łà¤®": 2727,
      "Ġà¤®à¤ľà¤²": 2728,
      "Ġà¤ľà¤¨à¤¨": 2729,
      "à¤ĺà¤Łà¤ķ": 2730,
      "à¤¨à¤µà¤¨": 2731,
      "à¤ªà¤°à¤ļ": 2732,
      "à¤ªà¤¡à¤¨": 2733,
      "Ġà¤¦à¤µà¤°à¤¨": 2734,
      "Ġà¥©à¥©": 2735,
      "à¥Ńà¥ª": 2736,
      "à¤¨à¤µà¤Ł": 2737,
      "Ġà¤Ĩà¤ĩ": 2738,
      "à¤¶à¤µà¤°": 2739,
      "à¤¨à¤³": 2740,
      "Ġà¤¬à¤ª": 2741,
      "Ġà¤¶à¤²": 2742,
      "Ġà¤ĩà¤¸à¤²": 2743,
      "à¤°à¤¤à¤®": 2744,
      "Ġà¤²à¤Ĺà¤¤": 2745,
      "Ġà¤²à¤¢": 2746,
      "à¤ķà¤²à¤¤": 2747,
      "à¤¯à¤®à¤ļ": 2748,
      "Ġà¤Ĩà¤¯à¤¡": 2749,
      "Ġà¤µà¤¦": 2750,
      "Ġà¤¹à¤°à¤µ": 2751,
      "à¤½à¤§": 2752,
      "à¤¾à¥į": 2753,
      "à¤Ĩà¤°à¤¤": 2754,
      "à¤¸à¤°à¤£": 2755,
      "Ġà¤¦à¤¹": 2756,
      "à¥¬à¥ª": 2757,
      "à¤Ŀà¤®": 2758,
      "Ġà¤ªà¤¦à¤ķ": 2759,
      "Ġà¤Ĩà¤Ļ": 2760,
      "Ġà¤Ĺà¤®": 2761,
      "à¤ĸà¤±": 2762,
      "Ġà¤¥à¤°à¤¥à¤°": 2763,
      "Ġà¤¸à¤®à¤¨": 2764,
      "Ġà¤ĺà¤¡à¤ļ": 2765,
      "à¤¸à¤§": 2766,
      "Ġà¤ļà¤²à¤¤à¤¨": 2767,
      "à¤Łà¤«": 2768,
      "Ġà¤īà¤łà¤ª": 2769,
      "à¤·à¤§": 2770,
      "Ġà¤ĳà¤²": 2771,
      "Ġà¤µà¤¤à¤ķ": 2772,
      "Ġà¤ľà¤³à¤Ł": 2773,
      "Ġà¤§à¤Ĺ": 2774,
      "à¤¶à¤Ńà¤ķ": 2775,
      "Ġà¤ıà¤ķà¤¨": 2776,
      "Ġà¤¥à¤¯à¤ļ": 2777,
      "à¥įà¤Ĥ": 2778,
      "à¤Ĩà¤µà¤¯à¤¨": 2779,
      "Ġà¤¶à¤¹": 2780,
      "à¤ıà¤ķà¤ļ": 2781,
      "à¤Ŀà¤¡": 2782,
      "Ġà¤°à¤ľà¤¨": 2783,
      "à¥®à¥Ń": 2784,
      "Ġà¤°à¤¹à¤¨": 2785,
      "à¤¸à¤ķà¤Ł": 2786,
      "à¤¤à¤°à¤¸": 2787,
      "à¤ħà¤ķà¤¸": 2788,
      "Ġà¤ķà¤°à¤®à¤²": 2789,
      "à¤¼à¥Ģà¤Ĥ": 2790,
      "à¥¯à¥«": 2791,
      "à¥¯à¥¯à¥¯à¥¯": 2792,
      "à¥ĭà¤Ĥ?": 2793,
      "Ġà¤īà¤¡à¤Ł": 2794,
      "à¤µà¤²à¤¤": 2795,
      "Ġà¤Ńà¤Ĺà¤µà¤¦": 2796,
      "Ġà¤Ĩà¤³à¤¸": 2797,
      "à¤ķà¤¸à¤Ń": 2798,
      "Ġà¥®à¥¦": 2799,
      "Ġà¥ªà¥¦à¥©": 2800,
      "à¤¨à¤µà¤°": 2801,
      "à¤¹à¤¯à¤ļ": 2802,
      "à¤ħà¤µà¤¸": 2803,
      "à¤ļà¤¡à¤¶": 2804,
      "à¤µà¤¸à¤°": 2805,
      "à¤ķà¤°à¤¤à¤¨": 2806,
      "Ġà¤ªà¤ķà¤¡": 2807,
      "à¤¬à¤µ": 2808,
      "Ġà¤Ńà¤¦": 2809,
      "Ġà¤īà¤ķà¤¡": 2810,
      "Ġà¤ķà¤ªà¤Ł": 2811,
      "Ġà¥§à¥¯à¥¦": 2812,
      "Ġà¤ıà¤ķà¤µà¤ļà¤¨": 2813,
      "Ġà¤ªà¤ŀ": 2814,
      "Ġà¤Ĩà¤ªà¤°": 2815,
      "Ġà¤ħà¤§à¤°": 2816,
      "Ġà¤¤à¤°à¤¯": 2817,
      "Ġà¥«à¥«": 2818,
      "Ġà¤µà¤¯à¤¤à¤²": 2819,
      "Ġà¤¶à¤ķà¤ļ": 2820,
      "Ġà¤¯à¤ľà¤®": 2821,
      "à¤·à¤ªà¤¦": 2822,
      "Ġà¤ĩà¤Ĺ": 2823,
      "Ġà¤Ńà¤°à¤Ńà¤°": 2824,
      "à¤īà¤ķà¤¤": 2825,
      "Ġà¤¸à¤°à¤ªà¤³": 2826,
      "Ġà¤®à¤ľà¤ķ": 2827,
      "à¤ĸà¤¯à¤¨": 2828,
      "à¤īà¤°à¤¤": 2829,
      "à¤®à¤¨à¤¸": 2830,
      "Ġà¤ªà¤³à¤¯à¤¤à¤¨": 2831,
      "à¥Ńà¥¨": 2832,
      "Ġà¤¬à¤°à¤¯à¤¤à¤¨": 2833,
      "Ġà¤¸à¤°à¤¤à¤²": 2834,
      "à¤¹à¤µà¤±": 2835,
      "à¤ªà¤Ĺ": 2836,
      "Ġà¤ľà¤Ĺà¤²": 2837,
      "Ġà¤¸à¤¦à¤¸": 2838,
      "à¤°à¤µà¤Ł": 2839,
      "à¥įà¤¿": 2840,
      "Ġà¤¸à¤°à¤¶": 2841,
      "à¤¹à¤£à¤¯": 2842,
      "à¤ªà¤¤à¤ķà¤ļ": 2843,
      "à¥¯à¥ª": 2844,
      "Ġà¥Ńà¥«": 2845,
      "Ġà¤¬à¤³à¤µ": 2846,
      "Ġà¤ĺà¤°à¤ķà¤¡": 2847,
      "à¥ĩà¤Ĥ..": 2848,
      "Ġà¥©à¥¨": 2849,
      "à¤ıà¤Ł": 2850,
      "à¥¬à¥§": 2851,
      "à¤īà¤¦à¤°à¤Ĺà¤¤": 2852,
      "à¤°à¤ªà¤°": 2853,
      "Ġà¤ıà¤°": 2854,
      "à¤²à¤µà¤£": 2855,
      "Ġà¤ħà¤°à¤µ": 2856,
      "Ġà¥ªà¥®": 2857,
      "Ġà¤¹à¤¤à¤¯": 2858,
      "Ġà¤¬à¤±à¤¯": 2859,
      "à¤²à¤¤à¤¨": 2860,
      "Ġà¤ĺà¤°à¤¦": 2861,
      "Ġà¤Ńà¤°à¤ļ": 2862,
      "à¤²à¤®à¤²": 2863,
      "Ġà¤®à¤ļ": 2864,
      "Ġà¤ļà¤µà¤¦": 2865,
      "Ġà¤¦à¤°à¤¯": 2866,
      "Ġà¤¸à¤¦à¤³": 2867,
      "Ġà¤ªà¤°à¤¨": 2868,
      "Ġà¤ľà¤¨à¤°à¤²": 2869,
      "à¤¤à¤ĸ": 2870,
      "à¤Ĺà¤³à¤¯": 2871,
      "Ġà¤ľà¤¨à¤ķ": 2872,
      "ar": 2873,
      "à¤°à¤³à¤ļ": 2874,
      "Ġà¤°à¤®à¤£": 2875,
      "Ġà¤īà¤ĺà¤¡": 2876,
      "à¤Ĺà¤£à¤ķ": 2877,
      "à¤¤à¤³à¤³": 2878,
      "Ġà¤¹à¤°à¤¦": 2879,
      "à¤®à¤ķà¤¤": 2880,
      "Ġà¤īà¤¡à¤²": 2881,
      "Ġà¤Ńà¤Ĺà¤µà¤¤": 2882,
      "à¤¶à¤ľ": 2883,
      "Ġà¤ķà¤¦à¤®": 2884,
      "à¤ĥ,": 2885,
      "à¤®à¤¤à¤¦": 2886,
      "Ġà¤®à¤¥": 2887,
      "à¤µà¤Ĺà¤¤": 2888,
      "à¤īà¤¶": 2889,
      "à¤¨à¤§": 2890,
      "Ġà¤Ĺà¤ª": 2891,
      "à¤¨à¤®à¤¸": 2892,
      "à¤Ĩà¤µà¤¯à¤ķ": 2893,
      "Ġà¥ªà¥¬": 2894,
      "Ġà¤ĸà¤Łà¤²": 2895,
      "Ġà¤ķà¤Łà¤ķà¤Ł": 2896,
      "à¤¡à¤¤à¤²": 2897,
      "à¤ľà¤¤à¤²": 2898,
      "à¤ľà¤µà¤³": 2899,
      "Ġà¤µà¤³à¤£": 2900,
      "à¤°à¤£à¤¯": 2901,
      "Ġà¤Ĩà¤ľà¤ļ": 2902,
      "Ġà¤ħà¤¹à¤µ": 2903,
      "Ġà¤ĩà¤«": 2904,
      "Ġà¤īà¤¡à¤¯à¤¤à¤²": 2905,
      "à¥«à¥©": 2906,
      "à¤Ĺà¤ł": 2907,
      "Ġà¤®à¤Ł": 2908,
      "à¤ĸà¤¯à¤¤à¤²": 2909,
      "Ġà¤¹à¤³à¤¶": 2910,
      "à¥¯à¥¬": 2911,
      "Ġà¤§à¤¡à¤ªà¤¡": 2912,
      "à¤¯à¤µà¤¤": 2913,
      "à¤·à¤µ": 2914,
      "à¥®à¥¨": 2915,
      "à¤¡à¤ļà¤¡": 2916,
      "à¤¯à¤Łà¤°": 2917,
      "Ġà¤ķà¤°à¤µ": 2918,
      "à¤ĩà¤ľ": 2919,
      "à¤ĸà¤£à¤¦": 2920,
      "Ġà¤ĺà¤Łà¤¸": 2921,
      "à¤īà¤¸à¤ķ": 2922,
      "à¤¬à¤®": 2923,
      "Ġà¤Ĩà¤¸à¤°": 2924,
      "à¤°à¤¸à¤°": 2925,
      "à¥«à¥«à¥«à¥«": 2926,
      "Ġà¤«à¤£": 2927,
      "Ġà¥ªà¥©": 2928,
      "à¤¦à¤±": 2929,
      "à¤¶à¤ķà¤¨": 2930,
      "à¤°à¤ľà¤¨": 2931,
      "à¤ķà¤ªà¤²": 2932,
      "Ġà¤¹à¤°à¤¯": 2933,
      "à¤ĭà¤¤": 2934,
      "Ġà¤ķà¤¡à¤¸": 2935,
      "à¤¬à¤°à¤¯": 2936,
      "Ġà¤ĩà¤¦": 2937,
      "Ġà¤®à¤¨à¤¯à¤²": 2938,
      "Ġà¥ªà¥ª": 2939,
      "à¤ļà¤ĸ": 2940,
      "à¤¸à¤¤à¤ķ": 2941,
      "à¤ļà¤²à¤ª": 2942,
      "à¤¹à¤®à¤£": 2943,
      "à¤ĩà¤°": 2944,
      "Ġà¤µà¤£à¤¤": 2945,
      "Ġà¤īà¤ĸ": 2946,
      "à¤¹à¤ª": 2947,
      "à¥«à¥§": 2948,
      "Ġà¤Ńà¤°à¤¨": 2949,
      "Ġà¤ªà¤Łà¤¨": 2950,
      "Ġà¤¬à¤¸à¤¯à¤¤": 2951,
      "à¤¯à¤Ŀ": 2952,
      "à¤¸à¤¬à¤°": 2953,
      "Ġà¤²à¤®": 2954,
      "Ġà¥ªà¥§": 2955,
      "à¤¯à¤ĸ": 2956,
      "à¤µà¤Ĺà¤¡": 2957,
      "à¥®à¥ª": 2958,
      "Ġà¤ķà¤¬à¤²": 2959,
      "Ġà¤¦à¤¦": 2960,
      "à¤Ńà¤°à¤²": 2961,
      "Ġà¤Ĩà¤°à¤®": 2962,
      "Ġà¤Ĩà¤³à¤¶": 2963,
      "Ġà¤²à¤¶": 2964,
      "Ġà¥¥.,": 2965,
      "à¤¨à¤¸à¤¶": 2966,
      "à¤¯à¤®à¤¯": 2967,
      "à¤¤à¤°à¤®": 2968,
      "Ġà¥¯à¥¦": 2969,
      "Ġà¤Ĩà¤¯à¤°": 2970,
      "à¥Ĥà¤ģ,": 2971,
      "à¤¼à¥ĭà¤Ĥ": 2972,
      "Ġà¥©à¥¯": 2973,
      "à¤¡à¤µà¤£": 2974,
      "Ġà¤ĸà¤ļ": 2975,
      "à¤Ĺà¤¡à¤µ": 2976,
      "à¤Ĺà¤µà¤²": 2977,
      "à¤īà¤²à¤¯à¤²": 2978,
      "Ġà¤Ĭà¤ªà¤°": 2979,
      "Ġà¤ľà¤Ĺà¤¦": 2980,
      "à¥¬à¥©": 2981,
      "à¤¨à¤¯à¤¨": 2982,
      "Ġà¤Ńà¤°à¤£": 2983,
      "Ġà¤¤à¤°à¤¤à¤°": 2984,
      "Ġà¤Ĩà¤ı": 2985,
      "Ġà¤ļà¤Ł": 2986,
      "à¤°à¤¹à¤®": 2987,
      "Ġà¤ªà¤¬": 2988,
      "Ġà¤ķà¤°à¤¶": 2989,
      "...!": 2990,
      "Ġà¥ªà¥¯": 2991,
      "Ġà¤ħà¤ªà¤µ": 2992,
      "à¤¤à¤°à¤¤": 2993,
      "à¤®à¤Ńà¤°": 2994,
      "à¤ªà¤¦à¤°": 2995,
      "Ġà¤Ńà¤²à¤¤": 2996,
      "Ġà¤®à¤¹à¤°": 2997,
      "Ġà¤ħà¤ł": 2998,
      "Ġà¤¶à¤°à¤¦": 2999,
      "à¤Ĺà¤¦à¤ªà¤¤": 3000,
      "à¤ľà¤¤à¤¨": 3001,
      "Ġà¤ĵà¤³à¤ĸ": 3002,
      "Ġà¤ķà¤µà¤¯": 3003,
      "à¤¸à¤µà¤³": 3004,
      "à¤µà¤¨à¤¸": 3005,
      "à¤²à¤¹": 3006,
      "Ġà¤ªà¤°à¤¥": 3007,
      "à¤®à¤¥": 3008,
      "à¤īà¤¡à¤¯à¤²": 3009,
      "...?": 3010,
      "à¤Ĺà¤Ĺ": 3011,
      "à¤¶à¤Ł": 3012,
      "à¤łà¤Ńà¤°": 3013,
      "à¤ķà¤¯à¤¤à¤²": 3014,
      "à¤®à¤ªà¤¦": 3015,
      "à¥įà¥ĥ": 3016,
      "à¤¦à¤ªà¤£": 3017,
      "Ġà¤®à¤²à¤¬": 3018,
      "à¤§à¤°à¤²": 3019,
      "Ġà¤ľà¤²à¤®": 3020,
      "à¥®à¥¬": 3021,
      "à¤ŀà¤¤": 3022,
      "à¤ħà¤¸à¤¤": 3023,
      "Ġà¤Ĩà¤¡à¤¨": 3024,
      "à¤īà¤Ł": 3025,
      "à¤²à¤¤à¤¡à¤ļ": 3026,
      "Ġà¤ĵà¤¢": 3027,
      "Ġà¤ıà¤µà¤¢": 3028,
      "Ġà¤ªà¤¯à¤ķ": 3029,
      "Ġà¤ķà¤£à¤¸": 3030,
      "Ġà¥«à¥Ń": 3031,
      "Ġà¤¸à¤£à¤¸à¤£": 3032,
      "à¤¯à¤¦à¤°": 3033,
      "Ġà¤¦à¤¶à¤ķ": 3034,
      "Ġà¤°à¤ļà¤ª": 3035,
      "à¤ªà¤¬": 3036,
      "Ġà¤®à¤®à¤¤": 3037,
      "Ġà¤ĸà¤¬": 3038,
      "à¥®à¥¯": 3039,
      "à¤®à¤ķà¤³": 3040,
      "à¤ķà¤µà¤¨": 3041,
      "à¤ļà¤³": 3042,
      "à¤¦à¤¯à¤¤": 3043,
      "Ġà¤īà¤¡à¤ª": 3044,
      "à¤ķà¤¤à¤¨": 3045,
      "à¥Īà¤ģ": 3046,
      "à¤°à¤ľà¤¤": 3047,
      "à¤·à¤£à¤®": 3048,
      "à¥ģà¤Ĥ.": 3049,
      "à¤ıà¤ĸ": 3050,
      "Ġà¤ħà¤Ĺà¤¦": 3051,
      "à¤īà¤Ĺ": 3052,
      "à¤ĩà¤¬": 3053,
      "Ġà¤¨à¤ķà¤²": 3054,
      "à¥®à¥«": 3055,
      "à¤°à¤¤à¤ķ": 3056,
      "à¤°à¤£à¤®": 3057,
      "à¤³à¤Łà¤ķà¤ļ": 3058,
      "Ġà¤ľà¤¯à¤µ": 3059,
      "Ġà¤²à¤¸": 3060,
      "Ġà¤ĺà¤¸": 3061,
      "Ġà¤ļà¤Łà¤°": 3062,
      "à¤Ĩà¤Ł": 3063,
      "Ġà¤ĩà¤¥": 3064,
      "Ġà¤ªà¤¸à¤°à¤ķ": 3065,
      "Ġà¤ªà¤³à¤¯à¤¤à¤ķà¤ļ": 3066,
      "à¥Ńà¥©": 3067,
      "à¥Ńà¥¯": 3068,
      "Ġà¤¸à¤¹à¤Ń": 3069,
      "Ġà¤ķà¤µà¤¤": 3070,
      "Ġà¤ĺà¤¡à¤Łà¤²": 3071,
      "Ġà¥ªà¥¨": 3072,
      "Ġà¤ħà¤²à¤Ĺ": 3073,
      "à¤Ĩà¤µà¤¯à¤¬": 3074,
      "à¤Ńà¤°à¤ª": 3075,
      "à¤ªà¤ı": 3076,
      "à¤ķà¤³à¤¯": 3077,
      "Ġà¤¬à¤¡à¤¬": 3078,
      "Ġà¤§à¤°à¤¤à¤°": 3079,
      "à¤Ńà¤¨": 3080,
      "Ġà¥¨à¥¦à¥¦à¥¦": 3081,
      "à¤¿?": 3082,
      "à¤¯à¤ªà¤°": 3083,
      "à¤µà¤³à¤¯": 3084,
      "Ġà¤²à¤ĸà¤¨": 3085,
      "à¤ªà¤°à¤®à¤³": 3086,
      "à¥®à¥©": 3087,
      "Ġà¤ľà¤¯à¤¤": 3088,
      "à¤µà¤¡à¤°": 3089,
      "à¤·à¤Ĺ": 3090,
      "Ġà¤Ĳà¤¨": 3091,
      "Ġà¤ħà¤µà¤°": 3092,
      "à¥¬à¥¯": 3093,
      "Ġà¤ħà¤Ńà¤¯": 3094,
      "à¤¸à¤µà¤¡": 3095,
      "à¥ģà¥į": 3096,
      "Ġà¤ıà¤ķà¤¯": 3097,
      "à¤¡à¤¯à¤¤à¤²": 3098,
      "à¤¤à¤µà¤¤": 3099,
      "à¤Ńà¤ľà¤¨": 3100,
      "à¤¥à¤ªà¤£": 3101,
      "Ġà¤¸à¤°à¤¯": 3102,
      "à¤Ńà¤µà¤¨": 3103,
      "à¤ķà¤ķà¤¥": 3104,
      "Ġà¤Ŀà¤Ĺà¤¡à¤Ł": 3105,
      "à¤¹à¤°à¤¨": 3106,
      "à¤¹à¤³à¤²": 3107,
      "Ġà¤«à¤Łà¤¯à¤²": 3108,
      "à¤Ĺà¤®à¤¨": 3109,
      "Ġà¤²à¤³": 3110,
      "à¤Ĩà¤³": 3111,
      "Ġà¤ħà¤¸à¤®": 3112,
      "Ġà¤ĺà¤¡à¤¨": 3113,
      "à¤¬à¤°à¤¯à¤¤": 3114,
      "à¥¨à¥¦à¥¦": 3115,
      "à¤ĳà¤ķ": 3116,
      "à¤¯à¤Ĺà¤°": 3117,
      "Ġà¤°à¤µà¤³": 3118,
      "Ġà¤®à¤¤à¤Ń": 3119,
      "Ġà¤§à¤¡à¤§": 3120,
      "à¥Ńà¥§": 3121,
      "à¥ĭ....": 3122,
      "Ġà¤ķà¤³à¤¶": 3123,
      "à¤Ĩà¤¯à¤ķà¤¤": 3124,
      "à¤Ĺà¤Ńà¤°": 3125,
      "à¤¨à¤°à¤®": 3126,
      "à¤¬à¤¸à¤ķ": 3127,
      "Ġà¤ħà¤¨à¤°": 3128,
      "Ġà¤¹à¤Łà¤ķ": 3129,
      "Ġà¤Ĩà¤¯à¤¸": 3130,
      "à¤ıà¤ķà¤¦à¤®": 3131,
      "Ġà¤¸à¤ķà¤¡": 3132,
      "Ġà¤ľà¤Ł": 3133,
      "à¤Ĩà¤¯à¤Ł": 3134,
      "Ġà¤ĸà¤³à¤ĸà¤³": 3135,
      "à¤¶à¤Ń": 3136,
      "Ġà¤Ŀà¤³à¤ķ": 3137,
      "à¤¡à¤ķà¤²": 3138,
      "à¤¨à¤½à¤¸": 3139,
      "Ġà¤¨à¤µà¤¨": 3140,
      "à¤°à¤¤à¤ļ": 3141,
      "à¤¸à¤®à¤¯": 3142,
      "à¤§à¤¨à¤¯": 3143,
      "à¤¦à¤¤à¤¨": 3144,
      "Ġà¤µà¤°à¤¤": 3145,
      "à¤īà¤ĸà¤²": 3146,
      "Ġà¤§à¤°à¤¤à¤²": 3147,
      "Ġà¤ķà¤¹à¤¨": 3148,
      "à¤¦à¤§": 3149,
      "à¤¸à¤°à¤³": 3150,
      "Ġà¤Ĩà¤²à¤®": 3151,
      "Ġà¤ħà¤ľà¤µ": 3152,
      "Ġà¥¬à¥Ń": 3153,
      "Ġà¤īà¤ķà¤²": 3154,
      "à¤µà¤ªà¤³": 3155,
      "Ġà¤½à¤½": 3156,
      "à¤°à¤¬à¤²": 3157,
      "Ġà¤¸à¤µà¤¸": 3158,
      "Ġà¤¤à¤³à¤®": 3159,
      "à¤¦à¤¹": 3160,
      "à¤¶à¤³": 3161,
      "Ġà¤¨à¤£": 3162,
      "à¤ªà¤¯à¤°": 3163,
      "Ġà¤¸à¤®à¤ľà¤£": 3164,
      "Ġà¤ĺà¤³": 3165,
      "à¤®à¤¨à¤°": 3166,
      "à¤ĵà¤°": 3167,
      "Ġà¤«à¤¡à¤«": 3168,
      "à¤°à¤¤à¤ķà¤ļ": 3169,
      "à¤«à¤°à¤ķ": 3170,
      "à¥¯à¥¨": 3171,
      "Ġà¤ķà¤¡à¤µ": 3172,
      "Ġà¤®à¤°à¤¨": 3173,
      "à¤£à¤£": 3174,
      "Ġà¤µà¤¸à¤²": 3175,
      "à¥Ģ....": 3176,
      "à¤¹à¤³à¤¦": 3177,
      "à¥Ĳ": 3178,
      "à¤¤à¤µà¤¨": 3179,
      "à¤Ľà¤²": 3180,
      "Ġà¤¸à¤µà¤¤": 3181,
      "à¤³à¤µà¤²": 3182,
      "à¤Īà¤Ł": 3183,
      "à¤½à¤Ń": 3184,
      "à¤ķà¤¯à¤¨": 3185,
      "à¤¸à¤®à¤¨": 3186,
      "Ġà¤²à¤Ł": 3187,
      "Ġà¤īà¤¸à¤¸": 3188,
      "Ġà¤ĸà¤°à¤¸": 3189,
      "à¤łà¤¡": 3190,
      "à¤¹à¤¯à¤¶": 3191,
      "à¤ħà¤¡à¤ļà¤£": 3192,
      "à¤¹à¤¨à¤¤": 3193,
      "Ġà¤¨à¤ķà¤³à¤¤": 3194,
      "à¥Ĥ...": 3195,
      "Ġà¥«à¥¬": 3196,
      "Ġà¤ħà¤£à¤Ńà¤µà¤²": 3197,
      "à¤Ĩà¤¡à¤µ": 3198,
      "à¤Ĺà¤³à¤¸": 3199,
      "à¥®à¥§": 3200,
      "Ġà¤°à¤ĸà¤°à¤ĸ": 3201,
      "à¤¸à¤°à¤¦": 3202,
      "à¤ķà¤³à¤³": 3203,
      "à¤°à¤¹à¤¸": 3204,
      "Ġà¤¨à¤¬": 3205,
      "à¤ļà¤¬": 3206,
      "à¤Ńà¤³": 3207,
      "à¤¹à¤£à¤ķ": 3208,
      "Ġà¤®à¤¸à¤£": 3209,
      "à¤¦à¤°à¤¤": 3210,
      "à¤ħà¤Ł": 3211,
      "Ġà¤¸à¤³à¤¸à¤³": 3212,
      "à¤ķà¤³à¤Ł": 3213,
      "à¤Łà¤¤à¤ķ": 3214,
      "Ġà¤Ĺà¤¡à¤Ĺ": 3215,
      "Ġà¤§à¤µà¤³": 3216,
      "à¤ıà¤«": 3217,
      "Ġà¤Ĩà¤µà¤¯à¤²": 3218,
      "Ġà¤Ľà¤³": 3219,
      "Ġà¤īà¤łà¤¤": 3220,
      "à¤łà¤¶": 3221,
      "Ġà¤¬à¤³à¤¯": 3222,
      "Ġà¤ķà¤³à¤Łà¤ķà¤ļ": 3223,
      "à¤¸à¤®à¤ľà¤²": 3224,
      "à¤ķà¤²à¤ķ": 3225,
      "à¤Ĩà¤µà¤¡à¤Ł": 3226,
      "à¤Ĺà¤°à¤®": 3227,
      "Ġà¤ħà¤¨à¤¸": 3228,
      "Ġà¤¬à¤¦à¤¨": 3229,
      "à¤ĩà¤¡": 3230,
      "Ġà¤¸à¤µà¤°": 3231,
      "Ġà¥¬à¥§": 3232,
      "Ġà¤¸à¤µà¤²à¤¤": 3233,
      "Ġà¤µà¤³à¤ķ": 3234,
      "Ġà¤ķà¤¸à¤¬": 3235,
      "Ġà¤ªà¤ł": 3236,
      "à¤½à¤¹": 3237,
      "Ġà¥Ńà¥®": 3238,
      "Ġà¤¸à¤«à¤²": 3239,
      "Ġà¤ªà¤¡à¤¤à¤²": 3240,
      "Ġà¥«à¥§": 3241,
      "Ġà¤ļà¤³": 3242,
      "Ġà¤ħà¤¹à¤®à¤¦": 3243,
      "à¤ķà¤®à¤¤": 3244,
      "Ġà¤¤à¤¡à¤ķ": 3245,
      "Ġà¤ħà¤ªà¤£": 3246,
      "à¤¶à¤°à¤£": 3247,
      "Ġà¤īà¤¬à¤Ĺà¤£": 3248,
      "Ġà¤ħà¤ªà¤²": 3249,
      "à¤¥à¤ļ": 3250,
      "Ġà¥¬à¥«": 3251,
      "Ġà¥«à¥©": 3252,
      "Ġà¤¬à¤¸à¤µ": 3253,
      "à¥¯à¥©": 3254,
      "Ġà¤¨à¤ķà¤³à¤Ł": 3255,
      "Ġà¤ĭà¤Ĺ": 3256,
      "Ġà¤ľà¤³à¤¤": 3257,
      "Ġà¤ħà¤³à¤®": 3258,
      "Ġà¤Łà¤¨": 3259,
      "Ġà¤īà¤ľà¤³": 3260,
      "à¤Ŀà¤¸": 3261,
      "à¤¤à¤¬à¤°à¤ª": 3262,
      "à¤ıà¤¤": 3263,
      "Ġà¤¹à¤¦": 3264,
      "Ġà¤ķà¤°à¤¤à¤ķ": 3265,
      "à¤Ĭà¤³": 3266,
      "Ġà¤ªà¤µà¤¨": 3267,
      "Ġà¤²à¤Łà¤ķ": 3268,
      "à¤ŀà¤¯": 3269,
      "Ġà¤«à¤³à¤¦": 3270,
      "à¤¯à¤ªà¤¦": 3271,
      "à¤ķà¤«": 3272,
      "à¤¡à¤ĸ": 3273,
      "à¤Ńà¤®": 3274,
      "Ġà¤ĳà¤¨à¤²": 3275,
      "Ġà¤®à¤¨à¤®": 3276,
      "à¤¤à¤³à¤Ł": 3277,
      "Ġà¤¥à¤ķà¤²": 3278,
      "Ġà¤ķà¤µà¤ļ": 3279,
      "à¤ħà¤µà¤¤": 3280,
      "à¤µà¤ĺ": 3281,
      "à¤²à¤µà¤²": 3282,
      "Ġà¤¸à¤µà¤¯": 3283,
      "à¤Łà¤¬à¤³": 3284,
      "à¤Ĩà¤¸à¤¨": 3285,
      "à¤Łà¤°à¤¸": 3286,
      "à¤ĩà¤ª": 3287,
      "à¤µà¤¯à¤ķ": 3288,
      "à¤¶à¤Ńà¤°": 3289,
      "Ġà¤Ĺà¤Ĺà¤¨": 3290,
      "à¤°à¤µà¤¡": 3291,
      "Ġà¤Ĩà¤ľà¤µ": 3292,
      "Ġà¤ķà¤¯": 3293,
      "Ġà¤®à¤¨à¤°": 3294,
      "à¤ľà¤¨à¤¤": 3295,
      "à¤¤à¤°à¤µ": 3296,
      "Ġà¤¬à¤°à¤¸": 3297,
      "à¤¤à¤µà¤£": 3298,
      "Ġà¤®à¤Łà¤ķ": 3299,
      "Ġà¤Ŀà¤¡à¤Ł": 3300,
      "à¤¨à¤®à¤¨": 3301,
      "Ġà¤¨à¤¸à¤²": 3302,
      "Ġà¤ĸà¤ľ": 3303,
      "à¤ħà¤°à¤®": 3304,
      "à¥¦à¥¦à¥¦à¥¦à¥¦à¥¦à¥¦à¥¦à¥¦à¥¦à¥¦à¥¦à¥¦à¥¦à¥¦à¥¦": 3305,
      "à¤µà¤ĸ": 3306,
      "Ġà¥¬à¥©": 3307,
      "Ġà¤ªà¤£à¤Ł": 3308,
      "Ġà¥®à¥«": 3309,
      "à¤·à¤Ł": 3310,
      "Ġà¤¬à¤°à¤¯à¤¤à¤²": 3311,
      "à¤¿à¤Ĥ,": 3312,
      "à¤®à¤ªà¤°": 3313,
      "à¤½à¤¯": 3314,
      "à¤Ĭà¤²": 3315,
      "Ġà¤ªà¤¯à¤£": 3316,
      "à¤łà¤ª": 3317,
      "Ġà¤Ĩà¤«à¤¯à¤²": 3318,
      "à¤ªà¤¦à¤µ": 3319,
      "Ġà¤µà¤¡à¤¯à¤¤": 3320,
      "Ġà¤Ńà¤°à¤¸à¤²": 3321,
      "Ġà¥¯à¥®": 3322,
      "à¤¡à¤¡": 3323,
      "à¥įà¥ĩ": 3324,
      "à¥ħà¤Ĥ": 3325,
      "Ġà¤Ĩà¤¡à¤¨à¤¦à¤°": 3326,
      "à¤ľà¤¨à¤ķ": 3327,
      "à¤µà¤¯à¤¨": 3328,
      "Ġà¤ĺà¤®à¤ĺà¤®": 3329,
      "Ġà¤µà¤Ŀ": 3330,
      "Ġà¤²à¤ļ": 3331,
      "Ġà¤Ĺà¤³à¤Ł": 3332,
      "Ġà¤ªà¤³à¤¤": 3333,
      "à¤¸à¤¹à¤¸": 3334,
      "à¤ľà¤ĺà¤°": 3335,
      "Ġà¤²à¤¬": 3336,
      "à¤Ĩà¤ľà¤¯": 3337,
      "à¤īà¤ªà¤¨": 3338,
      "à¤®à¤Łà¤®": 3339,
      "Ġà¤ĸà¤Ĺ": 3340,
      "à¥§à¥¦à¥¦": 3341,
      "Ġà¤Ńà¤Ĺà¤µà¤¨": 3342,
      "Ġà¤¸à¤°à¤µ": 3343,
      "Ġà¤¸à¤®à¤ľà¤¤à¤²": 3344,
      "à¥įà¥ģ": 3345,
      "Ġà¤°à¤ĸà¤¨": 3346,
      "Ġà¤¡à¤°": 3347,
      "Ġà¤ĸà¤°à¤¶": 3348,
      "à¤ļà¤Ĺ": 3349,
      "à¤µà¤±": 3350,
      "à¤ªà¤ľ": 3351,
      "à¤¬à¤¸à¤ª": 3352,
      "Ġà¤īà¤Ĺà¤®": 3353,
      "à¤ĺà¤³": 3354,
      "à¤īà¤¦à¤¯": 3355,
      "à¤³à¤ľà¤¬à¤°": 3356,
      "Ġà¤¥à¤°à¤²": 3357,
      "ha": 3358,
      "à¤¸à¤¤à¤°": 3359,
      "Ġà¤¬à¤¤à¤²": 3360,
      "à¤Ĩà¤Īà¤¨": 3361,
      "Ġà¤Ŀà¤ª": 3362,
      "à¤¯à¤¨à¤¶": 3363,
      "Ġà¤īà¤łà¤¯à¤²": 3364,
      "à¤¹à¤¨à¤¦": 3365,
      "Ġà¤ļà¤ķà¤ļà¤ķà¤¤": 3366,
      "Ġà¤ĩà¤¸à¤®": 3367,
      "Ġà¤īà¤ªà¤Ń": 3368,
      "Ġà¤¨à¤µà¤²à¤ķà¤¥": 3369,
      "Ġà¤¦à¤¡": 3370,
      "Ġà¥¨à¥¦à¥§à¥ª": 3371,
      "à¤ĩà¤¦": 3372,
      "à¤®à¤°à¤¤": 3373,
      "à¤ĩà¤µ": 3374,
      "à¤®à¤ķà¤°": 3375,
      "Ġà¤²à¤ĸà¤²": 3376,
      "Ġà¤¤à¤°à¤«": 3377,
      "Ġà¤ªà¤°à¤µà¤¡": 3378,
      "Ġà¤ĺà¤¶": 3379,
      "à¤µà¤¯à¤¤à¤²": 3380,
      "à¤Ńà¤Ĺà¤¤": 3381,
      "Ġà¤īà¤ªà¤ľ": 3382,
      "Ġà¤ªà¤³à¤³": 3383,
      "à¤īà¤łà¤²": 3384,
      "à¤ħà¤¨à¤¨": 3385,
      "Ġà¥«à¥¨": 3386,
      "à¤¦à¤¡": 3387,
      "Ġ......": 3388,
      "à¤ªà¤ķà¤²": 3389,
      "Ġà¤Ĩà¤·": 3390,
      "à¤Ĭà¤ķ": 3391,
      "à¤ļà¤ķà¤ļ": 3392,
      "Ġà¤ĺà¤°à¤Ĺ": 3393,
      "à¤¤à¤Ł": 3394,
      "à¤¦à¤°à¤¬": 3395,
      "à¤ıà¤¡": 3396,
      "Ġà¤ķà¤²à¤ķà¤²": 3397,
      "Ġà¤§à¤¡à¤§à¤¡": 3398,
      "Ġà¤īà¤ªà¤¹": 3399,
      "Ġà¤«à¤¡à¤«à¤¡": 3400,
      "Ġà¤ľà¤®à¤ļ": 3401,
      "à¤ķà¤³à¤¤": 3402,
      "Ġà¤Ĩà¤ªà¤¤": 3403,
      "Ġà¤ıà¤ķà¤¡": 3404,
      "Ġà¥Ńà¥©": 3405,
      "à¤¤à¤ķà¤¡": 3406,
      "à¤¯à¤¬à¤°": 3407,
      "Ġà¤ļà¤¡à¤ķà¤°": 3408,
      "Ġà¤Ńà¤°à¤¤à¤²": 3409,
      "Ġà¤Īà¤¸": 3410,
      "Ġà¤¤à¤Łà¤¸": 3411,
      "Ġà¤ıà¤ķà¤ıà¤ķ": 3412,
      "à¤ķà¤°à¤®": 3413,
      "Ġà¤¹à¤³à¤°": 3414,
      "Ġà¤¤à¤¡à¤ľ": 3415,
      "Ġà¤ĸà¤¯à¤ļ": 3416,
      "à¤¿!": 3417,
      "à¤¤à¤ķà¤¥": 3418,
      "à¤µà¤¦à¤¤": 3419,
      "Ġà¤¦à¤¡à¤ķ": 3420,
      "Ġà¥«à¥ª": 3421,
      "à¤·à¤¶": 3422,
      "Ġà¤ħà¤µà¤Ĺ": 3423,
      "à¤µà¤·": 3424,
      "Ġà¤Ńà¤Łà¤®": 3425,
      "Ġà¥¨à¥¦à¥¦à¥¯": 3426,
      "à¤ļà¤µà¤°": 3427,
      "à¤®à¤²à¤¯": 3428,
      "Ġà¤¹à¤ª": 3429,
      "à¤¸à¤®à¤ľà¤¤": 3430,
      "Ġà¤Ŀà¤Ĺà¤Ŀà¤Ĺ": 3431,
      "à¤³à¤Łà¤ķ": 3432,
      "à¥ĩà¤Ĥ....": 3433,
      "Ġà¤ľà¤Ĺà¤ļ": 3434,
      "Ġà¤¨à¤Ń": 3435,
      "Ġà¤Ńà¤¤": 3436,
      "à¤ĸà¤°à¤¦": 3437,
      "Ġà¤ªà¤¡à¤Łà¤ķà¤ļ": 3438,
      "Ġà¤¦à¤¸à¤°": 3439,
      "à¤Ĩà¤ķà¤°": 3440,
      "Ġà¤īà¤¦à¤°": 3441,
      "à¤°à¤®à¤°": 3442,
      "Ġà¤Ĩà¤¡à¤ķ": 3443,
      "Ġà¤¸à¤¬à¤¸": 3444,
      "à¤¨à¤¤à¤²": 3445,
      "à¤ħà¤¦à¤®": 3446,
      "Ġà¤µà¤¯à¤ļ": 3447,
      "Ġà¤īà¤ªà¤ķà¤°à¤£": 3448,
      "Ġà¥«à¥¯": 3449,
      "à¤ľà¤ľ": 3450,
      "Ġà¤ħà¤ľà¤¯": 3451,
      "Ġà¤ħà¤¨à¤µ": 3452,
      "à¤§à¤°à¤¤": 3453,
      "Ġà¤īà¤®à¤¥": 3454,
      "à¤ľà¤¯à¤¨à¤Ĺà¤°": 3455,
      "à¤¤à¤ªà¤¸": 3456,
      "Ġà¤Ŀà¤Ĺà¤¡à¤ª": 3457,
      "à¤ĭà¤·": 3458,
      "à¤§à¤ļ": 3459,
      "à¤·à¤ļ": 3460,
      "à¥īà¤ģ": 3461,
      "à¤ĩà¤Ĺà¤°": 3462,
      "Ġà¤ľà¤¨à¤®": 3463,
      "Ġà¤ĭà¤£": 3464,
      "à¤µà¤¸à¤¤": 3465,
      "Ġà¤£à¤µà¤µ": 3466,
      "Ġà¤¸à¤°à¤£": 3467,
      "à¤¡à¤Łà¤ķà¤ļ": 3468,
      "Ġà¤ħà¤Ĺà¤¤": 3469,
      "à¤ľà¤ķà¤¨": 3470,
      "Ġà¤Ĭà¤¬": 3471,
      "à¤Ĺà¤±": 3472,
      "à¤Łà¤®à¤¨": 3473,
      "Ġà¤¨à¤Ī": 3474,
      "Ġà¤īà¤¸à¤®": 3475,
      "Ġà¤ıà¤ķà¤¶": 3476,
      "Ġà¤Ĩà¤Ĺà¤¶": 3477,
      "à¤ªà¤¡à¤ªà¤Ł": 3478,
      "Ġà¤ľà¤¯à¤¦": 3479,
      "Ġà¤ĳà¤«à¤¸": 3480,
      "à¤¸à¤¹à¤ķ": 3481,
      "à¤ªà¤¤à¤¨": 3482,
      "à¤®à¤ªà¤£": 3483,
      "Ġà¤Ĩà¤Ĺà¤°": 3484,
      "à¥įà¥Ģ": 3485,
      "à¤Łà¤¶": 3486,
      "à¤¸à¤ķà¤¤": 3487,
      "à¤ľà¤Ĺà¤¤": 3488,
      "Ġà¤Ĩà¤¯à¤ľà¤µ": 3489,
      "à¤ĳà¤²": 3490,
      "Ġà¤¬à¤£": 3491,
      "à¤¡à¤£à¤ķ": 3492,
      "à¤¤à¤°à¤Ļ": 3493,
      "Ġà¥®à¥©": 3494,
      "à¤£à¤¯à¤²": 3495,
      "à¤ľà¤Ĺà¤ª": 3496,
      "Ġà¤ħà¤²à¤ķ": 3497,
      "Ġà¤ĸà¤±à¤¯": 3498,
      "à¤µà¤°à¤®": 3499,
      "Ġà¤¤à¤°à¤¤": 3500,
      "à¤¸à¤®à¤Ł": 3501,
      "à¤Īà¤¤": 3502,
      "Ġà¤Ĩà¤¡à¤¸à¤°": 3503,
      "à¤¬à¤¤à¤£à¤ļ": 3504,
      "Ġà¥®à¥Ń": 3505,
      "Ġà¤Ĩà¤µà¤ķ": 3506,
      "à¤Ĭà¤ļ": 3507,
      "à¤£à¤ķà¤°": 3508,
      "à¥¯à¥§": 3509,
      "à¥Ńà¥Ńà¥Ńà¥Ń": 3510,
      "Ġà¤¸à¤®à¤ľà¤ª": 3511,
      "à¤Ńà¤°à¤µà¤£": 3512,
      "à¤Īà¤ľ": 3513,
      "Ġà¤¤à¤ļ": 3514,
      "à¤ªà¤¤à¤ķ": 3515,
      "à¤¤à¤³à¤¯": 3516,
      "Ġà¤Ĩà¤µà¤¡à¤¤": 3517,
      "Ġà¤°à¤¡à¤ķ": 3518,
      "Ġà¤ªà¤³à¤µ": 3519,
      "à¤µà¤ļà¤ļ": 3520,
      "à¤ıà¤¦": 3521,
      "à¤ĩà¤¤à¤ķ": 3522,
      "à¤²à¤«": 3523,
      "à¤īà¤ªà¤¦": 3524,
      "à¤Ĩà¤¯à¤¦à¤¨": 3525,
      "Ġà¥Ńà¥ª": 3526,
      "à¤Łà¤¡": 3527,
      "Ġà¤ĳà¤¨": 3528,
      "Ġà¥®à¥¬": 3529,
      "à¤³à¤µà¤£à¤¦": 3530,
      "Ġà¤ªà¤°à¤ľ": 3531,
      "à¤µà¤¡à¤£": 3532,
      "à¤²à¤ĺ": 3533,
      "à¤ĺà¤ª": 3534,
      "à¤µà¤³à¤Ł": 3535,
      "à¤µà¤³à¤ĸà¤¤": 3536,
      "Ġà¤¸à¤ķà¤³": 3537,
      "à¤īà¤²à¤¯": 3538,
      "à¤µà¤¸à¤¨": 3539,
      "à¤½à¤°": 3540,
      "Ġà¤Ĩà¤«à¤¡": 3541,
      "à¤¤à¤³à¤ª": 3542,
      "à¤£à¤¯à¤¤": 3543,
      "Ġà¤Ĺà¤¹à¤¨": 3544,
      "Ġà¤ĺà¤°à¤Ńà¤°": 3545,
      "Ġà¥Ńà¥§": 3546,
      "à¤ħà¤·": 3547,
      "à¤ĵà¤¨": 3548,
      "à¤ħà¤¥à¤µ": 3549,
      "Ġà¤ĵà¤¸": 3550,
      "Ġà¤łà¤°à¤²": 3551,
      "Ġà¥«à¥®": 3552,
      "Ġà¤¬à¤²à¤°": 3553,
      "Ġà¤°à¤ļà¤¤": 3554,
      "Ġà¤ļà¤®à¤ļ": 3555,
      "Ġà¤ĵà¤¤à¤²": 3556,
      "Ġà¤¬à¤¸à¤¯": 3557,
      "Ġà¥¬à¥ª": 3558,
      "à¤Łà¤ľ": 3559,
      "à¤³à¤¡": 3560,
      "Ġà¤ļà¤°à¤¬": 3561,
      "Ġà¤Ŀà¤ķ": 3562,
      "Ġà¤¸à¤®à¤Ŀà¤¤": 3563,
      "Ġà¤°à¤¤à¤¨": 3564,
      "à¤Ńà¤°à¤£": 3565,
      "à¤¤à¤¸à¤°": 3566,
      "à¤¸à¤¦à¤ļ": 3567,
      "à¤ĳà¤Ĺà¤¸": 3568,
      "à¤ļà¤ķà¤¡": 3569,
      "Ġà¤¯à¤¨": 3570,
      "à¤ħà¤łà¤°": 3571,
      "Ġà¤®à¤¨à¤¨": 3572,
      "Ġà¤¤à¤¹": 3573,
      "à¤¹à¤±à¤¯": 3574,
      "Ġà¤Ĩà¤ªà¤Łà¤²": 3575,
      "à¤°à¤ķà¤µ": 3576,
      "à¤µà¤®à¤¤": 3577,
      "à¤ªà¤ķà¤¤": 3578,
      "Ġà¤°à¤¬à¤°": 3579,
      "Ġà¤Ĩà¤¡à¤ĸ": 3580,
      "à¤¯à¤°à¤¤": 3581,
      "à¤¤à¤ªà¤¤": 3582,
      "à¤¯à¤¬à¤²": 3583,
      "à¤ķà¤Ī": 3584,
      "Ġà¤ļà¤µà¤ķ": 3585,
      "Ġà¤¤à¤³à¤µ": 3586,
      "Ġà¤Ĩà¤£à¤²": 3587,
      "Ġà¤Ĺà¤³à¤¯à¤¤": 3588,
      "Ġà¤Ĭà¤ł": 3589,
      "Ġà¥į": 3590,
      "Ġà¤°à¤¡à¤ļ": 3591,
      "à¤¨à¤«": 3592,
      "à¤£à¤§à¤°": 3593,
      "Ġà¤ĵà¤®": 3594,
      "Ġà¤¨à¤Ĺà¤°à¤¸": 3595,
      "à¤²à¤ªà¤¤": 3596,
      "Ġà¤ļà¤¯": 3597,
      "à¤ªà¤¸à¤°": 3598,
      "Ġà¤ªà¤¸à¤°à¤²": 3599,
      "à¤³à¤«": 3600,
      "Ġà¤Ĩà¤µà¤¯à¤¸": 3601,
      "à¤¤à¤®à¤¨": 3602,
      "à¤µà¤°à¤ķ": 3603,
      "Ġ??": 3604,
      "Ġà¤Ĺà¤ľà¤°": 3605,
      "Ġà¤¸à¤¹à¤®à¤¤": 3606,
      "Ġà¤«à¤Łà¤¯à¤¤": 3607,
      "à¤ĺà¤¡à¤Ł": 3608,
      "Ġà¤īà¤¤à¤°à¤²": 3609,
      "Ġà¤ĸà¤Łà¤ªà¤Ł": 3610,
      "à¤¨à¤ªà¤¦": 3611,
      "à¤µà¤£à¤ĸ": 3612,
      "Ġà¤Ńà¤ľà¤¤": 3613,
      "Ġà¤¯à¤ļ": 3614,
      "à¤®à¤ľà¤¤": 3615,
      "à¤ĩà¤ķà¤°": 3616,
      "Ġà¤ªà¤°à¤²": 3617,
      "à¤ªà¤£à¤¸": 3618,
      "Ġà¤®à¤µ": 3619,
      "Ġà¤Ńà¤°à¤Ĺ": 3620,
      "Ġà¤ªà¤¡à¤¦": 3621,
      "à¤®à¤²à¤ķ": 3622,
      "à¤°à¤®à¤ķ": 3623,
      "Ġà¤ķà¤«": 3624,
      "Ġà¤Łà¤°": 3625,
      "Ġà¥¬à¥¨": 3626,
      "à¤¦à¤¯à¤²": 3627,
      "Ġà¤ĩà¤¸à¤µ": 3628,
      "à¤°à¤§à¤°": 3629,
      "Ġà¤¹à¤¯à¤¨": 3630,
      "Ġà¤¯à¤°": 3631,
      "à¤ľà¤¨à¤¸à¤®": 3632,
      "à¤®à¤¦à¤¤": 3633,
      "Ġà¤µà¤ĸ": 3634,
      "Ġà¤¢à¤µà¤³": 3635,
      "à¤Ĥ...": 3636,
      "à¤ħà¤³": 3637,
      "Ġà¥®à¥ª": 3638,
      "Ġà¤¬à¤¨à¤µ": 3639,
      "à¤Ńà¤ª": 3640,
      "Ġà¤Ńà¤°à¤¶": 3641,
      "Ġà¤īà¤ªà¤¬": 3642,
      "Ġà¤ıà¤¶": 3643,
      "Ġà¥¬à¥¬": 3644,
      "Ġà¤°à¤¯": 3645,
      "Ġà¤ĵà¤¨": 3646,
      "Ġà¤°à¤¸à¤¤": 3647,
      "Ġà¤ĸà¤°à¤ª": 3648,
      "à¤īà¤¨à¤ķ": 3649,
      "à¤§à¤°à¤£": 3650,
      "à¤·à¤Ń": 3651,
      "Ġà¤ªà¤Łà¤ķ": 3652,
      "Ġà¤¬à¤³à¤ľà¤¬à¤°": 3653,
      "Ġà¤ªà¤²à¤¤à¤¡à¤ļ": 3654,
      "à¤łà¤£à¤ķ": 3655,
      "Ġà¤ľà¤¯à¤ª": 3656,
      "à¤ķà¤®à¤°": 3657,
      "Ġà¤®à¤ĸ": 3658,
      "Ġà¤¬à¤¨à¤¤": 3659,
      "Ġà¤ħà¤®à¤²": 3660,
      "à¤ªà¤¡à¤ļ": 3661,
      "Ġà¤īà¤łà¤¨": 3662,
      "à¤¨à¤°à¤ķ": 3663,
      "à¤ķà¤§": 3664,
      "Ġà¤ıà¤ķà¤¤à¤°": 3665,
      "Ġà¤ĩà¤¡": 3666,
      "à¤ļà¤Ń": 3667,
      "Ġà¤Ĺà¤µà¤³": 3668,
      "Ġà¤ıà¤ķà¤®à¤¤": 3669,
      "à¥ħ.": 3670,
      "à¤°à¤Ĺà¤²": 3671,
      "à¤°à¤ķà¤¡": 3672,
      "à¤ĳà¤¸": 3673,
      "à¤¥à¤Ĺ": 3674,
      "à¤¶à¤¨à¤ļ": 3675,
      "à¤¸à¤Ĺà¤³à¤¯": 3676,
      "à¤°à¤µà¤²": 3677,
      "Ġà¤Ĩà¤łà¤µà¤¡": 3678,
      "Ġà¤Ĩà¤°à¤ķ": 3679,
      "à¤Ĺà¤¸à¤°": 3680,
      "à¤½à¤¥": 3681,
      "Ġà¥®à¥§": 3682,
      "à¤ķà¤³à¤ķ": 3683,
      "Ġà¤īà¤¸à¤³à¤Ł": 3684,
      "Ġà¤ªà¤³à¤µà¤¤": 3685,
      "à¤ªà¤°à¤¶": 3686,
      "Ġà¤Ĩà¤µà¤Ł": 3687,
      "Ġà¤īà¤²à¤µà¤£": 3688,
      "à¤¸à¤¯à¤²": 3689,
      "à¤Ĺà¤¹": 3690,
      "à¤ķà¤£à¤ķà¤£": 3691,
      "Ġà¤ĩà¤¸à¤¸": 3692,
      "Ġà¤Ĩà¤Ĺà¤®à¤¨": 3693,
      "Ġà¥Ńà¥¬": 3694,
      "à¤ļà¤¬à¤°": 3695,
      "à¤¹à¤µà¤²": 3696,
      "à¤¹à¤Ĺà¤¡": 3697,
      "à¥§à¥§à¥¦": 3698,
      "Ġà¤¤à¤³à¤®à¤³à¤Ł": 3699,
      "Ġà¤µà¤¡à¤¯": 3700,
      "Ġà¤ħà¤¯à¤ķ": 3701,
      "à¤ļà¤²à¤¨": 3702,
      "Ġà¤Ĩà¤®à¤Ł": 3703,
      "à¤¦à¤°à¤ļ": 3704,
      "......": 3705,
      "Ġà¤¦à¤°à¤µà¤Ł": 3706,
      "à¥¤.": 3707,
      "à¤¨à¤£": 3708,
      "Ġà¤ĸà¤¦": 3709,
      "Ġà¤§à¤°à¤®": 3710,
      "à¤ªà¤°à¤¦": 3711,
      "à¤¡à¤ªà¤¡": 3712,
      "Ġà¤¬à¤¡à¤¬à¤¡à¤¤": 3713,
      "Ġà¤ĵà¤¤à¤¤": 3714,
      "Ġà¤Ĩà¤£à¤ĸ": 3715,
      "à¤²à¤Ŀ": 3716,
      "à¤µà¤¸à¤²": 3717,
      "à¤µà¤¨à¤µ": 3718,
      "Ġà¥¯à¥Ń": 3719,
      "Ġà¤¸à¤Ļ": 3720,
      "Ġà¤ļà¤°à¤¤": 3721,
      "à¤µà¤¤à¤°": 3722,
      "à¤¯à¤¤à¤ķ": 3723,
      "Ġà¤Ĩà¤®à¤²": 3724,
      "à¤¢à¤°à¤ª": 3725,
      "à¤ķà¤²à¤ķà¤¤": 3726,
      "à¤°à¤¸à¤¦": 3727,
      "à¤£à¤ĺ": 3728,
      "à¤³à¤Ń": 3729,
      "Ġà¥Ńà¥¨": 3730,
      "Ġà¤¬à¤°à¤¯à¤¨": 3731,
      "à¤®à¤¨à¤®": 3732,
      "Ġà¤īà¤Ĺà¤¡à¤Ł": 3733,
      "à¤¤à¤µà¤¡": 3734,
      "à¤¯à¤±à¤¯": 3735,
      "à¤ļà¤ķà¤³": 3736,
      "Ġà¤ħà¤ķà¤¬à¤°": 3737,
      "à¤¤à¤Ĩà¤ł": 3738,
      "Ġà¤Ĩà¤¡à¤¸": 3739,
      "Ġà¤Ĺà¤³à¤¯": 3740,
      "à¤µà¤Łà¤µ": 3741,
      "à¤¬à¤°à¤²": 3742,
      "à¤µà¤²à¤ķ": 3743,
      "Ġà¤ļà¤¡à¤¯à¤¤": 3744,
      "Ġà¤Ĩà¤¯à¤ķà¤ª": 3745,
      "Ġà¥¬à¥®": 3746,
      "Ġà¤īà¤³à¤¦": 3747,
      "Ġà¤¸à¤¬à¤ķ": 3748,
      "à¤ħà¤ªà¤®": 3749,
      "à¤ļà¤¦": 3750,
      "à¤ªà¤ŀ": 3751,
      "Ġà¤«à¤¸à¤²": 3752,
      "Ġà¤Ĩà¤ľà¤®": 3753,
      "à¤łà¤Ń": 3754,
      "à¤¹à¤£à¤Łà¤¨": 3755,
      "à¤ªà¤Ń": 3756,
      "à¤¶à¤³à¤Ł": 3757,
      "Ġà¤ľà¤¯à¤ľ": 3758,
      "Ġà¤ħà¤Ŀ": 3759,
      "Ġà¤°à¤Ĺà¤¡": 3760,
      "à¥ĭà¤Ĥ...": 3761,
      "à¥¦à¥Ń": 3762,
      "Ġà¤ħà¤µà¤®": 3763,
      "Ġà¤ķà¤°à¤¡": 3764,
      "à¤ıà¤°": 3765,
      "à¤¯à¤¸à¤®": 3766,
      "à¤µà¤ľà¤¤": 3767,
      "Ġà¤ĳà¤¡": 3768,
      "à¤¹à¤µà¤ª": 3769,
      "Ġà¤¨à¤°à¤¶": 3770,
      "Ġà¤Ĩà¤¸à¤²à¤²": 3771,
      "Ġà¤¨à¤µà¤¸": 3772,
      "Ġà¥§à¥¯à¥«à¥«": 3773,
      "Ġà¤®à¤ľà¤Ĺà¤¤à¤ļ": 3774,
      "à¤Łà¤°à¤µ": 3775,
      "à¤¬à¤ľà¤£": 3776,
      "Ġà¤°à¤£à¤®": 3777,
      "à¤Ĩà¤ªà¤¯à¤²": 3778,
      "à¤īà¤ªà¤¯": 3779,
      "Ġà¤ľà¤¨à¤¸": 3780,
      "Ġà¤ªà¤ļà¤¨": 3781,
      "à¤¦à¤ľ": 3782,
      "Ġà¤¥à¤°à¤¤": 3783,
      "à¤°à¤²à¤¯": 3784,
      "à¤µà¤¡à¤¯": 3785,
      "Ġà¤®à¤¦à¤°": 3786,
      "Ġà¤¸à¤¶à¤ķ": 3787,
      "à¤Ĺà¤£à¤¨": 3788,
      "Ġà¤ļà¤®à¤ķà¤¤": 3789,
      "à¤®à¤ªà¤¤": 3790,
      "à¤¬à¤¯à¤ķ": 3791,
      "Ġà¤ķà¤¸à¤°à¤¤": 3792,
      "Ġà¤īà¤Ĺà¤¡à¤ª": 3793,
      "à¤ĸà¤ªà¤£": 3794,
      "à¤¦à¤²à¤ļ": 3795,
      "à¤®à¤°à¤ª": 3796,
      "à¤¦à¤µà¤²": 3797,
      "à¤¶à¤ķà¤°": 3798,
      "à¤Łà¤¸à¤°": 3799,
      "Ġà¤°à¤ķà¤®": 3800,
      "à¤¾à¤¾": 3801,
      "à¤Ĩà¤µà¤¸": 3802,
      "Ġà¤«à¤¡à¤ķ": 3803,
      "Ġà¤Ńà¤¡": 3804,
      "à¤¡à¤Ńà¤°": 3805,
      "Ġà¤Ńà¤Łà¤ķ": 3806,
      "à¤ĸà¤¶": 3807,
      "à¥ĩ....": 3808,
      "à¤ªà¤¸à¤¤": 3809,
      "Ġà¤¨à¤ļ": 3810,
      "à¤¥à¤¡": 3811,
      "Ġà¤ĩà¤¯": 3812,
      "Ġà¤µà¤Ŀà¤°": 3813,
      "à¤§à¤¬": 3814,
      "à¤®à¤ķà¤³à¤Ł": 3815,
      "Ġà¤¬à¤¡à¤¯à¤¤": 3816,
      "ra": 3817,
      "à¥įà¥¥": 3818,
      "Ġà¥Ńà¥¯": 3819,
      "Ġà¤¸à¤ľà¤¯à¤²": 3820,
      "à¤¨à¤°à¤¸": 3821,
      "à¤ľà¤®à¤¹": 3822,
      "à¤¦à¤¨à¤ªà¤°": 3823,
      "à¤ªà¤°à¤¸à¤¯": 3824,
      "à¤¦à¤µà¤°à¤ļ": 3825,
      "à¥Ĥà¤Ĥ...": 3826,
      "à¤Ĩà¤Ĺà¤³": 3827,
      "à¤Ĩà¤ªà¤Ł": 3828,
      "à¤°à¤®à¤¸": 3829,
      "à¤ľà¤¨à¤®": 3830,
      "à¤ķà¤®à¤³": 3831,
      "Ġà¤¨à¤¡": 3832,
      "Ġà¤·à¤¡": 3833,
      "à¤®à¤µà¤°": 3834,
      "à¤®à¤ĺ": 3835,
      "à¤¤à¤°à¤¯": 3836,
      "Ġà¤Ĩà¤¯à¤ľà¤®": 3837,
      "Ġà¤¬à¤°à¤µà¤ª": 3838,
      "à¤ªà¤°à¤¤à¤²": 3839,
      "à¤°à¤®à¤²": 3840,
      "à¤°à¤ļà¤°": 3841,
      "à¤°à¤ĸà¤°": 3842,
      "à¤®à¤¸à¤®": 3843,
      "Ġà¤ħà¤¦à¤ķ": 3844,
      "à¤§à¤£": 3845,
      "Ġà¥¬à¥¯": 3846,
      "Ġà¤ħà¤µà¤¨": 3847,
      "Ġà¤ħà¤Ĺà¤¡": 3848,
      "Ġà¤īà¤®à¤³": 3849,
      "Ġà¤Ĩà¤Īà¤²": 3850,
      "à¤Ĩà¤¡à¤ĸà¤³": 3851,
      "à¤ªà¤²à¤¤à¤¡": 3852,
      "à¤ĩà¤¸à¤ķ": 3853,
      "à¥įà¥Ĥ": 3854,
      "à¤¸à¤ķà¤°": 3855,
      "Ġà¤°à¤¨": 3856,
      "à¤¹à¤£à¤¶": 3857,
      "à¤ģ,": 3858,
      "à¤¯à¤®à¤µà¤°": 3859,
      "Ġà¤²à¤ľà¤¤": 3860,
      "Ġà¤ĵà¤¹": 3861,
      "à¤ªà¤§": 3862,
      "Ġà¤¨à¤ķà¤¸": 3863,
      "Ġà¤ľà¤®à¤ª": 3864,
      "à¤³à¤¹": 3865,
      "Ġà¤īà¤²à¤Ĺà¤²": 3866,
      "Ġà¤īà¤łà¤ļ": 3867,
      "à¤¤à¤µà¤°": 3868,
      "à¤īà¤·": 3869,
      "Ġà¤ıà¤ķà¤ľ": 3870,
      "Ġà¤ĩà¤Łà¤²": 3871,
      "Ġà¤Ĩà¤¦à¤µ": 3872,
      "Ġà¤¤à¤¨à¤°": 3873,
      "Ġà¤ªà¤µà¤²": 3874,
      "à¤°à¤ļà¤£": 3875,
      "Ġà¤ħà¤£à¤Ńà¤µà¤¤": 3876,
      "à¤µà¤Ńà¤ķ": 3877,
      "à¤¸à¤³à¤Ł": 3878,
      "à¤Ĺà¤®à¤¦": 3879,
      "Ġà¤ĵà¤²à¤¸": 3880,
      "Ġà¤ľà¤¯à¤ľà¤¯à¤ķ": 3881,
      "Ġà¤ªà¤¡à¤Łà¤ķ": 3882,
      "à¤²à¤µà¤ľ": 3883,
      "Ġà¤®à¤¨à¤Ń": 3884,
      "à¤¯à¤µà¤¶": 3885,
      "à¤¡à¤«": 3886,
      "Ġà¤ķà¤²à¤µ": 3887,
      "Ġà¥¨à¥¦à¥¦à¥®": 3888,
      "Ġà¤Ĩà¤¸à¤®": 3889,
      "à¤Īà¤®": 3890,
      "à¤ĵà¤¤": 3891,
      "à¤¯à¤²à¤Ł": 3892,
      "à¤ķà¤³à¤ª": 3893,
      "Ġà¤²à¤¡à¤ķ": 3894,
      "à¤īà¤¡à¤¯à¤¤": 3895,
      "à¤µà¤¦à¤³": 3896,
      "à¤¸à¤ªà¤¤": 3897,
      "Ġà¤ªà¤°à¤ľà¤³": 3898,
      "à¤®à¤£à¤¦": 3899,
      "Ġà¤ķà¤¨à¤ķ": 3900,
      "à¤¬à¤¦à¤²à¤¤": 3901,
      "à¥¥à¥¥à¥¥à¥¥": 3902,
      "Ġà¤°à¤¸à¤°à¤¶": 3903,
      "à¤¸à¤¤à¤ķà¤ļ": 3904,
      "à¤¤à¤®à¤¸": 3905,
      "Ġà¤¬à¤¨à¤µà¤¡": 3906,
      "Ġà¤īà¤ĸà¤²à¤¤": 3907,
      "à¤²à¤µà¤¤": 3908,
      "à¤ķà¤°à¤ķ": 3909,
      "à¤µà¤¯à¤®": 3910,
      "??": 3911,
      "à¤īà¤ªà¤ļ": 3912,
      "à¤¸à¤·": 3913,
      "Ġà¤ĺà¤£à¤ĺà¤£": 3914,
      "à¤µà¤ªà¤°": 3915,
      "à¤¯à¤ķà¤¯": 3916,
      "Ġà¤ħà¤¨à¤Ń": 3917,
      "à¤°à¤®à¤µ": 3918,
      "à¤µà¤Łà¤ļ": 3919,
      "Ġà¤¬à¤¸à¤¸": 3920,
      "à¤ķà¤Łà¤°": 3921,
      "à¤ļà¤µà¤ķà¤¶": 3922,
      "à¤¾à¤Ĥ..": 3923,
      "Ġà¤¦à¤®à¤£": 3924,
      "Ġà¤ķà¤°à¤®": 3925,
      "à¤Ĩà¤ªà¤¸": 3926,
      "Ġà¤Ĩà¤¯à¤£": 3927,
      "à¤ıà¤Łà¤°": 3928,
      "Ġà¥¯à¥«": 3929,
      "à¤ĳà¤°": 3930,
      "Ġà¤ĸà¤£à¤ª": 3931,
      "Ġà¤ľà¤¯à¤®": 3932,
      "à¤¹à¤¯à¤®": 3933,
      "Ġà¤ķà¤³à¤Łà¤ķ": 3934,
      "Ġà¤Ĩà¤¦à¤³": 3935,
      "à¤¯à¤µà¤Ł": 3936,
      "Ġà¤°à¤¡à¤£": 3937,
      "Ġà¤ªà¤³à¤µà¤¨": 3938,
      "à¤ħà¤¨à¤µà¤³à¤ĸ": 3939,
      "Ġà¥®à¥¨": 3940,
      "Ġà¤¦à¤³à¤¦": 3941,
      "à¤ļà¤¤à¤ķà¤ļ": 3942,
      "à¤Ĭà¤°": 3943,
      "Ġà¤¸à¤³": 3944,
      "Ġà¤¥à¤¡": 3945,
      "à¤°à¤¸à¤®": 3946,
      "à¤īà¤®à¤³à¤¶": 3947,
      "Ġà¤¬à¤¦à¤²à¤¨": 3948,
      "à¤¹à¤£à¤Łà¤Ĺ": 3949,
      "à¤¬à¤§à¤¬": 3950,
      "à¤§à¤Ĺ": 3951,
      "à¤ªà¤°à¤¨": 3952,
      "Ġà¤ľà¤Ĺà¤¹": 3953,
      "à¥ĩà¥į": 3954,
      "Ġà¤ªà¤³à¤µà¤²": 3955,
      "à¤°à¤¬à¤³": 3956,
      "à¤¹à¤¯à¤¤": 3957,
      "à¤¶à¤¤à¤ķ": 3958,
      "à¤Ĩà¤łà¤µ": 3959,
      "Ġà¤®à¤¡à¤ķà¤¯": 3960,
      "à¤§à¤°à¤ª": 3961,
      "Ġà¥¥.": 3962,
      "Ġà¤īà¤ªà¤µ": 3963,
      "Ġà¤ķà¤³à¤¯à¤¤": 3964,
      "Ġà¤®à¤³à¤µ": 3965,
      "Ġà¤®à¤³à¤£": 3966,
      "à¤Ńà¤Ĺà¤µà¤¦": 3967,
      "à¤°à¤Ŀ": 3968,
      "à¤µà¤¨à¤®": 3969,
      "à¥īà¤Ĥ": 3970,
      "à¤Ĩà¤µà¤¯à¤¸": 3971,
      "à¤Ĺà¤°à¤¤": 3972,
      "à¤¶à¤¹": 3973,
      "Ġà¤īà¤łà¤Ł": 3974,
      "Ġà¤¦à¤«": 3975,
      "Ġà¤¨à¤³à¤¯": 3976,
      "à¥ĭà¤Ĥ!": 3977,
      "à¤¸à¤°à¤¤à¤²": 3978,
      "Ġà¥¯à¥¯à¥¯": 3979,
      "à¤¨à¤¸à¤¨": 3980,
      "à¤£à¤Ŀ": 3981,
      "Ġà¤°à¤ĸà¤¤": 3982,
      "Ġà¤Ĺà¤µà¤°": 3983,
      "Ġà¤ªà¤°à¤Ĺ": 3984,
      "Ġà¤ıà¤·": 3985,
      "à¤¯à¤Ĺà¤£": 3986,
      "à¤ľà¤±": 3987,
      "Ġà¤ĵà¤ľ": 3988,
      "à¤¬à¤¡à¤¤": 3989,
      "Ġà¤¦à¤Ĺ": 3990,
      "à¤Ŀà¤ª": 3991,
      "Ġà¤¡à¤ļ": 3992,
      "Ġà¥¦à¥¦à¥¦": 3993,
      "à¤°à¤¡à¤Ł": 3994,
      "à¤Ĺà¤ªà¤°": 3995,
      "Ġà¤§à¤Ĺà¤§": 3996,
      "à¤³à¤¸à¤°": 3997,
      "Ġà¤¬à¤ļà¤¤": 3998,
      "à¤ķà¤²à¤ª": 3999,
      "à¤¡à¤Łà¤ķ": 4000,
      "à¤µà¤¡à¤ķ": 4001,
      "Ġà¤Ĩà¤µà¤°à¤£": 4002,
      "à¤īà¤Ń": 4003,
      "à¥¦à¥«": 4004,
      "ch": 4005,
      "à¤¯à¤Ĺà¤¤": 4006,
      "Ġà¤µà¤ª": 4007,
      "Ġà¤¦à¤ª": 4008,
      "à¤¤à¤²à¤¬": 4009,
      "à¤¯à¤¸à¤Ń": 4010,
      "à¤ĵà¤¸": 4011,
      "Ġà¤ªà¤Ĺà¤¡": 4012,
      "Ġ,à¥¤": 4013,
      "Ġà¤ıà¤£": 4014,
      "Ġà¤®à¤ķà¤°": 4015,
      "à¤¡à¤²à¤¸": 4016,
      "à¤¦à¤¶à¤¹": 4017,
      "Ġà¤¬à¤®": 4018,
      "Ġà¤¯à¤®à¤¨": 4019,
      "à¤¸à¤°à¤¯": 4020,
      "Ġà¥¨à¥¦à¥¨à¥¨": 4021,
      "à¤ķà¤µà¤¤": 4022,
      "Ġà¤ħà¤ĺ": 4023,
      "Ġà¤Īà¤¨": 4024,
      "Ġà¤Ĺà¤³à¤¸à¤£": 4025,
      "à¤µà¤¯à¤ļ": 4026,
      "à¤ľà¤®à¤²": 4027,
      "Ġà¤ĸà¤µà¤³": 4028,
      "Ġà¤¸à¤¹à¤ľà¤ªà¤£": 4029,
      "Ġà¤¹à¤¡à¤ķ": 4030,
      "à¤Łà¤²à¤°": 4031,
      "à¤µà¤¸à¤®": 4032,
      "à¤¢à¤³": 4033,
      "à¤ĳà¤ªà¤°": 4034,
      "Ġà¤¸à¤°à¤¸à¤°": 4035,
      "à¤¨à¤ªà¤°": 4036,
      "Ġà¤®à¤ĸà¤°": 4037,
      "Ġà¤īà¤Łà¤²": 4038,
      "à¤¥à¤°à¤¥": 4039,
      "à¤³à¤¯à¤¤à¤²": 4040,
      "Ġà¤ķà¤°à¤ķà¤°": 4041,
      "Ġà¥®à¥®": 4042,
      "à¤¹à¤£à¤Łà¤ķà¤°": 4043,
      "Ġà¥§à¥¯à¥ªà¥Ń": 4044,
      "à¤µà¤ĺà¤°": 4045,
      "à¤īà¤ªà¤¸": 4046,
      "Ġà¤¬à¤¦à¤²à¤ļ": 4047,
      "à¥¯à¥¯à¥¯à¥¯à¥¯à¥¯à¥¯à¥¯": 4048,
      "à¤²à¤®à¤¨": 4049,
      "Ġà¤ħà¤Ĺà¤£": 4050,
      "à¤¹à¤°à¤¯": 4051,
      "Ġà¤ħà¤ľà¤°": 4052,
      "Ġà¥§à¥¯à¥ªà¥¬": 4053,
      "Ġà¥¯à¥ª": 4054,
      "Ġà¥®à¥¯": 4055,
      "à¤®à¤¦à¤°": 4056,
      "à¤ķà¤°à¤¬": 4057,
      "Ġà¤Ŀà¤Łà¤ķ": 4058,
      "Ġà¤Ŀà¤³à¤ķà¤¤": 4059,
      "Ġà¤Ĩà¤µà¤³": 4060,
      "à¤ľà¤¯à¤µ": 4061,
      "à¤¸à¤¤à¤¤": 4062,
      "Ġà¤µà¤°à¤Ńà¤°": 4063,
      "à¤Ŀà¤ķ": 4064,
      "Ġà¤¸à¤ķà¤Ł": 4065,
      "à¤®à¤°à¤¸": 4066,
      "Ġà¤¹à¤µà¤¨": 4067,
      "Ġà¤īà¤¦à¤¯à¤¬": 4068,
      "Ġà¤īà¤ªà¤ķà¤²à¤®": 4069,
      "ani": 4070,
      "à¤ªà¤µà¤¨": 4071,
      "Ġà¤ªà¤¸à¤¤": 4072,
      "Ġà¤ħà¤¯à¤²": 4073,
      "à¤¸à¤®à¤ľà¤¨": 4074,
      "Ġà¤Ńà¤¨": 4075,
      "Ġà¤ħà¤£à¤Ńà¤µà¤ª": 4076,
      "Ġà¤¬à¤¡à¤¬à¤¡à¤Ł": 4077,
      "à¤·à¤ªà¤£": 4078,
      "à¤µà¤¸à¤£": 4079,
      "Ġà¥§à¥«à¥¦": 4080,
      "Ġà¤ĩà¤¹": 4081,
      "à¤ıà¤ķà¤µà¤Ł": 4082,
      "Ġà¤ĵà¤¶": 4083,
      "ma": 4084,
      "à¤¯à¤¤à¤®": 4085,
      "à¤¢à¤£": 4086,
      "à¤ľà¤¯à¤¶": 4087,
      "Ġà¤ļà¤®à¤ķà¤²": 4088,
      "à¤®à¤¡à¤ķ": 4089,
      "Ġà¤¦à¤¸à¤±": 4090,
      "Ġà¤ĩà¤¨à¤®": 4091,
      "Ġà¤§à¤¡à¤ªà¤¡à¤Ł": 4092,
      "Ġà¤²à¤¹à¤°": 4093,
      "à¤Ĩà¤¶à¤¯": 4094,
      "à¤Ĺà¤²à¤²": 4095,
      "à¤®à¤¤à¤¤": 4096,
      "Ġà¤Ĩà¤µà¤¡à¤Łà¤²": 4097,
      "à¤¸à¤®à¤ķ": 4098,
      "Ġà¤°à¤®à¤¤": 4099,
      "Ġà¤ļà¤¯à¤²": 4100,
      "Ġà¤¸à¤®à¤°à¤¸": 4101,
      "Ġà¤ĳà¤ª": 4102,
      "à¤µà¤®à¤¨": 4103,
      "à¤¡à¤²à¤²": 4104,
      "Ġà¤®à¤¹à¤¸": 4105,
      "Ġà¤®à¤¡à¤µà¤³": 4106,
      "Ġà¥§à¥§à¥¦": 4107,
      "Ġà¤¬à¤Ń": 4108,
      "à¤¸à¤°à¤Ń": 4109,
      "Ġà¤ªà¤³à¤¯à¤¤à¤ķ": 4110,
      "Ġà¤°à¤£à¤ľ": 4111,
      "Ġà¤īà¤¬à¤Ĺà¤²": 4112,
      "Ġà¤Ľà¤ª": 4113,
      "à¤¸à¤µà¤ķ": 4114,
      "à¤ªà¤¯à¤¨": 4115,
      "Ġà¤Ĺà¤®à¤¨": 4116,
      "à¤ľà¤¨à¤¨": 4117,
      "à¤¢à¤ļ": 4118,
      "Ġà¤¬à¤¹à¤¨": 4119,
      "Ġà¤ļà¤¹": 4120,
      "Ġà¤²à¤Ĺà¤¨": 4121,
      "à¤¨à¤§à¤°": 4122,
      "Ġà¤¸à¤«à¤³": 4123,
      "Ġà¤ªà¤¸à¤±": 4124,
      "Ġà¤ĸà¤µ": 4125,
      "?...": 4126,
      "à¤²à¤¯à¤¨": 4127,
      "à¤¨à¤¸à¤°": 4128,
      "à¤ķà¤ħà¤ª": 4129,
      "à¤Ĺà¤¸à¤£": 4130,
      "à¤¦à¤¶à¤°à¤¥": 4131,
      "on": 4132,
      "Ġà¤®à¤Ĺà¤²": 4133,
      "à¤¶à¤³à¤¤": 4134,
      "à¤®à¤¦à¤Ĺ": 4135,
      "à¤®à¤Ĺà¤²": 4136,
      "à¤µà¤Ńà¤¯à¤£": 4137,
      "à¤µà¤¨à¤¸à¤¤": 4138,
      "Ġà¤īà¤²à¤µà¤ª": 4139,
      "à¤ĩà¤¤à¤°": 4140,
      "Ġà¤«à¤Łà¤µà¤£": 4141,
      "à¤¸à¤Ĺà¤Ł": 4142,
      "Ġà¤¤à¤µà¤¨": 4143,
      "Ġà¤ĵà¤ªà¤¨": 4144,
      "à¤°à¤¯à¤¤à¤¨": 4145,
      "Ġà¤Ĩà¤²à¤¤à¤¡": 4146,
      "Ġà¤ļà¤ªà¤ķ": 4147,
      "Ġà¤±": 4148,
      "Ġà¤Ńà¤°à¤µà¤£": 4149,
      "Ġà¤īà¤łà¤¯à¤¤": 4150,
      "à¤°à¤µà¤¨": 4151,
      "à¤ĸà¤łà¤£à¤ķ": 4152,
      "à¤ĵà¤ļ": 4153,
      "à¤¤à¤µà¤µ": 4154,
      "à¤ķà¤°à¤£à¤µ": 4155,
      "Ġà¤²à¤ķà¤¤": 4156,
      "Ġà¤ĩà¤§à¤°": 4157,
      "Ġà¤Łà¤µà¤Łà¤µ": 4158,
      "Ġà¥§à¥¦à¥«": 4159,
      "à¤ħà¤ªà¤ĺ": 4160,
      "à¤ķà¤µà¤³": 4161,
      "à¤ªà¤²à¤¤": 4162,
      "Ġà¤Ĩà¤¯à¤ķà¤¤à¤¨": 4163,
      "à¤ļà¤²à¤ļ": 4164,
      "Ġà¥¨à¥¦à¥§à¥§": 4165,
      "Ġà¤ĩà¤Ŀ": 4166,
      "Ġà¤ļà¤¡à¤¯": 4167,
      "à¤°à¤¡à¤¤": 4168,
      "Ġà¤ľà¤ľ": 4169,
      "à¤·à¤°à¤¤": 4170,
      "Ġ?...": 4171,
      "Ġà¤ķà¤²à¤¶": 4172,
      "Ġà¤ĸà¤£à¤ĸà¤£": 4173,
      "à¤µà¤ķà¤²": 4174,
      "à¤¸à¤ķà¤³": 4175,
      "à¤ķà¤³à¤¸": 4176,
      "Ġà¤®à¤§à¤²": 4177,
      "à¤¬à¤¡à¤¯": 4178,
      "à¤ħà¤°à¤¬": 4179,
      "Ġà¤ļà¤²à¤¯à¤¤à¤²": 4180,
      "Ġà¤²à¤ĸà¤²à¤ĸ": 4181,
      "à¤ļà¤®à¤ķ": 4182,
      "à¤¸à¤Ļ": 4183,
      "Ġà¤¯à¤®à¤ķ": 4184,
      "à¤¶à¤¨à¤®": 4185,
      "Ġà¤µà¤³à¤µà¤¯": 4186,
      "Ġà¤Ĺà¤£à¤°": 4187,
      "à¤¤à¤¯à¤¤": 4188,
      "Ġà¤¤à¤µà¤¶": 4189,
      "Ġà¤ħà¤¸à¤£": 4190,
      "à¤½à¤½à¤½": 4191,
      "Ġà¤µà¤¦à¤¨": 4192,
      "à¤°à¤¤à¤µà¤°": 4193,
      "Ġà¥§à¥§à¥«": 4194,
      "à¤¯à¤µà¤¨": 4195,
      "à¥ģ?": 4196,
      "Ġà¤«à¤²à¤ķ": 4197,
      "Ġà¤«à¤³à¤¯": 4198,
      "à¤¯à¤®à¤°": 4199,
      "à¤¯à¤§à¤¨": 4200,
      "à¤µà¤¦à¤°": 4201,
      "à¤ıà¤ķà¤µ": 4202,
      "à¤ļà¤µà¤£": 4203,
      "à¤ĸà¤°à¤ª": 4204,
      "Ġà¤¹à¤£": 4205,
      "Ġà¤¬à¤ļà¤¨": 4206,
      "à¤łà¤ľ": 4207,
      "à¤īà¤°à¤«": 4208,
      "Ġà¥§à¥¯à¥¬à¥§": 4209,
      "Ġà¤ªà¤®": 4210,
      "à¤ľà¤ªà¤£": 4211,
      "Ġà¤§à¤ª": 4212,
      "Ġà¤ľà¤¨à¤ľ": 4213,
      "Ġà¤ľà¤Ĺà¤Ńà¤°": 4214,
      "Ġà¤®à¤°à¤¤à¤ķà¤ļ": 4215,
      "Ġà¤®à¤Łà¤µ": 4216,
      "à¤ħà¤ķà¤°": 4217,
      "à¤ķà¤£à¤ķ": 4218,
      "à¤īà¤µ": 4219,
      "Ġà¤Īà¤¦": 4220,
      "Ġà¥§à¥¯à¥®à¥¬": 4221,
      "Ġà¤ħà¤Ĺà¤¸": 4222,
      "à¤¯à¤¶à¤µ": 4223,
      "Ġà¤īà¤ĸà¤²à¤ª": 4224,
      "à¤Ńà¤µà¤°": 4225,
      "à¥Ī!": 4226,
      "à¤Łà¤¯à¤¤à¤²": 4227,
      "Ġà¤¬à¤¡à¤¯à¤²": 4228,
      "à¤®à¤¦à¤¨": 4229,
      "Ġà¤µà¤³à¤Ł": 4230,
      "Ġà¤¹à¤¶": 4231,
      "Ġà¤ĵà¤ĺ": 4232,
      "à¤Ĺà¤ªà¤¤": 4233,
      "à¤Ĩà¤Ń": 4234,
      "à¤łà¤¸": 4235,
      "à¤ħà¤®à¤ķ": 4236,
      "Ġà¤ĺà¤²": 4237,
      "Ġà¤Ķà¤·à¤§": 4238,
      "Ġà¥§à¥¯à¥«à¥ª": 4239,
      "à¤¤à¤Ľ": 4240,
      "Ġà¤Ĩà¤ķà¤²à¤¨": 4241,
      "à¥Ĥà¥¤": 4242,
      "à¤¯à¤¤à¤ķà¤ļ": 4243,
      "à¤ħà¤«": 4244,
      "Ġà¤īà¤²à¤µ": 4245,
      "Ġà¤¦à¤³à¤¡": 4246,
      "Ġà¤ħà¤¡à¤ķ": 4247,
      "à¤¹à¤³à¤ļ": 4248,
      "Ġà¤®à¤¹à¤®": 4249,
      "à¤°à¤¶à¤ķ": 4250,
      "Ġà¤Ķà¤¦": 4251,
      "Ġà¤ĭà¤ļ": 4252,
      "Ġà¤Ĩà¤¢à¤³à¤¤": 4253,
      "li": 4254,
      "à¤Ĩà¤ªà¤¶": 4255,
      "à¤µà¤°à¤¦": 4256,
      "Ġà¤łà¤ķ": 4257,
      "à¤Ĳà¤ķ": 4258,
      "Ġà¤īà¤¸à¤ª": 4259,
      "Ġà¤īà¤ľà¤°": 4260,
      "Ġà¤ĸà¤³à¤¯": 4261,
      "Ġà¤Ĩà¤¯à¤Ł": 4262,
      "à¤¸à¤³à¤ª": 4263,
      "à¤ªà¤£à¤ķ": 4264,
      "à¤ĵà¤µ": 4265,
      "Ġà¥§à¥¯à¥«à¥¬": 4266,
      "Ġà¤¤à¤ªà¤²": 4267,
      "Ġà¤µà¤¸à¤¨": 4268,
      "Ġà¤°à¤Ł": 4269,
      "Ġà¤Ĩà¤łà¤µà¤£": 4270,
      "à¥§à¥§à¥¨": 4271,
      "à¤ľà¤¯à¤ķ": 4272,
      "Ġà¤¬à¤§": 4273,
      "Ġà¤īà¤ļà¤²": 4274,
      "Ġà¤īà¤¨à¤®": 4275,
      "Ġà¤¶à¤µ": 4276,
      "à¤µà¤²à¤²": 4277,
      "à¤¯à¤¹à¤®": 4278,
      "à¤Ĺà¤¢": 4279,
      "à¤¹à¤£à¤¤à¤ļ": 4280,
      "à¤¹à¤¯à¤µ": 4281,
      "Ġà¥¥à¥¤": 4282,
      "Ġà¤Ļ": 4283,
      "Ġà¤Ĩà¤¥": 4284,
      "Ġà¤ļà¤µà¤¤": 4285,
      "à¤°à¤¸à¤ķ": 4286,
      "à¤°à¤Ĺà¤¯": 4287,
      "à¤¾à¤Ĥ....": 4288,
      "à¤¬à¤¬": 4289,
      "à¤¼à¤Ĥ": 4290,
      "à¤ŀà¤¸": 4291,
      "Ġà¤łà¤°à¤µ": 4292,
      "à¤Ļà¤®à¤¯": 4293,
      "Ġà¤¬à¤°à¤µà¤¨": 4294,
      "Ġà¥¯à¥©": 4295,
      "Ġà¤ľà¤³à¤µ": 4296,
      "à¥Ģ.,": 4297,
      "à¤Īà¤µ": 4298,
      "sh": 4299,
      "à¤°à¤¹à¤°": 4300,
      "à¤®à¤ĸà¤£": 4301,
      "Ġà¤¦à¤Ĺà¤¡": 4302,
      "Ġà¤īà¤¨à¤¸": 4303,
      "à¤¸à¤°à¤Ĺ": 4304,
      "Ġà¥«à¥¦à¥¦": 4305,
      "Ġà¤¬à¤³à¤ķ": 4306,
      "à¤µà¤°à¤¨": 4307,
      "à¤°à¤¸à¤ª": 4308,
      "à¤ĺà¤¸à¤ĺ": 4309,
      "à¤Ľà¤°": 4310,
      "Ġà¤Ľà¤Ł": 4311,
      "à¤Ĩà¤Īà¤ļ": 4312,
      "à¤ªà¤²à¤¬": 4313,
      "Ġà¤¬à¤¦à¤²à¤¤à¤²": 4314,
      "Ġà¥§à¥¦à¥®": 4315,
      "Ġà¤¸à¤¯à¤°": 4316,
      "à¤·à¤²": 4317,
      "Ġà¤Ĩà¤ľà¤ķ": 4318,
      "Ġà¤łà¤³à¤ķ": 4319,
      "Ġà¤®à¤Łà¤£": 4320,
      "à¤ĸà¤Ĺ": 4321,
      "à¤¤à¤¤à¤¸": 4322,
      "Ġà¥§à¥¦à¥§": 4323,
      "Ġà¤§à¤¯à¤°": 4324,
      "Ġà¤ªà¤³à¤Ł": 4325,
      "à¤®à¤²à¤¬à¤ľ": 4326,
      "à¤¦à¤¬à¤°": 4327,
      "à¤¥à¤¹": 4328,
      "à¤īà¤°à¤¤à¤²": 4329,
      "Ġà¤ĵà¤¬": 4330,
      "Ġà¤ħà¤²à¤¯à¤¤": 4331,
      "Ġà¤ķà¤ªà¤¯": 4332,
      "à¤®à¤®à¤¤": 4333,
      "Ġà¤ľà¤ªà¤¤": 4334,
      "à¤łà¤µà¤²": 4335,
      "Ġà¤ľà¤¨à¤ªà¤¦": 4336,
      "à¤¦à¤®à¤¯": 4337,
      "à¤Ĩà¤Īà¤ķ": 4338,
      "Ġà¤¬à¤°à¤¯à¤£": 4339,
      "à¤ĺà¤¸": 4340,
      "Ġà¥¯à¥¬": 4341,
      "à¤°à¤¬à¤¨": 4342,
      "à¤¯à¤Łà¤ªà¤£": 4343,
      "à¤Ĺà¤¦à¤Ĺ": 4344,
      "Ġà¥§à¥¨à¥¦": 4345,
      "Ġà¤¦à¤¸à¤£": 4346,
      "à¤īà¤Ĺà¤¤": 4347,
      "à¤°à¤®à¤¶": 4348,
      "Ġà¤ħà¤¨à¤ª": 4349,
      "Ġà¤·à¤·": 4350,
      "à¤¾à¥¥": 4351,
      "Ġà¤¨à¤¥": 4352,
      "Ġà¤Ĩà¤ªà¤ĸ": 4353,
      "à¤ĺà¤¦": 4354,
      "à¤ķà¤ªà¤Ł": 4355,
      "Ġà¥§à¥¦à¥Ń": 4356,
      "à¤®à¤¹à¤°": 4357,
      "Ġà¤µà¤ķà¤²": 4358,
      "à¤µà¤ļà¤¤": 4359,
      "à¤²à¤ķà¤Ł": 4360,
      "Ġà¤ĺà¤¸à¤ĺà¤¸": 4361,
      "à¤¨à¤ķà¤³": 4362,
      "à¤µà¤Ŀà¤¡": 4363,
      "Ġà¤¸à¤°à¤®": 4364,
      "à¤°à¤«à¤³": 4365,
      "à¤¯à¤Ŀà¤°": 4366,
      "Ġà¤§à¤¬à¤§à¤¬": 4367,
      "à¤łà¤ļ": 4368,
      "Ġà¤Ķà¤°à¤¤": 4369,
      "Ġà¤Ĩà¤ªà¤Łà¤¤": 4370,
      "Ġà¤®à¤¨à¤Ĺà¤Ł": 4371,
      "à¤Ĺà¤¡à¤Ĺà¤¡": 4372,
      "à¤ļà¤ķà¤¤": 4373,
      "à¤¹à¤Ŀ": 4374,
      "Ġà¤¦à¤ĸ": 4375,
      "à¤¤à¤²à¤²": 4376,
      "à¤ĩà¤«": 4377,
      "à¥į!": 4378,
      "à¤°à¤¯à¤¨": 4379,
      "à¤¡à¤ľ": 4380,
      "à¤¶à¤Ĺ": 4381,
      "à¤µà¤ļà¤²à¤ļ": 4382,
      "à¤°à¤£à¤µ": 4383,
      "à¤¤à¤ªà¤°": 4384,
      "à¤¹à¤Ń": 4385,
      "à¤¹à¤¦à¤³": 4386,
      "Ġà¤ªà¤¡à¤¸": 4387,
      "Ġà¤Ĺà¤£à¤¨": 4388,
      "à¥§à¥§à¥¬": 4389,
      "à¤ĸà¤Ń": 4390,
      "à¥¦à¥®": 4391,
      "à¤Ŀà¤³": 4392,
      "à¤®à¤Ŀ": 4393,
      "à¥Ĥà¤ĥ": 4394,
      "à¤¶à¤¯à¤ķ": 4395,
      "à¤¶à¤¤à¤®": 4396,
      "Ġà¤¬à¤ĸà¤¦": 4397,
      "à¤«à¤£": 4398,
      "Ġà¤ħà¤µà¤ĺ": 4399,
      "Ġà¤ļà¤°à¤ĸ": 4400,
      "à¤¤à¤µà¤³": 4401,
      "à¤ļà¤ķà¤°": 4402,
      "à¤ļà¤¤à¤ķ": 4403,
      "Ġà¤Ŀà¤¡à¤ª": 4404,
      "à¤¤à¤®à¤¯": 4405,
      "Ġà¤ªà¤°à¤¸à¤¯": 4406,
      "Ġà¤ľà¤³à¤ª": 4407,
      "à¥§à¥§à¥ª": 4408,
      "à¥Ģà¤ģ": 4409,
      "Ġà¤¤à¤³à¤Ł": 4410,
      "Ġà¤ĸà¤µà¤¦à¤³": 4411,
      "Ġà¤ļà¤¦": 4412,
      "Ġà¤ļà¤Łà¤£": 4413,
      "Ġà¤ĳà¤Ł": 4414,
      "à¤ķà¤ªà¤¯": 4415,
      "à¤ļà¤°à¤²": 4416,
      "Ġà¤Ĩà¤³à¤µ": 4417,
      "à¤°à¤ļà¤ª": 4418,
      "à¤¤à¤¶à¤¤": 4419,
      "à¤ļà¤ķà¤ļà¤ķ": 4420,
      "à¤¦à¤³à¤ķ": 4421,
      "Ġà¤īà¤¤à¤¨": 4422,
      "Ġ.......": 4423,
      "Ġà¤µà¤¸à¤¯à¤²": 4424,
      "Ġà¤¹à¤¦à¤¯": 4425,
      "à¥Īà¤Ĥ?": 4426,
      "Ġà¥ªà¥¦à¥¦": 4427,
      "Ġà¤¸à¤Ĺà¤°": 4428,
      "à¤ľà¤¬à¤°": 4429,
      "à¥¦à¥ª": 4430,
      "Ġà¤ĵà¤Ŀ": 4431,
      "Ġà¥¨à¥¦à¥¦à¥¬": 4432,
      "Ġà¤¬à¤¸à¤ķà¤£": 4433,
      "à¤§à¤°à¤¨": 4434,
      "à¤®à¤Ńà¤Ł": 4435,
      "Ġà¤¥à¤ª": 4436,
      "à¤ħà¤¤à¤°": 4437,
      "à¤ħà¤µà¤ļ": 4438,
      "Ġà¤ĵà¤¥": 4439,
      "Ġà¤ıà¤¡à¤µ": 4440,
      "à¤ļà¤¨à¤®": 4441,
      "Ġà¤®à¤ľà¤¬": 4442,
      "à¤Ĺà¤µà¤¸": 4443,
      "à¤Łà¤³": 4444,
      "à¤Ĩà¤·": 4445,
      "à¤ŀà¤¨": 4446,
      "à¤µà¤Ī": 4447,
      "Ġà¤ªà¤¥à¤¨": 4448,
      "à¤¯à¤²à¤Ń": 4449,
      "Ġà¤¸à¤®à¤¦": 4450,
      "à¤¯à¤°à¤ļà¤¨": 4451,
      "à¤½à¤®": 4452,
      "à¤Ĩà¤¯à¤ª": 4453,
      "à¤Ĺà¤ľà¤³": 4454,
      "Ġà¤¥à¤°à¤¥à¤°à¤²": 4455,
      "Ġà¤ªà¤¹à¤¨": 4456,
      "à¤ľà¤³à¤Ł": 4457,
      "Ġà¤¦à¤¸à¤°à¤¤": 4458,
      "à¤·à¤¬": 4459,
      "Ġà¤ıà¤ľà¤¨": 4460,
      "Ġà¥§à¥§à¥¯": 4461,
      "Ġà¤¸à¤°à¤¬à¤¤": 4462,
      "à¤Ĩà¤¨à¤¨": 4463,
      "Ġà¥§à¥§à¥¬": 4464,
      "Ġà¤°à¤µà¤³à¤¨": 4465,
      "à¤¬à¤¢": 4466,
      "à¤²à¤¯à¤¤à¤²": 4467,
      "Ġà¤ħà¤ķà¤®": 4468,
      "à¤¦à¤°à¤®": 4469,
      "Ġà¤īà¤¬à¤ľ": 4470,
      "à¤¨à¤·": 4471,
      "Ġà¤®à¤²à¤®": 4472,
      "Ġà¤¦à¤³à¤µ": 4473,
      "à¤Ńà¤ľ": 4474,
      "Ġà¤Ŀà¤¡à¤²": 4475,
      "Ġà¥¨à¥¦à¥§à¥¯": 4476,
      "à¤°à¤¡à¤ª": 4477,
      "à¤¬à¤¤à¤¨": 4478,
      "à¤µà¤¨à¤Ĺà¤°": 4479,
      "à¤ħà¤Łà¤ķ": 4480,
      "Ġà¤ľà¤®à¤¤à¤²": 4481,
      "Ġà¤Ĩà¤ļà¤°": 4482,
      "Ġà¤¡à¤¬à¤²": 4483,
      "Ġà¤ĵà¤«": 4484,
      "à¤¸à¤®à¤Ĺ": 4485,
      "à¤«à¤¯": 4486,
      "à¤ļà¤²à¤¯à¤¤": 4487,
      "Ġà¥§à¥¨à¥«": 4488,
      "Ġà¤ªà¤¤à¤¨": 4489,
      "à¤¡à¤µà¤¤": 4490,
      "Ġà¤¨à¤°à¤¹à¤°": 4491,
      "Ġà¥¨à¥¦à¥¦à¥ª": 4492,
      "à¤±à¤°": 4493,
      "Ġà¤īà¤ªà¤ķà¤°": 4494,
      "Ġà¥§à¥§à¥Ń": 4495,
      "à¤¤à¤£à¤¯": 4496,
      "à¤ªà¤Ńà¤°": 4497,
      "Ġà¤¨à¤¡à¤£": 4498,
      "à¤°à¤¤à¤Ńà¤°": 4499,
      "à¥Īà¤Ĥ.": 4500,
      "Ġà¤Īà¤°": 4501,
      "à¤°à¤µà¤ª": 4502,
      "Ġà¤Ĩà¤°à¤¸": 4503,
      "à¤Łà¤¹": 4504,
      "Ġà¤¬à¤²à¤µ": 4505,
      "à¤µà¤ľà¤¯": 4506,
      "à¤§à¤¨à¤®": 4507,
      "Ġà¥§à¥§à¥§": 4508,
      "à¤ªà¤¯à¤ķ": 4509,
      "Ġà¤¸à¤¹à¤¯": 4510,
      "à¤§à¤¦": 4511,
      "Ġà¤Ĩà¤®à¤°": 4512,
      "à¤Ĩà¤¯à¤ķà¤¨": 4513,
      "un": 4514,
      "à¤µà¤¶à¤ķ": 4515,
      "Ġà¤ħà¤ļà¤°": 4516,
      "Ġà¤Ńà¤Ĺà¤²": 4517,
      "Ġà¤Ĺà¤³à¤ª": 4518,
      "à¤Ĺà¤£à¤µ": 4519,
      "à¤²à¤³": 4520,
      "à¤¨à¤¯à¤¤": 4521,
      "à¤Ĩà¤µà¤¶": 4522,
      "à¤°à¤£à¤¤": 4523,
      "à¤µà¤£à¤ķ": 4524,
      "à¥¥.": 4525,
      "Ġà¤ħà¤ķà¤ł": 4526,
      "Ġà¤¸à¤¹à¤¦": 4527,
      "Ġà¤Ĺà¤¡à¤¦": 4528,
      "Ġà¤®à¤°à¤¤à¤ķ": 4529,
      "Ġà¥§à¥§à¥¨": 4530,
      "Ġà¤¸à¤«à¤°à¤ļ": 4531,
      "à¤¦à¤¶à¤ķ": 4532,
      "Ġà¤¬à¤¨à¤²": 4533,
      "à¤¼,": 4534,
      "Ġà¤Ľà¤¨": 4535,
      "à¥§à¥§à¥®": 4536,
      "à¤²à¤¥": 4537,
      "à¤²à¤¤à¤ķà¤ļ": 4538,
      "Ġà¤¥à¤Ł": 4539,
      "à¤¢à¤¯": 4540,
      "à¤¤à¤§": 4541,
      "à¤ļà¤®à¤¹": 4542,
      "à¤Ĺà¤¯à¤¤à¤²": 4543,
      "à¤¡à¤ªà¤¤": 4544,
      "à¤¬à¤¡à¤²": 4545,
      "Ġà¤ĸà¤²à¤ª": 4546,
      "Ġà¤§à¤¸à¤ķ": 4547,
      "à¤µà¤¸à¤ªà¤£": 4548,
      "Ġà¥§à¥§à¥©": 4549,
      "à¤¦à¤°à¤¯": 4550,
      "à¤¾.....": 4551,
      "Ġà¥¨à¥¦à¥§à¥®": 4552,
      "Ġà¤ħà¤µà¤ľ": 4553,
      "Ġà¤Ĩà¤ªà¤¨": 4554,
      "Ġà¤¨à¤µà¤¦": 4555,
      "Ġà¤Ĩà¤Īà¤¬": 4556,
      "à¤Ĺà¤Ŀ": 4557,
      "Ġà¤ħà¤¥à¤°": 4558,
      "à¤ĩà¤Ĺ": 4559,
      "à¤¾...!": 4560,
      "à¤ķà¤¦à¤®": 4561,
      "Ġà¤®à¤£à¤¯": 4562,
      "Ġà¤ĸà¤µà¤°": 4563,
      "à¤¤à¤®à¤®": 4564,
      "à¤ļà¤²à¤£": 4565,
      "at": 4566,
      "Ġà¤¸à¤¶": 4567,
      "à¤³à¤µà¤¤": 4568,
      "Ġà¤§à¤¤à¤°": 4569,
      "à¤µà¤°à¤ķà¤°": 4570,
      "à¤Ĭà¤¤": 4571,
      "Ġà¤µà¤³à¤ĸà¤¤à¤²": 4572,
      "à¤Ĳà¤¤": 4573,
      "à¤®à¤¸à¤¨": 4574,
      "à¤¹à¤¨à¤¯": 4575,
      "Ġà¤¹à¤¸à¤¨": 4576,
      "Ġà¤īà¤³": 4577,
      "à¤¯à¤ķà¤®": 4578,
      "Ġà¤¸à¤®à¤¶": 4579,
      "à¤µà¤µà¤ļà¤¨": 4580,
      "Ġà¤®à¤°à¤¸à¤°": 4581,
      "Ġà¤ľà¤¯à¤ķ": 4582,
      "à¤ĺà¤ķ": 4583,
      "à¤¹à¤Ī": 4584,
      "à¤¬à¤¯à¤°": 4585,
      "à¤µà¤¨à¤ķ": 4586,
      "Ġà¤Ŀà¤Ĺà¤¡à¤¤": 4587,
      "Ġà¤Ŀà¤Ł": 4588,
      "Ġà¤Ŀà¤¡à¤¤": 4589,
      "Ġà¤ķà¤³à¤®": 4590,
      "à¤ªà¤ķà¤°": 4591,
      "à¤¶à¤ķà¤²": 4592,
      "à¤ľà¤Ł": 4593,
      "à¤·à¤°à¤¶": 4594,
      "à¤ĥà¥¥": 4595,
      "à¤¢à¤ķ": 4596,
      "à¤ķà¤³à¤ļ": 4597,
      "à¤§à¤¨à¤¸": 4598,
      "Ġà¤Ĩà¤ĺà¤µ": 4599,
      "Ġà¤°à¤ª": 4600,
      "Ġà¤¯à¤®à¤°": 4601,
      "à¤ħà¤¨à¤¸": 4602,
      "à¥Ńà¥¦à¥¦": 4603,
      "Ġà¥¨à¥¦à¥§à¥©": 4604,
      "à¤ķà¤¯à¤¤à¤¨": 4605,
      "à¥ģ!": 4606,
      "Ġà¤¹à¤Ļ": 4607,
      "à¤°à¤¤à¤¸": 4608,
      "Ġà¤Ĩà¤°à¤¡": 4609,
      "à¤ªà¤³à¤¯à¤¨": 4610,
      "à¤ļà¤®à¤¤": 4611,
      "à¤£à¤Łà¤²": 4612,
      "Ġà¤¶à¤¯": 4613,
      "à¤¸à¤²à¤²": 4614,
      "Ġà¤ĸà¤¬à¤°à¤¦": 4615,
      "Ġà¤ªà¤¸à¤°à¤¤": 4616,
      "Ġà¥¨à¥¦à¥¦à¥Ń": 4617,
      "à¤¿à¤¾": 4618,
      "Ġà¤¸à¤µà¤³": 4619,
      "à¤łà¤¯à¤²": 4620,
      "à¤°à¤®à¤¯": 4621,
      "Ġà¤ħà¤ķà¤¦": 4622,
      "Ġà¥§à¥¯à¥¬à¥¨": 4623,
      "à¤¬à¤°à¤¸": 4624,
      "Ġà¤¶à¤¯à¤¨": 4625,
      "à¤ĩà¤·": 4626,
      "Ġà¤īà¤¬à¤Ĺ": 4627,
      "à¤¤à¤³à¤®à¤³": 4628,
      "à¥§à¥¨à¥¦": 4629,
      "Ġà¤¯à¤®à¤¦": 4630,
      "à¤ķà¤°à¤¶": 4631,
      "à¤µà¤£à¤Ł": 4632,
      "Ġà¤Ĩà¤²à¤¸": 4633,
      "Ġà¤Ŀà¤Ĺà¤¡à¤²": 4634,
      "à¤¤à¤¬à¤²": 4635,
      "à¤Ĩà¤¯à¤¸": 4636,
      "à¤¹à¤£à¤¤à¤²": 4637,
      "Ġà¤ĺà¤¡à¤µ": 4638,
      "Ġà¥§à¥¦à¥©": 4639,
      "à¤¸à¤®à¤¤": 4640,
      "à¤¡à¤µà¤¨": 4641,
      "à¤°à¤ķà¤®": 4642,
      "à¤¬à¤¸à¤¯à¤²": 4643,
      "Ġà¤Ĩà¤µà¤¯à¤ķà¤¡": 4644,
      "à¤¤à¤¤à¤²": 4645,
      "à¤¤à¤ªà¤¶": 4646,
      "Ġà¤ķà¤ľ": 4647,
      "Ġà¤¸à¤ŀ": 4648,
      "à¤¶à¤ł": 4649,
      "Ġà¤µà¤®": 4650,
      "à¤ĸà¤¬": 4651,
      "à¤Ńà¤µà¤²": 4652,
      "à¤¦à¤°à¤¦": 4653,
      "à¤ķà¤£à¤Ĺ": 4654,
      "à¤¯à¤®à¤¦": 4655,
      "Ġà¤ľà¤¯à¤¶": 4656,
      "à¤Ĺà¤²à¤¶": 4657,
      "à¤ķà¤Łà¤¤": 4658,
      "à¤Ĩà¤µà¤¡à¤²": 4659,
      "à¤¬à¤Ĺà¤²": 4660,
      "à¥ĭà¤Ĥà¥¤": 4661,
      "à¤ĺà¤¤": 4662,
      "Ġà¤Ĩà¤¯à¤ķà¤¤à¤ķà¤ļ": 4663,
      "à¤īà¤²à¤¯à¤¨": 4664,
      "Ġk": 4665,
      "Ġà¤ķà¤ªà¤³": 4666,
      "Ġà¤ħà¤¸à¤°": 4667,
      "Ġà¤ļà¤µà¤Ĺ": 4668,
      "Ġà¤ĵà¤³à¤ķ": 4669,
      "à¤Ľà¤¯": 4670,
      "Ġà¤®à¤Ĺà¤§": 4671,
      "à¤²à¤ķà¤£": 4672,
      "à¤µà¤¡à¤²": 4673,
      "Ġà¤²à¤ľà¤²": 4674,
      "Ġà¤§à¤¸": 4675,
      "à¤¡à¤¤à¤°": 4676,
      "à¤¢à¤¨": 4677,
      "in": 4678,
      "à¤Łà¤µà¤£": 4679,
      "Ġà¤°à¤ķà¤¤": 4680,
      "à¤ĸà¤µà¤²": 4681,
      "Ġà¤¸à¤®à¤µ": 4682,
      "Ġà¤ĵà¤£": 4683,
      "Ġà¤īà¤¬à¤¤": 4684,
      "à¤¨à¤Ĺà¤°à¤ª": 4685,
      "à¤°à¤§à¤¨": 4686,
      "Ġà¤°à¤²": 4687,
      "à¤ħà¤°à¤µ": 4688,
      "Ġà¤ľà¤Ĺà¤¤à¤²": 4689,
      "Ġà¤¨à¤µà¤²à¤ķ": 4690,
      "à¤¼à¤¾,": 4691,
      "Ġà¤¦à¤µà¤°à¤£": 4692,
      "Ġà¤łà¤°à¤¤": 4693,
      "à¤¬à¤³à¤µ": 4694,
      "à¤¹à¤£à¤Ĺ": 4695,
      "Ġà¤¥à¤²": 4696,
      "Ġà¤ĩà¤£": 4697,
      "à¤īà¤§": 4698,
      "à¥¦à¥§": 4699,
      "Ġà¤ħà¤¸à¤®à¤°": 4700,
      "à¤¢à¤ª": 4701,
      "à¤Ĥà¥¤": 4702,
      "à¤Ĺà¤°à¤ķ": 4703,
      "Ġà¤«à¤ķà¤£": 4704,
      "à¤ıà¤ķà¤¶": 4705,
      "à¤Ńà¤°à¤¶": 4706,
      "à¤Ĭà¤£": 4707,
      "à¥§à¥§à¥«": 4708,
      "Ġb": 4709,
      "à¤ļà¤°à¤¤": 4710,
      "à¤¸à¤µà¤¤": 4711,
      "Ġà¤ªà¤ļà¤ª": 4712,
      "à¤Łà¤®à¤³": 4713,
      "Ġà¤°à¤®à¤²": 4714,
      "Ġà¤Ĩà¤¸à¤¯": 4715,
      "à¤¥à¤ķà¤°": 4716,
      "à¤ĺà¤¡à¤¤": 4717,
      "Ġà¤ķà¤°à¤ªà¤²": 4718,
      "à¤ĩà¤£": 4719,
      "à¤ľà¤¨à¤¸": 4720,
      "à¤ªà¤Łà¤²": 4721,
      "à¤¦à¤«": 4722,
      "Ġà¤µà¤°à¤£": 4723,
      "Ġà¤µà¤²à¤¯": 4724,
      "Ġà¤ªà¤³à¤ª": 4725,
      "à¤°à¤³à¤¯": 4726,
      "Ġà¤ķà¤µà¤°": 4727,
      "à¥Ĥà¥į": 4728,
      "Ġà¤¦à¤®à¤¨": 4729,
      "Ġà¤¤à¤°à¤ļ": 4730,
      "à¤ħà¤ķà¤²": 4731,
      "Ġà¥§à¥¯à¥¯à¥ª": 4732,
      "Ġà¤ħà¤ķà¤µà¤ļà¤¨": 4733,
      "Ġà¤¸à¤Ĺà¤Łà¤¯": 4734,
      "Ġà¤¦à¤¶à¤®": 4735,
      "à¤¹à¤¹": 4736,
      "à¤§à¤µà¤°": 4737,
      "à¤łà¤¦": 4738,
      "Ġà¤Ĩà¤«à¤¯à¤¤": 4739,
      "à¤ķà¤Łà¤²": 4740,
      "à¤®à¤Ĺà¤°": 4741,
      "Ġà¤¸à¤¶à¤¸": 4742,
      "à¤ĸà¤µà¤ª": 4743,
      "à¤Ĺà¤¡à¤¯": 4744,
      "à¤¤à¤¨à¤ķ": 4745,
      "Ġà¤Ĩà¤£à¤£": 4746,
      "à¤ľà¤ªà¤¤": 4747,
      "à¤ķà¤°à¤µ": 4748,
      "à¤¨à¤§à¤¨": 4749,
      "Ġà¤¹à¤°à¤®": 4750,
      "Ġà¤Ńà¤³": 4751,
      "Ġà¤Ĺà¤¬": 4752,
      "à¤¼à¤¾à¥¤": 4753,
      "à¤¯à¤®à¤¸": 4754,
      "à¤Ĳà¤µà¤ľ": 4755,
      "!...": 4756,
      "à¤¨à¤Ńà¤°": 4757,
      "Ġà¤¤à¤°à¤ķ": 4758,
      "Ġà¤µà¤°à¤ļ": 4759,
      "à¤½à¤ķ": 4760,
      "Ġà¤ªà¤³à¤¯à¤¤à¤ļ": 4761,
      "à¥§à¥«à¥¦": 4762,
      "à¤ľà¤¸à¤¤": 4763,
      "Ġà¤¬à¤ļà¤ķ": 4764,
      "Ġà¤ħà¤ªà¤¹à¤°à¤£": 4765,
      "Ġà¤ĺà¤¬": 4766,
      "à¤µà¤¨à¤¦": 4767,
      "à¤ķà¤°à¤²": 4768,
      "à¤īà¤ªà¤²à¤¬": 4769,
      "Ġà¤ĺà¤°à¤ĺà¤°": 4770,
      "Ġà¤ļà¤²à¤µ": 4771,
      "Ġà¤ķà¤²à¤¹": 4772,
      "à¤ªà¤¯à¤¤à¤²": 4773,
      "Ġà¥¯à¥§": 4774,
      "Ġà¤ħà¤µà¤ĺà¤¡": 4775,
      "à¤ıà¤¸à¤¸": 4776,
      "Ġà¤īà¤¸à¤°à¤ªà¤¤": 4777,
      "Ġà¤Ĺà¤¢": 4778,
      "à¤§à¤ªà¤ķ": 4779,
      "à¤Ĩà¤Ŀ": 4780,
      "à¤ĵà¤¹": 4781,
      "à¤¨à¤µà¤³": 4782,
      "à¤¤à¤ķà¤®": 4783,
      "à¤¢à¤¬": 4784,
      "à¤¯à¤°à¤²": 4785,
      "à¤µà¤³à¤¸": 4786,
      "à¤½à¤¶": 4787,
      "à¤®à¤°à¤¨": 4788,
      "à¤£à¤ķà¤¥": 4789,
      "Ġà¤¹à¤²à¤ķà¤Ł": 4790,
      "à¤ķà¤ªà¤°": 4791,
      "Ġà¤®à¤¤à¤²à¤¬": 4792,
      "à¤µà¤³à¤µà¤¯": 4793,
      "Ġà¤µà¤ļà¤ķ": 4794,
      "à¤¯à¤®à¤ª": 4795,
      "à¤ªà¤¡à¤µ": 4796,
      "Ġà¤¤à¤°à¤²": 4797,
      "à¤°à¤¹à¤¤": 4798,
      "Ġà¤ħà¤µà¤¤à¤°à¤£": 4799,
      "à¤ħà¤ªà¤Ń": 4800,
      "à¤ªà¤¹à¤²": 4801,
      "à¤Łà¤§": 4802,
      "à¤·à¤¯à¤ķ": 4803,
      "à¤·à¤°à¤¬": 4804,
      "à¤µà¤³à¤ª": 4805,
      "à¤Łà¤ķà¤¨": 4806,
      "Ġà¤®à¤¹à¤²": 4807,
      "à¤¯à¤¶à¤¸": 4808,
      "Ġà¤¦à¤µà¤°à¤¤à¤¨": 4809,
      "Ġà¥§à¥¯à¥¬à¥¦": 4810,
      "Ġà¤Ńà¤¡à¤ķ": 4811,
      "Ġà¤īà¤ªà¤ľà¤²": 4812,
      "Ġà¤īà¤ªà¤¸à¤°à¤ª": 4813,
      "Ġà¤µà¤³à¤µà¤³à¤Ł": 4814,
      "Ġà¤ªà¤°à¤°": 4815,
      "à¤°à¤ľà¤¯": 4816,
      "Ġà¤Ľà¤¹": 4817,
      "Ġà¤§à¤¨à¤Ĺà¤°": 4818,
      "onk": 4819,
      "à¤ªà¤±": 4820,
      "à¤®à¤¨à¤¬": 4821,
      "à¤°à¤ļà¤ķ": 4822,
      "Ġà¤ªà¤°à¤¤à¤¤à¤¨": 4823,
      "Ġà¤ĺà¤¡à¤ĺà¤¡": 4824,
      "à¤Ĩà¤¯à¤¡": 4825,
      "Ġà¤ªà¤Łà¤ª": 4826,
      "à¤ħà¤µà¤¶": 4827,
      "à¤ķà¤¡à¤ķ": 4828,
      "à¤°à¤®à¤¦": 4829,
      "à¤Īà¤¦": 4830,
      "à¤®à¤£à¤ª": 4831,
      "à¤¸à¤µà¤¦à¤¤": 4832,
      "à¤¤à¤ľà¤¨": 4833,
      "à¤®à¤ķà¤°à¤£": 4834,
      "Ġà¤¸à¤²à¤Ĺ": 4835,
      "à¤³à¤³à¤¯": 4836,
      "à¤¬à¤ļà¤ª": 4837,
      "Ġà¤Ńà¤£": 4838,
      "à¤¥à¤Ń": 4839,
      "Ġà¤ĵà¤ªà¤²": 4840,
      "à¤ļà¤ªà¤ĺà¤°": 4841,
      "Ġà¤Ĩà¤Ĺà¤¸": 4842,
      "Ġà¤ħà¤¹à¤®": 4843,
      "Ġà¤ľà¤¯à¤°": 4844,
      "Ġà¤¬à¤³à¤ĸ": 4845,
      "à¤µà¤Łà¤¯": 4846,
      "Ġà¤ķà¤¸à¤µà¤Ł": 4847,
      "Ġà¤Ĩà¤µà¤¯à¤Ĺ": 4848,
      "à¤¨à¤®à¤³": 4849,
      "à¤ļà¤Ł": 4850,
      "Ġà¤µà¤ľà¤°": 4851,
      "Ġà¤¦à¤Ĺà¤¦à¤Ĺ": 4852,
      "Ġà¤¶à¤Ļ": 4853,
      "à¤ĺà¤²": 4854,
      "à¤°à¤Ńà¤¦": 4855,
      "Ġà¤Ĺà¤°à¤Ĺà¤°": 4856,
      "à¤®à¤¸à¤Ń": 4857,
      "à¤¾...?": 4858,
      "Ġà¤¦à¤¯à¤¦": 4859,
      "Ġà¤ĸà¤¸": 4860,
      "à¤¤à¤¶à¤°": 4861,
      "Ġà¤Ĺà¤£à¤¸": 4862,
      "ya": 4863,
      "Ġà¤ĸà¤ķ": 4864,
      "à¤¯à¤²à¤¯": 4865,
      "à¤¯à¤ķà¤¶": 4866,
      "Ġà¤µà¤°à¤²": 4867,
      "Ġà¤ĺà¤°à¤Ń": 4868,
      "à¤ķà¤²à¤²": 4869,
      "à¤®à¤¨à¤¨": 4870,
      "à¤ļà¤¡à¤²": 4871,
      "Ġà¤¬à¤Łà¤£": 4872,
      "Ġà¤Ĩà¤¦à¤¨": 4873,
      "à¤¯à¤ľà¤®": 4874,
      "Ġà¤¹à¤ł": 4875,
      "Ġà¤ĸà¤°à¤ļ": 4876,
      "Ġà¤«à¤¡à¤¤": 4877,
      "à¤īà¤¡à¤¯": 4878,
      "à¤¤à¤³à¤¤": 4879,
      "à¤¡à¤§": 4880,
      "Ġà¤°à¤¡à¤Łà¤²": 4881,
      "à¤Ĩà¤ĺ": 4882,
      "Ġà¤¬à¤ķà¤ļ": 4883,
      "Ġà¤ļà¤¬": 4884,
      "à¤ªà¤Łà¤ª": 4885,
      "Ġà¤Īà¤ľ": 4886,
      "Ġà¥§à¥§à¥®": 4887,
      "Ġà¥§à¥¯à¥®à¥«": 4888,
      "Ġs": 4889,
      "Ġà¤µà¤Łà¤¯": 4890,
      "Ġà¤¨à¤°à¤µ": 4891,
      "à¤¤à¤°à¤¦": 4892,
      "à¤°à¤ķà¤ļ": 4893,
      "à¤µà¤¤à¤¤": 4894,
      "à¤¹à¤¯à¤¸": 4895,
      "à¤®à¤£à¤ļ": 4896,
      "à¤²à¤µà¤¨": 4897,
      "à¤ĸà¤¡à¤ª": 4898,
      "à¤¯à¤ķà¤¡à¤²": 4899,
      "Ġà¤Ĩà¤°à¤¬": 4900,
      "Ġà¤¬à¤ĺà¤¤": 4901,
      "Ġà¤¬à¤Ĺà¤³": 4902,
      "à¤µà¤¨à¤¶": 4903,
      "à¤¤à¤°à¤¹": 4904,
      "Ġà¤¤à¤°à¤¬": 4905,
      "à¤¬à¤°à¤µ": 4906,
      "à¤ķà¤¡à¤ķà¤¡": 4907,
      "Ġà¤ıà¤¥": 4908,
      "Ġà¤Ńà¤°à¤µà¤¸": 4909,
      "Ġà¤ľà¤®à¤¯à¤²": 4910,
      "Ġà¤ħà¤¨à¤®à¤¨à¤¤": 4911,
      "à¤¤à¤ªà¤¦": 4912,
      "à¤²à¤ĺà¤¡": 4913,
      "à¤®à¤±": 4914,
      "Ġà¤Ĩà¤ķà¤¡": 4915,
      "Ġà¤ªà¤¥à¤ķ": 4916,
      "Ġà¤«à¤µ": 4917,
      "à¤«à¤¸à¤²": 4918,
      "Ġà¤¸à¤°à¤¬à¤°": 4919,
      "Ġà¥§à¥¯à¥«à¥¦": 4920,
      "à¤²à¤ªà¤¦": 4921,
      "Ġà¤ħà¤Łà¤²": 4922,
      "à¤łà¤²à¤°": 4923,
      "à¥¦à¥¯": 4924,
      "à¥§à¥§à¥¯": 4925,
      "Ġà¥§à¥¯à¥®à¥¦": 4926,
      "à¤¨à¤¸à¤¤": 4927,
      "à¤ľà¤¯à¤®": 4928,
      "Ġà¥¯à¥¨": 4929,
      "Ġà¤Ĩà¤²à¤µ": 4930,
      "Ġà¤īà¤¸à¤Ĺ": 4931,
      "à¤ªà¤¦à¤ķ": 4932,
      "à¤£à¤ªà¤°": 4933,
      "Ġà¤¬à¤¯à¤¤": 4934,
      "à¤ĸà¤¯à¤ļ": 4935,
      "Ġà¤¸à¤®à¤ļ": 4936,
      "à¤¼à¥Ģ,": 4937,
      "Ġà¤¬à¤¨à¤¨": 4938,
      "à¥§à¥§à¥Ń": 4939,
      "à¥įà¥ĩà¤Ĥ": 4940,
      "à¤Ĺà¤µà¤°": 4941,
      "Ġà¤Ĺà¤°à¤¯": 4942,
      "Ġà¤¸à¤®à¤Ń": 4943,
      "à¤°à¤Ĺà¤£": 4944,
      "Ġà¤¬à¤¸à¤µà¤£": 4945,
      "Ġà¤łà¤¸": 4946,
      "à¤¡à¤Ń": 4947,
      "Ġà¤¹à¤°à¤¤": 4948,
      "Ġà¤Ĩà¤µà¤ľ": 4949,
      "Ġà¥§à¥¯à¥¯à¥®": 4950,
      "à¥«à¥«à¥«à¥«à¥«à¥«à¥«à¥«": 4951,
      "à¤®à¤°à¤ķ": 4952,
      "Ġà¤Ĩà¤Łà¤²": 4953,
      "Ġà¤Ĩà¤Łà¤µ": 4954,
      "à¤¡à¤µà¤ª": 4955,
      "Ġà¤ĵà¤¤à¤ª": 4956,
      "à¤µà¤ķà¤¨": 4957,
      "Ġà¤Ĩà¤¯à¤ľà¤ļ": 4958,
      "à¤¯à¤ªà¤°à¤¸": 4959,
      "à¤Ńà¤ļ": 4960,
      "à¤Ńà¤£": 4961,
      "à¤ħà¤ľà¤µ": 4962,
      "à¤ħà¤§à¤°": 4963,
      "à¤ķà¤Łà¤°à¤®à¤£": 4964,
      "Ġà¥¨à¥¦à¥§à¥¨": 4965,
      "à¥§à¥§à¥©": 4966,
      "Ġà¤ŀ": 4967,
      "à¤Ĩà¤µà¤²": 4968,
      "à¤µà¤°à¤¯": 4969,
      "à¤ķà¤°à¤¯": 4970,
      "à¤īà¤°à¤¨": 4971,
      "Ġà¤ªà¤ĸà¤µ": 4972,
      "Ġà¤°à¤«": 4973,
      "à¤°à¤¸à¤Ń": 4974,
      "Ġà¥¨à¥¦à¥¦à¥«": 4975,
      "à¤¤à¤®à¤ķ": 4976,
      "à¤¨à¤µà¤¸": 4977,
      "à¤¿à¤ģ": 4978,
      "à¤³à¤¤à¤¨": 4979,
      "Ġà¤¦à¤¡à¤ªà¤£": 4980,
      "Ġà¤¬à¤¬": 4981,
      "à¤łà¤³": 4982,
      "à¤®à¤²à¤¬": 4983,
      "à¤¨à¤®à¤¯": 4984,
      "Ġà¤µà¤¯à¤¸": 4985,
      "Ġà¤ıà¤ķà¤ª": 4986,
      "Ġà¤Ĩà¤ªà¤µ": 4987,
      "Ġà¤µà¤°à¤¯": 4988,
      "Ġà¤ĺà¤°à¤²": 4989,
      "Ġà¤ıà¤Ł": 4990,
      "Ġà¤ħà¤ªà¤¶à¤ķ": 4991,
      "ja": 4992,
      "à¤¸à¤«à¤°": 4993,
      "Ġà¤¤à¤¦à¤¨": 4994,
      "à¤®à¤¯à¤¤": 4995,
      "Ġà¤¦à¤§": 4996,
      "Ġà¤Ĺà¤¸": 4997,
      "à¤ķà¤£à¤¸": 4998,
      "à¤Īà¤¡": 4999,
      "à¤¢à¤¦": 5000,
      "Ġà¤¨à¤ķà¤³à¤Łà¤¨": 5001,
      "à¥§à¥©à¥¦": 5002,
      "Ġà¤¸à¤³à¤¸à¤³à¤Ł": 5003,
      "à¤¤à¤¯à¤²": 5004,
      "Ġà¤µà¤Ĺà¤³": 5005,
      "Ġà¤Ĺà¤³à¤¤": 5006,
      "Ġà¤ħà¤¨à¤®": 5007,
      "à¤¾à¤ģ.": 5008,
      ".?": 5009,
      "à¥įà¤¾à¤Ĥ": 5010,
      "à¤¸à¤µà¤¸": 5011,
      "Ġà¤¹à¤¸à¤¤": 5012,
      "à¤§à¤®à¤¤": 5013,
      "à¤ĩà¤¤à¤¨": 5014,
      "Ġà¤īà¤¤à¤°à¤¤": 5015,
      "Ġà¤¸à¤°à¤¸à¤ķà¤Ł": 5016,
      "Ġà¥§à¥¯à¥Ńà¥¨": 5017,
      "à¤ļà¤¡à¤Ł": 5018,
      "Ġà¤Ĩà¤ĵ": 5019,
      "Ġà¤®à¤£à¤ķ": 5020,
      "à¤¦à¤ĸ": 5021,
      "Ġà¤¹à¤¬": 5022,
      "Ġà¤ľà¤ķ": 5023,
      "Ġà¤ħà¤³à¤£": 5024,
      "Ġà¤īà¤§à¤°": 5025,
      "Ġà¤µà¤°à¤¶": 5026,
      "à¤¼à¤¿à¤Ĥ": 5027,
      "à¤īà¤²à¤¯à¤¤à¤¨": 5028,
      "à¤Łà¤µà¤¸": 5029,
      "Ġà¤Ńà¤ķà¤¤": 5030,
      "à¤¯à¤ķà¤µ": 5031,
      "à¥«à¥¦à¥¦": 5032,
      "Ġà¥§à¥¯à¥Ńà¥Ń": 5033,
      "Ġà¤Ĺà¤°à¤¡": 5034,
      "à¤ªà¤Łà¤¤": 5035,
      "à¥įà¥ĭ": 5036,
      "à¤ªà¤¤à¤°": 5037,
      "à¤Ĺà¤¤à¤°": 5038,
      "Ġà¤ļà¤¯à¤¨": 5039,
      "Ġà¤Ńà¤Łà¤ľ": 5040,
      "Ġà¤µà¤¯à¤¤à¤¨": 5041,
      "Ġà¤Ńà¤Ĺà¤Ńà¤Ĺ": 5042,
      "à¤¶à¤®à¤¤": 5043,
      "à¤ĸà¤µà¤Ł": 5044,
      "Ġà¤¶à¤°à¤¤à¤ļ": 5045,
      "Ġà¤īà¤ªà¤ľà¤¤": 5046,
      "à¤ķà¤¥à¤¨": 5047,
      "à¤¸à¤¹à¤¨": 5048,
      "Ġà¤®à¤¯à¤¨": 5049,
      "Ġà¤¨à¤Łà¤¨": 5050,
      "Ġà¤ħà¤¦à¤²": 5051,
      "à¤ĺà¤¸à¤ĺà¤¶": 5052,
      "à¤ķà¤µà¤ª": 5053,
      "à¤ķà¤®à¤¨": 5054,
      "à¤Ĺà¤¤à¤®": 5055,
      "Ġà¤ĸà¤°à¤ĸà¤°": 5056,
      "à¤ªà¤²à¤¤à¤¡à¤ļ": 5057,
      "à¤µà¤µà¤°": 5058,
      "Ġà¤ķà¤Łà¤°": 5059,
      "Ġà¤¤à¤ķà¤Ł": 5060,
      "Ġà¤µà¤µ": 5061,
      "Ġà¤ħà¤³à¤¶": 5062,
      "Ġà¥©à¥¦à¥¦": 5063,
      "Ġà¤Ńà¤¯à¤Ń": 5064,
      "am": 5065,
      "à¤¯à¤°à¤ķ": 5066,
      "à¤ķà¤µà¤°": 5067,
      "Ġà¤Ĩà¤°à¤ª": 5068,
      "à¤¦à¤¯à¤ļ": 5069,
      "à¤¦à¤°à¤µ": 5070,
      "à¤īà¤¸à¤¨": 5071,
      "à¤Īà¤°": 5072,
      "Ġà¥¨à¥¦à¥§à¥«": 5073,
      "Ġà¤¥à¤°à¤¥à¤°à¤ª": 5074,
      "Ġà¥§à¥¯à¥®à¥Ń": 5075,
      "Ġà¤«à¤£à¤«": 5076,
      "Ġà¤ħà¤ľà¤¨": 5077,
      "à¤µà¤¨à¤¤": 5078,
      "Ġà¤¨à¤µà¤ľ": 5079,
      "à¤¯à¤Ļ": 5080,
      "Ġà¥§à¥¦à¥¯": 5081,
      "à¤¨à¤µà¤ļ": 5082,
      "Ġà¤ķà¤¬à¤°": 5083,
      "à¤¸à¤¤à¤ļ": 5084,
      "Ġà¤ıà¤¯à¤²": 5085,
      "Ġà¤ıà¤µà¤°": 5086,
      "à¤¬à¤³à¤Ĺ": 5087,
      "Ġà¥§à¥¦à¥ª": 5088,
      "onkani": 5089,
      "à¥įà¥ĩà¤Ĥ.": 5090,
      "à¤£à¤µà¤¨": 5091,
      "à¤Ĺà¤Ńà¤Ł": 5092,
      "à¤¹à¤¸à¤°": 5093,
      "Ġà¤Ĺà¤²à¤¤": 5094,
      "Ġà¥²": 5095,
      "Ġà¤§à¤¨à¤µ": 5096,
      "à¥ģà¤Ĥ,": 5097,
      "à¤ªà¤°à¤¯": 5098,
      "Ġà¤Ŀà¤²à¤ķ": 5099,
      "à¤ıà¤ľ": 5100,
      "Ġà¤¦à¤°à¤ıà¤ķ": 5101,
      "Ġà¥§à¥¯à¥©à¥¦": 5102,
      "Ġà¤Ŀà¤Ĺà¤Ŀ": 5103,
      "vi": 5104,
      "à¤®à¤Ńà¤ķ": 5105,
      "Ġà¤¹à¤«": 5106,
      "Ġà¤ľà¤³à¤ľ": 5107,
      "à¤Łà¤¤à¤²": 5108,
      "à¤Łà¤µà¤¡": 5109,
      "Ġà¤¬à¤Łà¤¨": 5110,
      "Ġà¤ħà¤Ļ": 5111,
      "à¤Ĩà¤µà¤°": 5112,
      "à¤Ĩà¤¡à¤¨": 5113,
      "Ġà¤§à¤¤": 5114,
      "Ġà¤īà¤ªà¤¶": 5115,
      "à¤¸à¤®à¤Ŀ": 5116,
      "à¤ĵà¤¡à¤²": 5117,
      "à¤¾à¥¤à¥¤": 5118,
      "Ġà¥§à¥¨à¥©": 5119,
      "à¤ıà¤¸à¤Ł": 5120,
      "Ġà¤¸à¤ľà¤¯à¤¤": 5121,
      "Ġà¥§à¥¯à¥¯à¥§": 5122,
      "Ġà¤ªà¤Łà¤ķà¤¥": 5123,
      "à¤°à¤µà¤¸": 5124,
      "à¤¦à¤¯à¤¨": 5125,
      "Ġà¤°à¤¡à¤¨": 5126,
      "Ġà¤īà¤ĺà¤¡à¤²": 5127,
      "à¤Ńà¤°à¤µ": 5128,
      "Ġà¤®à¤¨à¤¯à¤¤à¤²": 5129,
      "à¤ķà¤²à¤¶": 5130,
      "à¤°à¤®à¤®": 5131,
      "à¤¾à¤ĥà¥¤": 5132,
      "à¥§à¥¦à¥®": 5133,
      "Ġà¤ķà¤ļà¤°": 5134,
      "Ġà¤Ĩà¤°à¤¶": 5135,
      "Ġà¤ļà¤°à¤µ": 5136,
      "à¤¯à¤²à¤²": 5137,
      "Ġà¥¤.": 5138,
      "à¤ıà¤ķà¤¤": 5139,
      "Ġà¤ħà¤¨à¤ĺ": 5140,
      "à¤¹à¤°à¤¡": 5141,
      "à¤ĸà¤¨à¤¨": 5142,
      "à¤¯à¤Ńà¤Ł": 5143,
      "Ġà¥§à¥¯à¥«à¥®": 5144,
      "à¤ļà¤µà¤Ł": 5145,
      "à¤¦à¤µà¤Ł": 5146,
      "Ġà¤Ĺà¤¹à¤°": 5147,
      "à¤·à¤ľ": 5148,
      "Ġ,,": 5149,
      "Ġà¤§à¤£": 5150,
      "à¤¯à¤¤à¤¸": 5151,
      "Ġà¤¥à¤¤à¤°à¤µ": 5152,
      "Ġà¤¤à¤°à¤µ": 5153,
      "à¤īà¤¸à¤°": 5154,
      "Ġà¤Ĭà¤ļ": 5155,
      "Ġà¤ĸà¤Łà¤ĸà¤Ł": 5156,
      "à¥įà¤¼": 5157,
      "à¤¸à¤³à¤²": 5158,
      "Ġà¤Ĩà¤®à¤¡": 5159,
      "à¤«à¤Łà¤ķ": 5160,
      "à¤½à¤ļ": 5161,
      "à¤ĸà¤¤à¤ĸà¤¤": 5162,
      "Ġà¤¦à¤®à¤¡": 5163,
      "à¤Ĩà¤ªà¤ķ": 5164,
      "à¤µà¤³à¤ķ": 5165,
      "à¤½à¤µ": 5166,
      "à¥§à¥¦à¥¨": 5167,
      "à¥§à¥¦à¥ª": 5168,
      "à¤¹à¤°à¤¤à¤¨": 5169,
      "Ġà¤ªà¤¹à¤ļ": 5170,
      "Ġà¤¸à¤ľà¤¯": 5171,
      "Ġà¤¨à¤µà¤¯": 5172,
      "Ġà¤ļà¤¯à¤¤": 5173,
      "à¤ħà¤Ĺà¤°": 5174,
      "à¤¨à¤ªà¤¯à¤¤": 5175,
      "à¤¯à¤ľà¤¨": 5176,
      "à¤µà¤Ŀ": 5177,
      "à¤®à¤ľà¤²": 5178,
      "Ġà¤ľà¤Ĺà¤£": 5179,
      "à¤Ńà¤ķà¤°": 5180,
      "à¤¯à¤¨à¤°": 5181,
      "à¤¹à¤³à¤¡": 5182,
      "à¤°à¤µà¤ķ": 5183,
      "Ġà¤°à¤ķà¤¯à¤²": 5184,
      "Ġà¥¨à¥¦à¥¨à¥¦": 5185,
      "Ġà¤ķà¤¡à¤ķà¤¡à¤Ł": 5186,
      "à¤£à¤¹": 5187,
      "Ġà¤Ĺà¤µà¤³à¤£": 5188,
      "Ġà¤ªà¤°à¤§": 5189,
      "Ġà¤ļà¤¡à¤Łà¤¨": 5190,
      "à¤Ĩà¤µà¤¡à¤¨": 5191,
      "Ġà¤ħà¤ļà¤²": 5192,
      "Ġà¤¶à¤¬à¤°": 5193,
      "Ġà¤§à¤¬": 5194,
      "à¤¯à¤ķà¤¥": 5195,
      "à¤īà¤³": 5196,
      "Ġà¤ªà¤¡à¤£": 5197,
      "Ġà¤ĸà¤¬à¤°à¤ļ": 5198,
      "Ġà¤ªà¤¦à¤¸": 5199,
      "Ġà¥§à¥¯à¥ªà¥®": 5200,
      "Ġà¤ķà¤£à¤Ĺ": 5201,
      "Ġà¥§à¥¯à¥¯à¥¦": 5202,
      "à¤²à¤°à¤¶": 5203,
      "à¤¸à¤ªà¤°": 5204,
      "à¤ªà¤¢": 5205,
      "Ġà¤µà¤ł": 5206,
      "Ġà¤¦à¤·": 5207,
      "Ġà¤Ĩà¤¨à¤¯": 5208,
      "à¤Ľà¤µ": 5209,
      "Ġà¤¹à¤³à¤µ": 5210,
      "à¥į?": 5211,
      "à¤¡à¤ķà¤¤": 5212,
      "à¤ħà¤°à¤£": 5213,
      "à¤īà¤°à¤ļ": 5214,
      "à¤¤à¤¨à¤¶": 5215,
      "Ġà¤Ĩà¤ľà¤¹": 5216,
      "Ġà¤µà¤³à¤ĸà¤ª": 5217,
      "Ġà¤ıà¤ķà¤²à¤µ": 5218,
      "à¤²à¤Ńà¤µà¤¨": 5219,
      "Ġà¥§à¥§à¥ª": 5220,
      "à¥§à¥§à¥§à¥": 5221,
      "à¤¤à¤Ĺà¤¤": 5222,
      "à¤Ĺà¤ķà¤°": 5223,
      "Ġà¤ħà¤¬à¤²": 5224,
      "Ġà¤Ĺà¤¹": 5225,
      "à¤ĸà¤µà¤¤": 5226,
      "Ġà¤ĺà¤°à¤¸": 5227,
      "à¤¤à¤°à¤ľ": 5228,
      "à¤Ĺà¤°à¤ª": 5229,
      "à¤ĵà¤Ł": 5230,
      "à¤¹à¤¨à¤¦à¤¤": 5231,
      "à¤¯à¤ŀ": 5232,
      "à¤¯à¤«à¤³": 5233,
      "à¤¨à¤Ī": 5234,
      "à¤¸à¤³à¤³": 5235,
      "à¤Ĺà¤¸à¤²": 5236,
      "à¤Ńà¤Łà¤®": 5237,
      "à¥¦à¥©": 5238,
      "à¤ıà¤ķà¤°": 5239,
      "Ġà¤ķà¤³à¤µ": 5240,
      "à¤¯à¤¸à¤¤": 5241,
      "Ġà¤Ĩà¤¯à¤¨": 5242,
      "Ġà¤¸à¤¦à¤¨": 5243,
      "à¤¹à¤µà¤¨": 5244,
      "Ġà¤ªà¤ĸ": 5245,
      "à¤Łà¤µà¤°": 5246,
      "Ġà¤²à¤ķà¤²à¤ķ": 5247,
      "à¤¤à¤²à¤µ": 5248,
      "à¤Ĩà¤ļà¤°à¤£": 5249,
      "à¤łà¤¬": 5250,
      "Ġà¤Ĩà¤¡à¤ļ": 5251,
      "Ġà¤Ĩà¤¯à¤ľà¤¯": 5252,
      "Ġà¤«à¤¡à¤«à¤¡à¤Ł": 5253,
      "à¤¤à¤ĺ": 5254,
      "à¤¸à¤³à¤¸": 5255,
      "Ġà¤ĸà¤®": 5256,
      "à¤Ĩà¤¦à¤®": 5257,
      "Ġà¤§à¤µà¤¸": 5258,
      "Ġà¤ªà¤°à¤®à¤¹": 5259,
      "à¤ªà¤¨à¤¬": 5260,
      "à¤¤à¤³à¤²": 5261,
      "à¤®à¤¹à¤®": 5262,
      "à¤®à¤¶à¤¤": 5263,
      "à¤Ĩà¤Ĺà¤¶": 5264,
      "Ġà¤ĸà¤¡à¤¬à¤¡": 5265,
      "Ġà¥§à¥¯à¥¬à¥®": 5266,
      "Ġà¤ķà¤¦à¤°": 5267,
      "Ġà¤ķà¤µà¤£": 5268,
      "à¤®à¤«": 5269,
      "à¤¡à¤¹": 5270,
      "Ġà¤²à¤ª": 5271,
      "à¤ĩà¤Ŀ": 5272,
      "Ġà¥¨à¥«à¥¦": 5273,
      "Ġà¥§à¥¨à¥§": 5274,
      "Ġà¤ħà¤«à¤Ĺ": 5275,
      "à¤µà¤¦à¤¨": 5276,
      "à¤¸à¤¬à¤³": 5277,
      "Ġà¤Ĩà¤ķà¤¸": 5278,
      "à¤¡à¤¤à¤ļ": 5279,
      "Ġà¤¨à¤°à¤®": 5280,
      "à¤ĸà¤¤à¤¤": 5281,
      "à¤µà¤²à¤¯": 5282,
      "à¥Į,": 5283,
      "Ġà¤īà¤ªà¤Ĺ": 5284,
      "Ġà¤ıà¤¬": 5285,
      "à¤ĳà¤¨à¤²": 5286,
      "ang": 5287,
      "à¤²à¤¢": 5288,
      "à¤®à¤¤à¤²": 5289,
      "Ġà¤ľà¤Ĺà¤®": 5290,
      "Ġà¤¬à¤ķà¤°": 5291,
      "Ġà¤Ĺà¤µà¤¯": 5292,
      "à¤¯à¤¨à¤ļ": 5293,
      "à¤Ľà¤ª": 5294,
      "à¤²à¤ķà¤®": 5295,
      "Ġà¤ľà¤¯à¤¹": 5296,
      "Ġà¥§à¥¯à¥Ńà¥©": 5297,
      "à¤¤à¤¬à¤¦": 5298,
      "à¤ľà¤¯à¤¦": 5299,
      "Ġà¤Ĺà¤Ŀà¤²": 5300,
      "à¤¹à¤³à¤³à¤¯": 5301,
      "Ġà¤¤à¤¡à¤«": 5302,
      "Ġà¤²à¤µà¤ķà¤°": 5303,
      "Ġà¥§à¥¯à¥Ńà¥«": 5304,
      "à¤²à¤ªà¤²": 5305,
      "à¤¨à¤¯à¤²": 5306,
      "à¤¨à¤ķà¤²": 5307,
      "Ġà¤¹à¤¥": 5308,
      "Ġà¤ĩà¤¡à¤²": 5309,
      "..?": 5310,
      "à¤ħà¤µà¤°": 5311,
      "Ġà¥§à¥¦à¥¬": 5312,
      "bh": 5313,
      "à¤®à¤®à¤°à¤£": 5314,
      "Ġà¤®à¤¹à¤ľ": 5315,
      "à¤¶à¤Ļ": 5316,
      "à¤ľà¤®à¤¤": 5317,
      "à¤ģà¤ģ": 5318,
      "Ġà¤¸à¤¦à¤Ĺ": 5319,
      "Ġà¥§à¥¯à¥Ńà¥¯": 5320,
      "à¤°à¤ĸà¤£": 5321,
      "à¤¨à¤ľà¤°": 5322,
      "Ġà¤ļà¤°à¤ļà¤°": 5323,
      "Ġà¤¶à¤Ĺ": 5324,
      "Ġà¤«à¤ľ": 5325,
      "Ġà¤ıà¤ķà¤ıà¤ķà¤²": 5326,
      "à¤ĺà¤¶": 5327,
      "à¤¤à¤ķà¤µ": 5328,
      "Ġà¤ĵà¤¡à¤¤": 5329,
      "à¤Ĩà¤ªà¤¯à¤¤": 5330,
      "Ġà¤¢à¤Ĺ": 5331,
      "à¤°à¤ªà¤£à¤¸": 5332,
      "Ġà¤¸à¤¤à¤°à¤ķ": 5333,
      "Ġà¤¤à¤Ń": 5334,
      "à¤¦à¤°à¤¸": 5335,
      "à¤³à¤µà¤ª": 5336,
      "à¤¶à¤µà¤¨": 5337,
      "Ġà¤Ĩà¤¯à¤¦": 5338,
      "à¤·à¤£à¤ķ": 5339,
      "Ġà¤ħà¤ķà¤Ł": 5340,
      "à¤Łà¤¨à¤°": 5341,
      "à¥§à¥¦à¥¬": 5342,
      "à¤ķà¤µà¤¸": 5343,
      "Ġà¤¤à¤®à¤ķ": 5344,
      "Ġà¤¸à¤ľà¤²": 5345,
      "Ġà¤¦à¤°à¤®": 5346,
      "Ġà¤¶à¤¦": 5347,
      "à¤¤à¤°à¤ªà¤Ł": 5348,
      "Ġà¤ªà¤°à¤ª": 5349,
      "Ġà¤µà¤°à¤¦à¤ķ": 5350,
      "à¥¦à¥¨": 5351,
      "à¤Ĭà¤Ł": 5352,
      "Ġà¤Ĩà¤łà¤¯à¤²": 5353,
      "Ġà¤īà¤Ńà¤¯": 5354,
      "à¤²à¤µà¤°": 5355,
      "à¤µà¤Łà¤²": 5356,
      "à¤¬à¤¯à¤¸": 5357,
      "Ġà¤īà¤®à¤°": 5358,
      "à¤ħà¤²à¤ķ": 5359,
      "à¤Łà¤ķà¤¸à¤°": 5360,
      "à¤¯à¤®à¤¹": 5361,
      "à¤ªà¤³à¤¯à¤¤à¤²": 5362,
      "à¤ĵà¤³": 5363,
      "Ġà¤Ĩà¤µà¤¯à¤ªà¤£": 5364,
      "Ġà¥¨à¥¦à¥¦à¥§": 5365,
      "Ġà¤ªà¤¯à¤¸à¤²": 5366,
      "Ġà¤§à¤¡à¤ªà¤¡à¤¤": 5367,
      "à¤¤à¤ķà¤°à¤£": 5368,
      "Ġà¤¬à¤¬à¤¨": 5369,
      "Ġà¤«à¤¨": 5370,
      "à¤ķà¤°à¤¦": 5371,
      "Ġà¤ĵà¤µà¤³": 5372,
      "à¤ıà¤¶": 5373,
      "à¤§à¤µà¤®": 5374,
      "à¤°à¤¶à¤¨": 5375,
      "à¤°à¤Ļ": 5376,
      "Ġà¤¹à¤Ĺ": 5377,
      "Ġà¤ķà¤°à¤®à¤³": 5378,
      "à¤Ĺà¤²à¤ķ": 5379,
      "à¤ıà¤ķà¤¨": 5380,
      "Ġà¤¦à¤°à¤µà¤°": 5381,
      "Ġà¤Ĩà¤¹à¤²": 5382,
      "Ġà¥§à¥¯à¥Ńà¥¦": 5383,
      "à¤ľà¤¯à¤¤à¤²": 5384,
      "Ġà¤¬à¤¸à¤¤à¤ķà¤ļ": 5385,
      "Ġà¤¥à¤°à¤¯à¤²": 5386,
      "Ġà¤ıà¤¡à¤µà¤°": 5387,
      "Ġà¤¸à¤²à¤µ": 5388,
      "Ġà¤ħà¤¬à¤°": 5389,
      "Ġà¤ħà¤ŀ": 5390,
      "Ġà¤Ĩà¤¯à¤²à¤²": 5391,
      "à¤ıà¤ķà¤µà¤ļà¤¨": 5392,
      "Ġà¤īà¤ªà¤ķà¤°à¤¨": 5393,
      "Ġà¤¸à¤¨à¤¦": 5394,
      "Ġà¤Ĺà¤¡à¤¬à¤¡à¤²": 5395,
      "Ġà¥¦à¥®": 5396,
      "Ġà¤·à¤Ł": 5397,
      "Ġà¥§à¥¯à¥¬à¥Ń": 5398,
      "th": 5399,
      "à¤¸à¤³à¤¤": 5400,
      "Ġà¤ľà¤®à¤¦à¤Ĺ": 5401,
      "à¤¾.?": 5402,
      "à¤·à¤·": 5403,
      "Ġà¤ĵà¤£à¤µ": 5404,
      "Ġà¤ķà¤²à¤¸": 5405,
      "à¤¨à¤¥": 5406,
      "Ġà¤°à¤¸à¤°": 5407,
      "Ġà¤²à¤µà¤£": 5408,
      "à¤µà¤³à¤ļ": 5409,
      "à¤¨à¤µà¤µ": 5410,
      "à¥§à¥¨à¥ª": 5411,
      "Ġà¥§à¥¯à¥«à¥Ń": 5412,
      "Ġà¥§à¥¯à¥«à¥¯": 5413,
      "à¤ħà¤ļà¤³à¤¯": 5414,
      "à¥į...": 5415,
      "à¤¹à¤¯à¤²": 5416,
      "Ġà¤²à¤ķà¤£": 5417,
      "Ġà¤Ĩà¤¸à¤¤à¤ķà¤ļ": 5418,
      "Ġà¤¯à¤µà¤¨": 5419,
      "Ġà¤ıà¤ķà¤ķ": 5420,
      "à¤ķà¤¡à¤¨": 5421,
      "Ġà¤ªà¤¡à¤®": 5422,
      "à¤¬à¤¯à¤¤à¤²": 5423,
      "Ġà¤Ĩà¤Ĺà¤Ĺ": 5424,
      "à¥§à¥¨à¥¨": 5425,
      "Ġà¥¬à¥¦à¥§": 5426,
      "Ġà¥¦à¥¦à¥§": 5427,
      "à¤°à¤¡à¤²": 5428,
      "à¤¯à¤¸à¤²": 5429,
      "Ġà¤ķà¤¸à¤¤": 5430,
      "à¤Łà¤µà¤¨": 5431,
      "à¥¦à¥¬": 5432,
      "Ġà¤Ĩà¤¯à¤ķà¤¤à¤ķ": 5433,
      "à¤ħà¤¶à¤ķ": 5434,
      "Ġà¤ķà¤ļà¤ķà¤ļ": 5435,
      "Ġà¤®à¤¢": 5436,
      "à¤¡à¤µà¤³": 5437,
      "à¤¦à¤¯à¤¸": 5438,
      "à¤°à¤£à¤¶": 5439,
      "Ġà¤īà¤¦à¤Ĺ": 5440,
      "Ġà¤ĳà¤¸à¤Ł": 5441,
      "Ġà¥§à¥¯à¥ªà¥¨": 5442,
      "à¤ķà¤Łà¤ªà¤¤": 5443,
      "Ġà¥§à¥¦à¥¨": 5444,
      "Ġà¤¬à¤ļà¤ļ": 5445,
      "Ġà¥§à¥¯à¥®à¥ª": 5446,
      "Ġà¤ķà¤¸à¤ķ": 5447,
      "Ġà¤Ĩà¤¯à¤Ĩà¤¯à¤Ł": 5448,
      "à¤¬à¤³à¤ķ": 5449,
      "à¤¬à¤¦à¤²à¤ª": 5450,
      "à¤Ĩà¤°à¤ķ": 5451,
      "à¤°à¤²à¤²": 5452,
      "Ġà¥§à¥¨à¥Ń": 5453,
      "Ġà¥¨à¥¦à¥¦à¥©": 5454,
      "à¤°à¤ł": 5455,
      "à¤¨à¤®à¤°": 5456,
      "à¤Łà¤µà¤²": 5457,
      "Ġà¤¨à¤ĸà¤°": 5458,
      "Ġà¤ķà¤°à¤®à¤£": 5459,
      "à¤¦à¤°à¤²": 5460,
      "à¤īà¤¡à¤ķ": 5461,
      "Ġà¤īà¤²à¤Ĺà¤¡": 5462,
      "à¤ĩà¤¹": 5463,
      "à¤ıà¤£": 5464,
      "Ġà¤Ĺà¤ľà¤²": 5465,
      "à¤¤à¤ļà¤¡": 5466,
      "Ġà¤Ńà¤Łà¤ªà¤£": 5467,
      "Ġà¥§à¥¯à¥¬à¥ª": 5468,
      "Ġà¥§à¥¯à¥®à¥§": 5469,
      "à¤¸à¤µà¤¨": 5470,
      "Ġà¤ķà¤£à¤ķ": 5471,
      "à¤£à¤µà¤°": 5472,
      "Ġà¤¹à¤£à¤ľ": 5473,
      "à¤łà¤¯à¤¤": 5474,
      "à¤®à¤¨à¤¯à¤¤": 5475,
      "Ġà¤ķà¤³à¤ķà¤³": 5476,
      "Ġà¤²à¤Ĺà¤Ńà¤Ĺ": 5477,
      "à¤µà¤§à¤¨": 5478,
      "à¤¸à¤¦à¤°": 5479,
      "à¤Łà¤°à¤ļ": 5480,
      "Ġà¤¨à¤«": 5481,
      "Ġà¤Ĩà¤®à¤¸": 5482,
      "Ġà¤Ŀà¤±": 5483,
      "à¤ıà¤ıà¤¸": 5484,
      "à¤°à¤¦à¤¸": 5485,
      "à¤°à¤¦à¤®": 5486,
      "à¤¹à¤¤à¤µ": 5487,
      "Ġà¥§à¥¯à¥ªà¥«": 5488,
      "à¤ļà¤µà¤¦": 5489,
      "Ġà¥§à¥¯à¥¯à¥¨": 5490,
      "Ġà¤ªà¤¯à¤°à¤ļ": 5491,
      "à¤ķà¤µà¤²": 5492,
      "à¤ĺà¤¡à¤ª": 5493,
      "Ġà¤«à¤³à¤«à¤³": 5494,
      "Ġà¤Ĺà¤³à¤¸à¤°": 5495,
      "à¤Ĩà¤ªà¤Ĩà¤ªà¤²": 5496,
      "Ġà¥§à¥¯à¥¬à¥©": 5497,
      "Ġà¤¤à¤³à¤®à¤³à¤¤": 5498,
      "à¤ľà¤Ĺà¤¨": 5499,
      "à¤ľà¤Ĺà¤¦": 5500,
      "Ġà¤²à¤ķà¤²": 5501,
      "à¤Ńà¤§": 5502,
      "à¥Ĥà¤Ĥà¥¤": 5503,
      "Ġà¤ĵà¤ķà¤²": 5504,
      "Ġà¤¶à¤¬à¤¯": 5505,
      "à¤ĳà¤ª": 5506,
      "Ġà¤µà¤¯à¤°à¤¸": 5507,
      "Ġà¤Ŀà¤³à¤ķà¤²": 5508,
      "Ġà¤īà¤¥à¤³": 5509,
      "à¤Ńà¤¡": 5510,
      "à¤¾?...": 5511,
      "à¤½à¤¦": 5512,
      "Ġà¤ľà¤²à¤¦": 5513,
      "à¥Ĥà¤ģ?": 5514,
      "à¤¨à¤°à¤ª": 5515,
      "à¤ªà¤ªà¤¤": 5516,
      "à¤Ńà¤°à¤¸": 5517,
      "Ġà¤®à¤¨à¤¯": 5518,
      "à¤°à¤µà¤¯": 5519,
      "à¤µà¤³à¤¤": 5520,
      "à¤¼à¥ĩ,": 5521,
      "Ġà¤ıà¤µà¤¨": 5522,
      "à¤§à¤¨à¤ķ": 5523,
      "Ġà¤ªà¤£à¤¤": 5524,
      "Ġà¤īà¤¸à¤³à¤ª": 5525,
      "Ġà¥§à¥©à¥Ń": 5526,
      "à¤ķà¤µà¤¡": 5527,
      "Ġà¤¦à¤¸à¤²": 5528,
      "à¤¯à¤¤à¤ļ": 5529,
      "à¤ħà¤µà¤§": 5530,
      "Ġà¤¸à¤°à¤¤à¤ķà¤ļ": 5531,
      "Ġà¤ľà¤£à¤ıà¤ķà¤²": 5532,
      "à¤ĺà¤¡à¤¯à¤²": 5533,
      "à¤£à¤µà¤ª": 5534,
      "à¤ħà¤ľà¤¯": 5535,
      "Ġà¤ªà¤°à¤£": 5536,
      "Ġà¤Ĳà¤°": 5537,
      "Ġà¤ħà¤µà¤¦": 5538,
      "Ġà¥¨à¥¦à¥¦à¥¨": 5539,
      "à¤£à¤Ŀà¤£": 5540,
      "Ġà¤¶à¤ªà¤¥": 5541,
      "à¤§à¤¹": 5542,
      "à¤Ĩà¤¯à¤°": 5543,
      "à¤Ĩà¤¡à¤ķ": 5544,
      "à¤«à¤°à¤¨": 5545,
      "à¥§à¥¨à¥¬": 5546,
      "à¤²à¤ķà¤¤": 5547,
      "à¤ķà¤ĸ": 5548,
      "à¤ķà¤¸à¤®": 5549,
      "à¤Łà¤ĸ": 5550,
      "Ġà¤īà¤Ľ": 5551,
      "Ġà¤ļà¤°à¤ª": 5552,
      "Ġà¤ĩà¤¨à¤¸": 5553,
      "à¤ħà¤ł": 5554,
      "Ġà¤®à¤¨à¤ļ": 5555,
      "Ġà¤Ĩà¤łà¤¯à¤¤": 5556,
      "Ġà¤ħà¤¨à¤®à¤¨à¤²": 5557,
      "à¤¨à¤¸à¤®": 5558,
      "Ġà¤ªà¤Ľ": 5559,
      "Ġà¤µà¤¦à¤²": 5560,
      "Ġà¤Ńà¤¯à¤°": 5561,
      "à¤¸à¤°à¤¬": 5562,
      "Ġà¤ķà¤¹à¤ķà¤°": 5563,
      "Ġà¤§à¤¡à¤§à¤¡à¤Ł": 5564,
      "à¤²à¤¤à¤ķ": 5565,
      "à¤ľà¤¦à¤°à¤¬": 5566,
      "Ġà¤«à¤¤": 5567,
      "à¤īà¤¸à¤³": 5568,
      "Ġà¤ĺà¤°à¤ª": 5569,
      "Ġà¤ĵà¤ĸà¤¦": 5570,
      "à¤°à¤¶à¤°": 5571,
      "Ġà¥§à¥¯à¥©à¥«": 5572,
      "à¥§à¥©à¥¬": 5573,
      "Ġà¤°à¤¸à¤®": 5574,
      "à¤§à¤°à¤¤à¤°": 5575,
      "Ġà¤Ĩà¤µà¤¡à¤ļ": 5576,
      "à¤µà¤ķà¤µ": 5577,
      "Ġà¤ķà¤²à¤°": 5578,
      "à¤ĵà¤ł": 5579,
      "à¤ķà¤Łà¤ļ": 5580,
      "Ġà¤¢à¤®": 5581,
      "à¤Ĩà¤¡à¤®": 5582,
      "Ġà¥§à¥¯à¥Ńà¥¬": 5583,
      "Ġà¤¤à¤®à¤¸": 5584,
      "à¤®à¤²à¤¤": 5585,
      "à¤ľà¤ŀ": 5586,
      "à¤Łà¤°à¤ª": 5587,
      "..!": 5588,
      "à¤°à¤¸à¤µ": 5589,
      "à¤Ĺà¤°à¤ļ": 5590,
      "à¤µà¤³à¤³": 5591,
      "à¤µà¤³à¤ĸà¤²": 5592,
      "Ġà¤īà¤¤à¤³à¤¤": 5593,
      "Ġà¥§à¥¯à¥®à¥¨": 5594,
      "à¤¿...": 5595,
      "Ġà¤¸à¤ķà¤°": 5596,
      "à¤¹à¤µà¤ļ": 5597,
      "Ġà¤ªà¤Łà¤¯": 5598,
      "à¤¡à¤µà¤°": 5599,
      "Ġà¤ħà¤¡à¤²": 5600,
      "à¤ĸà¤µà¤£": 5601,
      "à¤ĵà¤®": 5602,
      "Ġà¥§à¥¯à¥©à¥¯": 5603,
      "à¤²à¤ªà¤Ł": 5604,
      "Ġà¥§à¥¯à¥®à¥¯": 5605,
      "à¤łà¤ķà¤°": 5606,
      "à¤Ľà¤ķ": 5607,
      "à¤¹à¤°à¤µ": 5608,
      "à¤ľà¤µà¤°": 5609,
      "Ġà¤°à¤¯à¤¤": 5610,
      "Ġà¤ļà¤ļ": 5611,
      "à¤µà¤¤à¤¯": 5612,
      "à¤½à¤¬": 5613,
      "à¤ļà¤²à¤¯à¤²": 5614,
      "Ġà¤Īà¤®": 5615,
      "Ġà¤Ńà¤Łà¤ķà¤³": 5616,
      "à¥ĩà¥¥": 5617,
      "Ġà¤Ĩà¤¤à¤°": 5618,
      "à¤Ĺà¤Łà¤²": 5619,
      "Ġà¤¹à¤®à¤¨": 5620,
      "à¤ĸà¤³à¤ĸ": 5621,
      "à¤Ĺà¤²à¤Ł": 5622,
      "à¤Ŀà¤µ": 5623,
      "à¤Ľà¤Ł": 5624,
      "Ġà¤łà¤ª": 5625,
      "à¤¸à¤¡à¤¸à¤¡": 5626,
      "Ġà¤®à¤¯à¤ª": 5627,
      "à¤Ĩà¤µà¤¤": 5628,
      "à¤°à¤¤à¤Ń": 5629,
      "Ġà¤®à¤¨à¤ľ": 5630,
      "à¤°à¤®à¤ª": 5631,
      "à¥§à¥¦à¥§": 5632,
      "à¤īà¤ªà¤ķà¤²à¤®": 5633,
      "Ġà¤ªà¤°à¤µà¤¡à¤¨": 5634,
      "à¤°à¤¯à¤¸": 5635,
      "à¤ķà¤ķà¤°": 5636,
      "à¤¸à¤ķà¤¡": 5637,
      "à¤¸à¤½": 5638,
      "à¤¡à¤¨à¤ļ": 5639,
      "à¤¶à¤µà¤£": 5640,
      "à¤ľà¤³à¤¤": 5641,
      "Ġà¤ļà¤µà¤°": 5642,
      "à¤¥à¤®à¤¹": 5643,
      "à¤¯à¤¤à¤£": 5644,
      "à¤¹à¤£à¤Łà¤ļ": 5645,
      "Ġà¤Ĺà¤°à¤ľà¤ļ": 5646,
      "Ġà¤Ĳà¤ķà¤¤": 5647,
      "Ġà¤µà¤Łà¤ļ": 5648,
      "Ġà¤§à¤¨à¤¦": 5649,
      "Ġd": 5650,
      "à¤Ĺà¤«": 5651,
      "Ġà¤®à¤¤à¤®": 5652,
      "Ġà¤ªà¤±": 5653,
      "à¤¶à¤°à¤¦": 5654,
      "Ġà¤Ĺà¤Ĺ": 5655,
      "Ġà¤īà¤ªà¤ª": 5656,
      "Ġà¤ķà¤¡à¤¯": 5657,
      "à¥ªà¥¦à¥¦": 5658,
      "Ġà¥§à¥©à¥«": 5659,
      "Ġà¤¨à¤ªà¤¯à¤¤": 5660,
      "à¤ĭà¤Ĺ": 5661,
      "à¤ľà¤¬à¤°à¤¦à¤¸": 5662,
      "à¤°à¤Ĺà¤°": 5663,
      "à¤ļà¤ªà¤¦": 5664,
      "Ġà¤ħà¤¡à¤ļ": 5665,
      "Ġà¤ļà¤ªà¤²": 5666,
      "à¤Ĩà¤ĩ": 5667,
      "Ġà¤µà¤°à¤°": 5668,
      "à¤Īà¤¯": 5669,
      "à¤°à¤¯à¤¤à¤²": 5670,
      "Ġà¤®à¤łà¤¯": 5671,
      "à¥Ńà¥¦à¥Ń": 5672,
      ",,": 5673,
      "à¤¤à¤±": 5674,
      "à¤²à¤µà¤ª": 5675,
      "à¤µà¤¹à¤¨": 5676,
      "à¤¦à¤µà¤¨": 5677,
      "à¤¦à¤³à¤Ł": 5678,
      "à¤¯à¤¤à¤¤": 5679,
      "Ġà¤ıà¤ħ": 5680,
      "Ġà¤®à¤¹à¤¦": 5681,
      "à¥Ńà¥Ńà¥Ń": 5682,
      "Ġà¥§à¥¯à¥«à¥©": 5683,
      "Ġà¥§à¥¯à¥Ńà¥ª": 5684,
      "à¤¡à¤¤à¤°à¤ķ": 5685,
      "Ġà¤¨à¤ĸà¤²": 5686,
      "Ġà¤¬à¤¡à¤µ": 5687,
      "Ġà¤ĸà¤£à¤Ł": 5688,
      "à¤°à¤ķà¤¸": 5689,
      "à¤ħà¤Ŀ": 5690,
      "Ġà¥§à¥©à¥§": 5691,
      "Ġà¤¦à¤¹à¤¨": 5692,
      "à¤§à¤§à¤°": 5693,
      "Ġà¤Ĺà¤ľà¤¬à¤ľ": 5694,
      "Ġà¤ħà¤¦à¤Ń": 5695,
      "à¥§à¥©à¥¨": 5696,
      "Ġà¥§à¥¯à¥Ńà¥§": 5697,
      "à¤°à¤ŀ": 5698,
      "à¤Ĺà¤°à¤²": 5699,
      "à¤Ĺà¤Ī": 5700,
      "à¤ķà¤°à¤°": 5701,
      "à¤°à¤£à¤ķ": 5702,
      "à¤¯à¤¨à¤®": 5703,
      "à¤¦à¤¨à¤®": 5704,
      "à¤¯à¤¶à¤ķ": 5705,
      "Ġà¥§à¥¯à¥¨à¥¦": 5706,
      "à¤Ĩà¤ľà¤ļ": 5707,
      "à¤Ńà¤Ĺà¤µà¤¤": 5708,
      "Ġà¤®à¤¡à¤ķà¤¯à¤ķ": 5709,
      "à¤¶à¤¯à¤¤": 5710,
      "à¤Ĩà¤¸à¤ķ": 5711,
      "à¤µà¤ªà¤ļ": 5712,
      "à¤²à¤Ńà¤Ń": 5713,
      "à¤¤à¤¬à¤Ĺ": 5714,
      "à¤Ĺà¤¡à¤²": 5715,
      "à¤¦à¤ķà¤°": 5716,
      "Ġà¤²à¤«à¤¡": 5717,
      "à¤®à¤ķà¤³à¤¤": 5718,
      "Ġà¤Ŀà¤°à¤¤": 5719,
      "à¤¼à¥Ĥ": 5720,
      "Ġà¤ıà¤ħà¤°": 5721,
      "à¤¢à¤®": 5722,
      "Ġà¤łà¤£": 5723,
      "à¤īà¤ªà¤®": 5724,
      "Ġà¥§à¥¯à¥¯à¥Ń": 5725,
      "à¤¯à¤·": 5726,
      "Ġà¤ķà¤±": 5727,
      "à¤®à¤¸à¤¤": 5728,
      "à¤µà¤¨à¤¨": 5729,
      "à¤ħà¤µà¤²": 5730,
      "à¤īà¤«": 5731,
      "Ġà¤ķà¤³à¤¤à¤²": 5732,
      "Ġà¤Īà¤Ł": 5733,
      "à¤²à¤ķà¤²": 5734,
      "à¤µà¤Ĺà¤°": 5735,
      "Ġà¤²à¤µà¤²": 5736,
      "Ġà¤ĵà¤ľà¤¸": 5737,
      "Ġà¤ħà¤ľà¤®": 5738,
      "Ġà¤«à¤Łà¤µà¤²": 5739,
      "Ġà¤«à¤Łà¤«à¤Ł": 5740,
      "al": 5741,
      "à¤¨à¤¤à¤°": 5742,
      "à¤ķà¤¤à¤ķ": 5743,
      "à¤®à¤ŀ": 5744,
      "Ġà¤ĸà¤ªà¤¤": 5745,
      "à¤¸à¤°à¤µ": 5746,
      "à¤¹à¤¯à¤Ĺ": 5747,
      "à¤ĩà¤¨à¤ķ": 5748,
      "à¤ªà¤¡à¤¬": 5749,
      "Ġà¤¸à¤°à¤ķà¤¤": 5750,
      "Ġà¥¨à¥¦à¥¨à¥§": 5751,
      "à¤īà¤Ĺà¤¡à¤²": 5752,
      "à¤°à¤µà¤ļ": 5753,
      "à¤®à¤«à¤²": 5754,
      "Ġà¤¨à¤µà¤ª": 5755,
      "Ġà¤¨à¤Łà¤¯": 5756,
      "à¤¥à¤¦": 5757,
      "à¤°à¤ķà¤¨": 5758,
      "à¤«à¤«": 5759,
      "à¤¤à¤¨à¤¯": 5760,
      "Ġà¤ªà¤¡à¤Łà¤¨": 5761,
      "Ġà¤ĸà¤¤à¤ĸà¤¤à¤¤": 5762,
      "Ġà¤ĺà¤³à¤ĺà¤³": 5763,
      "à¤µà¤ŀ": 5764,
      "à¤£à¤µà¤¯": 5765,
      "à¤¹à¤°à¤®": 5766,
      "à¤¬à¤³à¤¯": 5767,
      "Ġà¤ħà¤¹à¤²": 5768,
      "Ġà¤§à¤µà¤¶": 5769,
      "à¤°à¤Ńà¤µ": 5770,
      "Ġà¤®à¤¦à¤¦": 5771,
      "à¤ĵà¤¥": 5772,
      "Ġà¥§à¥¯à¥ªà¥¯": 5773,
      "Ġà¥§à¥©à¥¦": 5774,
      "à¤ķà¤¬à¤²": 5775,
      "à¥ĩà¤Ĥà¤ĥ": 5776,
      "à¤¬à¤³à¤Ł": 5777,
      "à¤Ĺà¤¡à¤¬à¤¡": 5778,
      "Ġà¤µà¤ļà¤¯": 5779,
      "à¤ŀà¤®": 5780,
      "Ġà¤ªà¤¡à¤²à¤²": 5781,
      "à¤¨à¤ļà¤¡": 5782,
      "Ġà¥§à¥¯à¥§à¥®": 5783,
      "à¤ļà¤°à¤°": 5784,
      "à¤§à¤µà¤¬": 5785,
      "à¤ķà¤µà¤ļ": 5786,
      "Ġà¤¹à¤¡à¤ª": 5787,
      "Ġà¤¯à¤ª": 5788,
      "Ġà¤ªà¤°à¤µà¤°": 5789,
      "à¤¹à¤¤à¤¯": 5790,
      "Ġà¥§à¥¯à¥ªà¥¦": 5791,
      "Ġà¥§à¥ªà¥©": 5792,
      "à¤®à¤°à¤ļ": 5793,
      "Ġà¤¦à¤Ł": 5794,
      "à¤ŀà¤ķ": 5795,
      "Ġà¥§à¥ªà¥¦": 5796,
      "à¤ıà¤µà¤¢": 5797,
      "Ġà¤®à¤Ľà¤²": 5798,
      "à¤¹à¤°à¤ķà¤¤": 5799,
      "à¤¸à¤²à¤°": 5800,
      "Ġà¤ĺà¤°à¤µ": 5801,
      "à¤Ľà¤¦": 5802,
      "à¤Ľà¤ĸ": 5803,
      "à¤²à¤ķà¤µ": 5804,
      "à¤¯à¤¦à¤³": 5805,
      "à¤¬à¤¸à¤µà¤£": 5806,
      "Ġà¤ªà¤°à¤®à¤³à¤Ł": 5807,
      "Ġà¥§à¥©à¥©": 5808,
      "Ġà¥§à¥¯à¥«à¥¨": 5809,
      "à¤°à¤°à¤¥": 5810,
      "à¤³à¤Ĺà¤ª": 5811,
      "Ġà¤µà¤µà¤°": 5812,
      "Ġà¤ļà¤ªà¤³": 5813,
      "à¤§à¤Ń": 5814,
      "Ġà¤Ĩà¤µà¤¦": 5815,
      "à¤¯à¤¬à¤¨": 5816,
      "Ġ!!!": 5817,
      "à¥Ģà¥¥": 5818,
      "Ġà¤¤à¤µà¤¡à¤ķ": 5819,
      "à¤£à¤§": 5820,
      "Ġà¤µà¤ŀ": 5821,
      "à¤°à¤¤à¤¤": 5822,
      "à¤ķà¤°à¤£à¤ķ": 5823,
      "à¤¼à¥Ī": 5824,
      "Ġà¤ķà¤³à¤ķ": 5825,
      "Ġà¤Ĳà¤ķà¤²": 5826,
      "Ġà¥¨à¥¦à¥§à¥Ń": 5827,
      "à¤¤à¤Ĺà¤£": 5828,
      "à¤²à¤µà¤¸": 5829,
      "à¤²à¤¸à¤£": 5830,
      "à¤²à¤ĸà¤¨": 5831,
      "à¤ªà¤µà¤¤": 5832,
      "à¤£à¤ĸ": 5833,
      "à¤ľà¤ķà¤¤": 5834,
      "Ġà¤¬à¤¦à¤ķ": 5835,
      "Ġà¤²à¤Ń": 5836,
      "à¤¯à¤¤à¤¶": 5837,
      "à¤ħà¤µà¤ķ": 5838,
      "à¤ªà¤°à¤Ĺà¤Ł": 5839,
      "à¤ķà¤³à¤²": 5840,
      "à¤ķà¤³à¤Łà¤²": 5841,
      "Ġà¤Ľà¤²": 5842,
      "à¤ľà¤¸à¤Ń": 5843,
      "Ġà¤ĸà¤£à¤²": 5844,
      "Ġà¥§à¥¯à¥®à¥©": 5845,
      "à¤¨à¤ªà¤Ł": 5846,
      "Ġà¤ķà¤°à¤Ł": 5847,
      "à¤Ĩà¤³à¤¶": 5848,
      "Ġà¤Ĩà¤ªà¤ľ": 5849,
      "à¤¹à¤ľà¤°": 5850,
      "à¤īà¤°à¤ª": 5851,
      "Ġà¤¨à¤µà¤®": 5852,
      "Ġà¤ªà¤¦à¤¯": 5853,
      "Ġà¤¸à¤®à¤Ŀà¤¨": 5854,
      "à¥¦à¥¦à¥¦à¥¦à¥¦à¥¦à¥¦à¥¦à¥¦à¥¦à¥¦à¥¦à¥¦à¥¦à¥¦à¥¦à¥¦à¥¦à¥¦à¥¦à¥¦à¥¦à¥¦à¥¦à¥¦à¥¦à¥¦à¥¦à¥¦à¥¦à¥¦à¥¦": 5855,
      "Ġà¤į": 5856,
      "à¤¤à¤¤à¤®": 5857,
      "à¤¯à¤®à¤¤": 5858,
      "à¤²à¤§": 5859,
      "Ġà¤Ĩà¤°à¤£": 5860,
      "à¤Ĺà¤²à¤¬": 5861,
      "à¤¼à¥ģ": 5862,
      "Ġà¤ªà¤°à¤¤à¤ªà¤°à¤¤": 5863,
      "à¤¹à¤°à¤¦": 5864,
      "à¥§à¥ªà¥¦": 5865,
      "Ġà¥§à¥¯à¥Ńà¥®": 5866,
      "Ġà¤ľà¤³à¤ľà¤³": 5867,
      "à¤µà¤½": 5868,
      "Ġà¤®à¤³à¤¯": 5869,
      "Ġà¤Ńà¤°à¤¯": 5870,
      "à¤¯à¤°à¤¨": 5871,
      "Ġà¤Ĩà¤µà¤¡à¤ª": 5872,
      "à¤ŀà¤µà¤²": 5873,
      "à¤¨à¤¸à¤Ĺ": 5874,
      "à¤¸à¤¦à¤¸": 5875,
      "Ġà¤¤à¤¨à¤®à¤¨": 5876,
      "à¤ľà¤Ńà¤µà¤¨": 5877,
      "à¤ķà¤¸à¤¤": 5878,
      "à¤ķà¤¤à¤ķà¤ļ": 5879,
      "Ġà¤¨à¤ªà¤¶": 5880,
      "Ġà¤ĸà¤¶": 5881,
      "à¤īà¤¤à¤³": 5882,
      "Ġà¤ĺà¤°à¤®": 5883,
      "à¤µà¤¸à¤Ń": 5884,
      "Ġà¤Ĩà¤¯à¤ª": 5885,
      "à¤·à¤£à¤¤à¤ľ": 5886,
      "à¤¢à¤µà¤³": 5887,
      "Ġà¤Ńà¤°à¤¸à¤¤": 5888,
      "à¤ľà¤¯à¤ª": 5889,
      "ur": 5890,
      "à¤¥à¤¯à¤ļ": 5891,
      "Ġà¤ªà¤³à¤²": 5892,
      "à¤µà¤¸à¤ķ": 5893,
      "Ġà¤ĵà¤¦": 5894,
      "Ġà¤ĵà¤¡à¤ļ": 5895,
      "à¤µà¤Łà¤³": 5896,
      "Ġà¤īà¤¡à¤¯à¤¨": 5897,
      "à¤¨à¤µà¤¤à¤²": 5898,
      "à¤ĵà¤¬": 5899,
      "Ġà¤Ĩà¤łà¤¯": 5900,
      "Ġà¤Ĩà¤łà¤§": 5901,
      "à¤ħà¤Ńà¤¯": 5902,
      "Ġà¥§à¥¨à¥®": 5903,
      "Ġà¤¸à¤°à¤¸à¤®": 5904,
      "Ġà¥§à¥¯à¥¯à¥¬": 5905,
      "?à¥¤": 5906,
      "à¤¸à¤¥": 5907,
      "à¤¸à¤®à¤£": 5908,
      "à¤Ĺà¤µà¤¨": 5909,
      "Ġà¤¸à¤µà¤¨": 5910,
      "Ġà¤¬à¤ĸ": 5911,
      "à¥Ģà¤Ĥ..": 5912,
      "à¤¤à¤¨à¤®": 5913,
      "à¤ıà¤ļà¤¡": 5914,
      "Ġà¤¬à¤¸à¤£": 5915,
      "Ġà¥§à¥ªà¥Ń": 5916,
      "Ġà¥§à¥¯à¥¬à¥«": 5917,
      "Ġà¤īà¤ªà¤¨à¤Ĺà¤°": 5918,
      "Ġà¤Ĩà¤¡à¤ĸà¤³à¤¤": 5919,
      "à¤µà¤Ĺà¤£": 5920,
      "Ġà¤ħà¤ªà¤¤": 5921,
      "Ġà¤§à¤¨à¤¸": 5922,
      "Ġà¤ĩà¤ķà¤¡": 5923,
      "à¤ªà¤°à¤£": 5924,
      "à¤µà¤²à¤¨": 5925,
      "à¤¯à¤°à¤¯": 5926,
      "à¤Īà¤Ŀ": 5927,
      "Ġà¤īà¤ªà¤ķà¤°à¤¤": 5928,
      "à¤°à¤ľà¤ķ": 5929,
      "à¤°à¤¹à¤µ": 5930,
      "Ġà¤ħà¤ķà¤ļ": 5931,
      "Ġà¥§à¥¨à¥¯": 5932,
      "à¤ĭà¤£": 5933,
      "à¤ķà¤µà¤¯": 5934,
      "Ġà¤Ĩà¤Łà¤ª": 5935,
      "Ġà¤®à¤ŀ": 5936,
      "Ġà¤¦à¤¬à¤°": 5937,
      "Ġà¤²à¤ķà¤¡": 5938,
      "à¤ĺà¤Łà¤®": 5939,
      "à¤°à¤£à¤ª": 5940,
      "à¤¯à¤¨à¤µ": 5941,
      "à¤Ĺà¤¡à¤¤": 5942,
      "à¤¯à¤£à¤¨": 5943,
      "Ġà¤īà¤¡à¤µ": 5944,
      "à¤ĵà¤ªà¤¥": 5945,
      "à¤°à¤¥à¤®à¤²": 5946,
      "Ġà¤ĺà¤Łà¤£": 5947,
      "Ġà¥§à¥¦à¥¦à¥¦": 5948,
      "à¥§à¥¬à¥¦": 5949,
      "Ġà¤ħà¤µà¤¨à¤¤": 5950,
      "à¤µà¤¯à¤¤à¤¨": 5951,
      "Ġà¤ķà¤Łà¤ķ": 5952,
      "à¤¡à¤¯à¤¨": 5953,
      "à¤¦à¤¸à¤°": 5954,
      "Ġà¤¹à¤°à¤²": 5955,
      "Ġà¤¬à¤¬à¤²": 5956,
      "à¤Ĩà¤ªà¤°": 5957,
      "à¤¦à¤¨à¤µà¤¨": 5958,
      "Ġà¤ªà¤¸à¤¯": 5959,
      "à¥¨à¥¦à¥§": 5960,
      "à¤¨à¤¸à¤²": 5961,
      "à¤¨à¤°à¤ľ": 5962,
      "Ġà¤¤à¤ĸ": 5963,
      "à¤£à¤®à¤§": 5964,
      "Ġà¤¬à¤¸à¤¤à¤¨": 5965,
      "à¤¯à¤²à¤ļ": 5966,
      "Ġà¤¶à¤°à¤¤": 5967,
      "à¤Ĩà¤²à¤®": 5968,
      "Ġà¤§à¤¯": 5969,
      "à¤ħà¤²à¤Ĺ": 5970,
      "à¤µà¤¤à¤®": 5971,
      "à¥§à¥©à¥ª": 5972,
      "à¥§à¥Ńà¥¦": 5973,
      "à¤¬à¤¦à¤²à¤²": 5974,
      "Ġà¤§à¤Ĺà¤§à¤Ĺà¤¤": 5975,
      ",.": 5976,
      "à¤¨à¤Ŀ": 5977,
      "à¤®à¤Łà¤²": 5978,
      "Ġà¤ªà¤²à¤¨": 5979,
      "à¤¦à¤³à¤³": 5980,
      "à¤Ńà¤µà¤ª": 5981,
      "à¤§à¤¡à¤ª": 5982,
      "à¤Ĩà¤³à¤¸": 5983,
      "à¤ħà¤¹à¤µ": 5984,
      "Ġà¤ıà¤¯": 5985,
      "Ġà¥§à¥¯à¥©à¥¨": 5986,
      "à¤Ĭà¤¬": 5987,
      "Ġà¥§à¥¯à¥¬à¥¯": 5988,
      "à¤²à¤®à¤°": 5989,
      "à¤³à¤Ŀ": 5990,
      "Ġà¤ļà¤Łà¤ķ": 5991,
      "Ġà¤¬à¤°à¤ĸ": 5992,
      "à¤Ŀà¤°à¤¤": 5993,
      "Ġà¤ļà¤¡à¤Łà¤²": 5994,
      "à¤ıà¤®à¤¸": 5995,
      "à¤Ļà¤ķ": 5996,
      "Ġà¤°à¤ķà¤¯à¤¤": 5997,
      "à¤Łà¤¤à¤Ł": 5998,
      "à¤°à¤¬à¤°": 5999,
      "Ġà¤Ĩà¤µà¤ļ": 6000,
      "Ġà¤ħà¤°à¤¤": 6001,
      "à¤Ĩà¤°à¤¬": 6002,
      "Ġà¤¬à¤°à¤¡": 6003,
      "Ġà¤Łà¤£": 6004,
      "à¤½à¤Ĺ": 6005,
      "à¤¯à¤¦à¤¯": 6006,
      "Ġà¤Ķà¤ļ": 6007,
      "à¥§à¥¦à¥Ń": 6008,
      "Ġà¤¬à¤¨à¤ķà¤°": 6009,
      "à¤®à¤§à¤²": 6010,
      "Ġà¥§à¥ªà¥§": 6011,
      "à¤²à¤Ī": 6012,
      "à¤Ĺà¤µà¤ª": 6013,
      "à¤ľà¤§à¤°": 6014,
      "à¤¬à¤±à¤¯": 6015,
      "Ġà¤īà¤¯": 6016,
      "Ġà¤ıà¤µà¤®": 6017,
      "à¤¸à¤ªà¤Łà¤¯": 6018,
      "à¤ļà¤²à¤¤à¤²": 6019,
      "à¤Ĭà¤¦": 6020,
      "Ġà¤°à¤¸à¤°à¤¸": 6021,
      "Ġà¤ħà¤²à¤°": 6022,
      "à¤ĸà¤¯à¤¤à¤¨": 6023,
      "à¤¤à¤ŀ": 6024,
      "à¤¹à¤§": 6025,
      "Ġà¤ħà¤¡à¤µ": 6026,
      "Ġà¤ħà¤Ĺà¤®": 6027,
      "à¤§à¤®à¤ķ": 6028,
      "Ġà¤«à¤°à¤®": 6029,
      "Ġà¤Ĩà¤ªà¤µà¤¨": 6030,
      "Ġà¤ĩà¤ª": 6031,
      "à¤Łà¤²à¤µ": 6032,
      "Ġà¤Ĩà¤Ĺà¤®": 6033,
      "à¥§à¥«à¥¨": 6034,
      "à¤¨à¤µà¤ľ": 6035,
      "Ġà¤ªà¤¸à¤±à¤¯": 6036,
      "à¤¹à¤£à¤°": 6037,
      "à¤µà¤ªà¤¯": 6038,
      "à¤Ĺà¤³à¤Ł": 6039,
      "à¤µà¤²à¤®": 6040,
      "Ġà¤Ĺà¤£à¤®à¤£": 6041,
      "à¤¡à¤¤à¤¨": 6042,
      "Ġà¤Ĩà¤¸à¤µ": 6043,
      "Ġà¤¯à¤µ": 6044,
      "à¤µà¤°à¤¬": 6045,
      "Ġà¤ĩà¤Ľ": 6046,
      "à¤Ĺà¤¤à¤¸": 6047,
      "Ġà¤ķà¤µà¤Ł": 6048,
      "à¤°à¤¯à¤µ": 6049,
      "à¤¸à¤¨à¤²": 6050,
      "Ġà¥§à¥¯à¥§à¥Ń": 6051,
      "Ġà¥§à¥«à¥§": 6052,
      "à¥§à¥¨à¥®": 6053,
      "à¤¨à¤Ĺà¤°à¤¸": 6054,
      "à¤ļà¤¡à¤ļ": 6055,
      "à¤¬à¤Ń": 6056,
      "à¤ķà¤°à¤¸": 6057,
      "à¤Ĺà¤¤à¤ļ": 6058,
      "à¤°à¤µà¤ł": 6059,
      "Ġà¤ħà¤¸à¤Ń": 6060,
      "Ġà¤ķà¤²à¤¯": 6061,
      "Ġà¤īà¤¬à¤²": 6062,
      "Ġà¥§à¥¯à¥©à¥ª": 6063,
      "à¥§à¥¦à¥«": 6064,
      "Ġà¥¦à¥Ń": 6065,
      "Ġà¤¤à¤µà¤³à¤ļ": 6066,
      "à¤ļà¤¯à¤¨": 6067,
      "Ġà¤ªà¤łà¤¨": 6068,
      "Ġà¤ıà¤ķà¤³": 6069,
      "à¤Ĺà¤²à¤®": 6070,
      "à¤ķà¤²à¤ļ": 6071,
      "à¤ķà¤¤à¤ļ": 6072,
      "Ġà¤ħà¤§à¤®": 6073,
      "à¤£à¤ķà¤Ł": 6074,
      "Ġà¥§à¥¨à¥ª": 6075,
      "à¥ģ...": 6076,
      "à¤ĸà¤²à¤¨": 6077,
      "à¤Īà¤Ĺ": 6078,
      "à¤µà¤ķà¤ļ": 6079,
      "Ġà¤ĸà¤°à¤µà¤¤": 6080,
      "Ġà¤ĸà¤°à¤ªà¤£": 6081,
      "Ġà¤ĳà¤¬": 6082,
      "à¤°à¤¬à¤¦à¤²": 6083,
      "Ġà¤¬à¤¸à¤¤à¤ķ": 6084,
      "à¤ľà¤¯à¤¨à¤Ĺà¤°à¤ļ": 6085,
      "ag": 6086,
      "Ġà¤ľà¤ªà¤²": 6087,
      "Ġà¤¦à¤¦à¤¶": 6088,
      "Ġà¤Ĺà¤Ń": 6089,
      "Ġà¤²à¤¯à¤¬": 6090,
      "à¤¯à¤²à¤ķ": 6091,
      "Ġà¤¶à¤®à¤¨": 6092,
      "à¤§à¤°à¤ļ": 6093,
      "Ġà¤ĺà¤¡à¤¯à¤¤à¤²": 6094,
      "à¤°à¤ĸà¤°à¤ĸ": 6095,
      "à¤Ĺà¤®à¤¯": 6096,
      "Ġà¤ĳà¤«à¤°": 6097,
      "Ġà¤ħà¤¬à¤ķ": 6098,
      "Ġà¤ªà¤°à¤µà¤¡à¤ª": 6099,
      "à¤·à¤¯à¤°": 6100,
      "à¤Ĩà¤µà¤¯à¤²": 6101,
      "Ġà¤µà¤°à¤¨": 6102,
      "à¤ģà¥¤": 6103,
      "à¥¨à¥«à¥¦": 6104,
      "Ġà¤µà¤³à¤¯à¤²": 6105,
      "à¤ħà¤¸à¤¹": 6106,
      "à¤īà¤ªà¤ľ": 6107,
      "Ġà¥§à¥«à¥«": 6108,
      "Ġà¤°à¤ĸà¤ķà¤°": 6109,
      "Ġà¤ķà¤Ľ": 6110,
      "Ġà¤Ĩà¤¡à¤¯": 6111,
      "Ġà¤¸à¤²à¤®": 6112,
      "à¤¶à¤²à¤¤": 6113,
      "Ġà¤ľà¤³à¤ļ": 6114,
      "à¤¬à¤°à¤®": 6115,
      "à¤¯à¤°à¤®": 6116,
      "à¤īà¤§à¤°": 6117,
      "Ġà¤ķà¤¡à¤¸à¤°": 6118,
      "à¤¶à¤¨à¤¯": 6119,
      "Ġà¤īà¤Ĺà¤¡à¤ļ": 6120,
      "Ġà¤§à¤¡à¤Ĺà¤¤": 6121,
      "Ġà¥§à¥¯à¥¬à¥¬": 6122,
      "à¤Ĺà¤®à¤°": 6123,
      "à¤¹à¤Ļ": 6124,
      "Ġà¤ľà¤¡à¤¸": 6125,
      "Ġà¤«à¤Łà¤¯": 6126,
      "à¤Ĺà¤³à¤ļ": 6127,
      "Ġà¤Ŀà¤£à¤Ŀà¤£": 6128,
      "à¤ĩà¤Łà¤²": 6129,
      "Ġà¤ħà¤¨à¤¯": 6130,
      "Ġà¤ķà¤¡à¤¸à¤°à¤²": 6131,
      "à¥¦à¥¦à¥Ń": 6132,
      "Ġà¥§à¥¯à¥¨à¥¯": 6133,
      "Ġà¤īà¤¸à¤³à¤³": 6134,
      "Ġà¤ĺà¤Łà¤ķà¤°": 6135,
      "à¥ĩà¤Ĥ...?": 6136,
      "Ġà¤ļà¤ķà¤ļà¤ķà¤ª": 6137,
      "Ġà¤ªà¤¢à¤¤": 6138,
      "à¤¹à¤¦à¤³à¤ļ": 6139,
      "à¤¬à¤¯à¤¨": 6140,
      "Ġà¤¬à¤°à¤Ĺ": 6141,
      "Ġà¤Ŀà¤°à¤¯à¤¤": 6142,
      "à¤¼à¥Ģà¥¤": 6143,
      "Ġà¤ĵà¤ªà¤¤": 6144,
      "Ġà¤ķà¤¡à¤¤": 6145,
      "Ġà¤ıà¤°à¤£": 6146,
      "à¤®à¤¤à¤®": 6147,
      "Ġà¤Ĩà¤¯à¤ķà¤¯": 6148,
      "à¤Ľà¤¸": 6149,
      "Ġà¤īà¤®à¤³à¤ª": 6150,
      "Ġà¥§à¥¨à¥¨": 6151,
      "Ġà¤īà¤ĸà¤²à¤ļ": 6152,
      "à¥Ńà¥Ńà¥¦": 6153,
      "à¥¯à¥¯à¥¯à¥¯à¥¯à¥¯à¥¯à¥¯à¥¯à¥¯à¥¯à¥¯à¥¯à¥¯à¥¯à¥¯": 6154,
      "Ġà¤ķà¤£à¤¯": 6155,
      "à¤¦à¤µà¤¤": 6156,
      "à¤ľà¤ĸà¤®": 6157,
      "Ġà¤ħà¤¦à¤°": 6158,
      "à¤¤à¤ķà¤Ńà¤°": 6159,
      "à¤¬à¤²à¤°": 6160,
      "à¤¸à¤±à¤°": 6161,
      "Ġà¤Ĩà¤łà¤¶": 6162,
      "Ġà¤ªà¤°à¤®à¤ª": 6163,
      "Ġà¤¹à¤ķà¤ķ": 6164,
      "ak": 6165,
      "à¤®à¤«à¤³": 6166,
      "à¤Ĺà¤Ĺà¤¨": 6167,
      "Ġà¤¦à¤®à¤Ł": 6168,
      "Ġà¤¨à¤ķà¤°": 6169,
      "Ġà¤¬à¤¦à¤®": 6170,
      "Ġà¤²à¤µà¤ļ": 6171,
      "à¤¹à¤³à¤¶": 6172,
      "à¤°à¤Ĺà¤Łà¤²": 6173,
      "à¤ŀà¤ª": 6174,
      "Ġà¤µà¤³à¤³": 6175,
      "Ġà¥§à¥¯à¥©à¥©": 6176,
      "à¤īà¤²à¤Ł": 6177,
      "Ġà¤¸à¤°à¤¤à¤ķ": 6178,
      "Ġà¥§à¥¯à¥¯à¥«": 6179,
      "à¤ªà¤Łà¤¨": 6180,
      "Ġà¤®à¤¯à¤¦": 6181,
      "à¤¶à¤°à¤¤à¤ļ": 6182,
      "à¤¬à¤¡à¤Ł": 6183,
      "à¤Ĩà¤ªà¤¯": 6184,
      "Ġà¤¥à¤ķà¤¤": 6185,
      "à¤®à¤ķà¤µ": 6186,
      "à¤ıà¤µà¤®": 6187,
      "à¤°à¤ľà¤°": 6188,
      "Ġà¤µà¤³à¤ª": 6189,
      "Ġà¤Ĩà¤łà¤µà¤²": 6190,
      "Ġà¤Ńà¤°à¤¤à¤¨": 6191,
      "Ġà¤µà¤·": 6192,
      "à¤¬à¤ķà¤°": 6193,
      "Ġà¤ļà¤°à¤ķ": 6194,
      "à¤ĺà¤Łà¤¸": 6195,
      "à¤¼à¥Ģ.": 6196,
      "Ġà¤ªà¤¦à¤®": 6197,
      "à¤ĵà¤¡à¤Ł": 6198,
      "Ġà¥§à¥¯à¥¨à¥®": 6199,
      "à¤¯à¤ªà¤¤": 6200,
      "à¤ļà¤ķà¤Ł": 6201,
      "à¤®à¤Łà¤ķ": 6202,
      "à¤³à¤µà¤¨": 6203,
      "Ġà¤¹à¤®à¤ķ": 6204,
      "à¤¬à¤¸à¤¨": 6205,
      "Ġà¤²à¤°": 6206,
      "à¤Ĩà¤ľà¤ķ": 6207,
      "Ġà¤Ĩà¤ªà¤¡": 6208,
      "à¤¯à¤ķà¤¨": 6209,
      "Ġà¤µà¤°à¤ª": 6210,
      "à¤ĩà¤¥": 6211,
      "Ġà¤īà¤ªà¤¸à¤°": 6212,
      "à¤ľà¤µà¤Łà¤ķ": 6213,
      "Ġà¤ľà¤²à¤ª": 6214,
      "à¤¶à¤ķà¤®": 6215,
      "à¤Ļà¤®": 6216,
      "à¥§à¥®à¥¦": 6217,
      "à¥§à¥ªà¥ª": 6218,
      "à¥§à¥ªà¥®": 6219,
      "Ġà¥§à¥©à¥¯": 6220,
      "Ġà¤ªà¤°à¤µà¤¡à¤²": 6221,
      "ri": 6222,
      "se": 6223,
      "à¤Ńà¤¯à¤¤": 6224,
      "à¥Ī...": 6225,
      "à¤īà¤¡à¤Ł": 6226,
      "à¤°à¤®à¤£à¤¯": 6227,
      "Ġà¤¸à¤°à¤Ĺ": 6228,
      "Ġà¤īà¤²à¤µà¤¨": 6229,
      "à¤ıà¤·": 6230,
      "Ġà¤ľà¤²à¤¸": 6231,
      "à¤¤à¤®à¤ª": 6232,
      "Ġà¤Ńà¤Łà¤£": 6233,
      "Ġà¥§à¥ªà¥«": 6234,
      "Ġà¤Ĩà¤ľà¤¨": 6235,
      "Ġà¤ªà¤ļà¤¤": 6236,
      "à¤¡à¤°à¤¸": 6237,
      "Ġà¤²à¤ķà¤²à¤ķà¤¤": 6238,
      "à¤ĸà¤ľ": 6239,
      "à¤°à¤¤à¤µ": 6240,
      "à¤°à¤¹à¤¸à¤¨": 6241,
      "à¤¯à¤£à¤¬": 6242,
      "Ġà¥§à¥¯à¥©à¥Ń": 6243,
      "à¤ķà¤Łà¤ª": 6244,
      "à¤¤à¤ĸà¤¡": 6245,
      "à¤¸à¤¹à¤µ": 6246,
      "à¤¹à¤²à¤ķ": 6247,
      "à¤¹à¤ļà¤°": 6248,
      "à¤ľà¤ĺ": 6249,
      "à¤Ńà¤µà¤¸": 6250,
      "à¤ķà¤²à¤µ": 6251,
      "Ġà¤īà¤²à¤µà¤¤": 6252,
      "Ġà¤Łà¤®": 6253,
      "Ġà¤ªà¤°à¤¤à¤¤à¤²": 6254,
      "Ġà¤µà¤³à¤µà¤¯à¤ķ": 6255,
      "Ġà¤ľà¤¨à¤°": 6256,
      "Ġà¥§à¥¯à¥§à¥¬": 6257,
      "Ġà¤Ńà¤°à¤¤à¤ķ": 6258,
      "à¤¦à¤µà¤°à¤¤à¤²": 6259,
      "à¤¿à¤ĥà¥¤": 6260,
      "à¤ĳà¤¨": 6261,
      "à¤¦à¤¶à¤®": 6262,
      "à¤®à¤¡à¤«": 6263,
      "à¤¤à¤¦à¤°": 6264,
      "à¤ķà¤±à¤¯": 6265,
      "à¤Ĺà¤°à¤¸": 6266,
      "à¤¬à¤ĺ": 6267,
      "Ġà¤Ńà¤Ĺà¤¸": 6268,
      "Ġà¤ĺà¤¨à¤¶": 6269,
      "à¤¿à¤Ĥà¥¤": 6270,
      "à¥ī,": 6271,
      "à¤²à¤¤à¤¤": 6272,
      "à¤³à¤ªà¤Ł": 6273,
      "Ġà¥§à¥¯à¥§à¥¯": 6274,
      "Ġà¤ıà¤¸à¤Ĩà¤¯à¤Ł": 6275,
      "à¥§à¥ªà¥¨": 6276,
      "à¤¤à¤ľà¤µ": 6277,
      "à¤ļà¤Ńà¤¶": 6278,
      "Ġà¤µà¤¡à¤²": 6279,
      "à¤ĺà¤¡à¤ļ": 6280,
      "à¤ķà¤¡à¤µ": 6281,
      "Ġà¤®à¤°à¤¯": 6282,
      "à¤°à¤¹à¤°à¤£": 6283,
      "Ġà¤µà¤¸à¤ª": 6284,
      "à¤¨à¤ļà¤°": 6285,
      "à¤¬à¤¸à¤ļ": 6286,
      "à¥¥à¥¥à¥¥à¥¥à¥¥à¥¥à¥¥à¥¥": 6287,
      "à¤¯à¤¯à¤®": 6288,
      "à¤ļà¤ľ": 6289,
      "à¤Ĺà¤µà¤³à¤£": 6290,
      "Ġà¤Ńà¤·": 6291,
      "Ġà¤¶à¤ª": 6292,
      "à¤·à¤°à¤®": 6293,
      "Ġà¤ĩà¤®à¤°": 6294,
      "à¤µà¤ļà¤°": 6295,
      "à¤ŀà¤¦": 6296,
      "à¤°à¤Ńà¤°à¤ļ": 6297,
      "Ġà¤ľà¤¨à¤Ĺà¤£à¤¨": 6298,
      "Ġà¥§à¥¯à¥¨à¥¬": 6299,
      "Ġà¤¬à¤¡à¤¬à¤¡à¤ª": 6300,
      "à¤¦à¤®à¤¨": 6301,
      "Ġà¤¦à¤®à¤¯": 6302,
      "Ġà¤ħà¤°à¤µà¤³": 6303,
      "à¤¹à¤£à¤¤à¤¨": 6304,
      "à¤¤à¤°à¤¶": 6305,
      "à¤łà¤Ł": 6306,
      "à¤īà¤¡à¤Ĺ": 6307,
      "à¤®à¤ķà¤Ł": 6308,
      "Ġà¥¥?": 6309,
      "à¤ħà¤¨à¤ª": 6310,
      "à¤®à¤Łà¤¤": 6311,
      ".......": 6312,
      "à¤²à¤Ĺà¤¤": 6313,
      "à¤ļà¤§": 6314,
      "à¤³à¤ĺ": 6315,
      "à¤Łà¤¯à¤¤à¤¨": 6316,
      "à¤¬à¤°à¤¤": 6317,
      "Ġà¥¨à¥¨à¥¨": 6318,
      "à¤¬à¤¡à¤¬à¤¡": 6319,
      "Ġà¥§à¥¯à¥§à¥¦": 6320,
      "Ġà¥§à¥¯à¥¨à¥Ń": 6321,
      "Ġà¤Ĩà¤Ĺà¤Ł": 6322,
      "Ġà¤ħà¤µà¤¤à¤°à¤²": 6323,
      "Ġà¤«à¤¡à¤«à¤¡à¤¤": 6324,
      "Ġà¤Ĩà¤¡à¤ĸà¤³à¤Ł": 6325,
      "à¤¥à¤°à¤¥à¤°à¤¤": 6326,
      "Ġà¤¾": 6327,
      "à¤µà¤¯à¤¸": 6328,
      "à¤Ĺà¤ĸ": 6329,
      "à¤ľà¤¯à¤°": 6330,
      "à¤Ĩà¤²à¤¤à¤¡": 6331,
      "à¤°à¤ķà¤Łà¤²": 6332,
      "Ġà¤®à¤¨à¤Ŀ": 6333,
      "à¤Ĺà¤°à¤¯": 6334,
      "à¤®à¤ķà¤³à¤ª": 6335,
      "Ġà¤Ŀà¤µ": 6336,
      "à¤¼à¥Į": 6337,
      "à¤ĩà¤¸à¤²": 6338,
      "Ġà¤ĸà¤°à¤¡": 6339,
      "Ġà¤ķà¤³à¤£": 6340,
      "Ġà¤®à¤¹à¤®à¤¦": 6341,
      "Ġà¤ķà¤¥à¤®": 6342,
      "à¤ķà¤³à¤µà¤³": 6343,
      "Ġà¥§à¥¯à¥©à¥§": 6344,
      "Ġà¤Ĳà¤¹": 6345,
      "Ġà¤ķà¤¹à¤²": 6346,
      "à¤Ĩà¤¯à¤ķà¤¤à¤²": 6347,
      "à¤¬à¤Īà¤¤": 6348,
      "à¤īà¤²à¤¯à¤¤à¤²": 6349,
      "à¤¾à¤Ĥà¤ĥ": 6350,
      "Ġà¤¤à¤«": 6351,
      "à¤ªà¤¦à¤®": 6352,
      "Ġà¤ªà¤łà¤£": 6353,
      "Ġà¤Ĺà¤¦à¤³": 6354,
      "Ġà¤§à¤µà¤²": 6355,
      "à¤ªà¤°à¤°": 6356,
      "à¥¨à¥©à¥¦": 6357,
      "à¤£à¤®à¤¯": 6358,
      "à¤¶à¤ªà¤°": 6359,
      "à¤§à¤ľ": 6360,
      "Ġà¤ĩà¤¹à¤²": 6361,
      "à¤ģ.": 6362,
      "Ġà¤ķà¤¥à¤¯": 6363,
      "à¥Ģà¥¤à¥¤": 6364,
      "Ġà¤¸à¤ªà¤¸à¤ª": 6365,
      "Ġà¥§à¥¬à¥Ń": 6366,
      "Ġà¥§à¥Ńà¥«": 6367,
      "à¤ıà¤®à¤ıà¤¸": 6368,
      "Ġà¤Ńà¤°à¤¸à¤£": 6369,
      "Ġà¤¸à¤°à¤®à¤³à¤ķ": 6370,
      "à¤ķà¤¹à¤¤": 6371,
      "Ġà¤ķà¤ªà¤¨": 6372,
      "à¤Ĺà¤®à¤¤": 6373,
      "Ġà¤¦à¤¸à¤¤": 6374,
      "à¤ĸà¤µà¤¨": 6375,
      "Ġà¤ıà¤ķà¤«": 6376,
      "Ġà¥¤,": 6377,
      "à¤ħà¤¸à¤®": 6378,
      "à¤ķà¤°à¤®à¤²": 6379,
      "à¤°à¤µà¤¯à¤ķ": 6380,
      "à¤¤à¤®à¤¹": 6381,
      "à¤ªà¤¯à¤±": 6382,
      "Ġà¥§à¥¯à¥©à¥¬": 6383,
      "à¥ĩà¥¤à¥¤": 6384,
      "à¤Ĩà¤µà¤¯à¤Ń": 6385,
      "Ġà¤¦à¤¶à¤²à¤ķ": 6386,
      "Ġà¤łà¤³à¤ķà¤ªà¤£": 6387,
      "as": 6388,
      "di": 6389,
      "à¤¯à¤¡à¤°": 6390,
      "à¤¨à¤µà¤ª": 6391,
      "Ġà¤¤à¤¡à¤µ": 6392,
      "à¤ªà¤®à¤¤": 6393,
      "Ġà¤Ĩà¤ĩà¤¤": 6394,
      "Ġà¤¸à¤ªà¤°": 6395,
      "Ġà¤ķà¤°à¤¬": 6396,
      "à¤¥à¤ķà¤¤": 6397,
      "Ġà¤Ĩà¤¯à¤ķà¤¤à¤ļ": 6398,
      "Ġà¥§à¥¯à¥©": 6399,
      "Ġà¤Ĩà¤µà¤¯à¤µ": 6400,
      "Ġà¤®à¤ľà¤¦": 6401,
      "à¤ļà¤¯à¤¤à¤²": 6402,
      "à¥§à¥¨à¥«": 6403,
      "Ġà¥§à¥©à¥¬": 6404,
      "Ġà¥§à¥ªà¥ª": 6405,
      "à¤ļà¤¹": 6406,
      "à¤ļà¤¡à¤¤": 6407,
      "à¤¸à¤ł": 6408,
      "à¤®à¤µà¤¤": 6409,
      "à¤¦à¤Ńà¤°": 6410,
      "à¤¶à¤¹à¤°": 6411,
      "Ġà¤¹à¤°à¤®à¤¨": 6412,
      "à¤Łà¤°à¤ķ": 6413,
      "à¤¬à¤ĸ": 6414,
      "à¤ĸà¤°à¤¤": 6415,
      "Ġà¤ªà¤°à¤§à¤°": 6416,
      "à¤¯à¤°à¤Ń": 6417,
      "Ġà¤Ŀà¤²": 6418,
      "Ġà¥¦à¥ª": 6419,
      "Ġà¤īà¤ĸà¤²à¤²": 6420,
      "Ġà¥§à¥©à¥®": 6421,
      "à¤°à¤°à¤¸": 6422,
      "à¤¤à¤®à¤£": 6423,
      "à¤¤à¤¸à¤®": 6424,
      "à¤¤à¤Ļ": 6425,
      "à¤¯à¤Ńà¤¶": 6426,
      "à¤¹à¤®à¤¨": 6427,
      "Ġà¤ļà¤µà¤³": 6428,
      "à¤·à¤®à¤£": 6429,
      "à¤µà¤ªà¤¦": 6430,
      "à¤µà¤°à¤°": 6431,
      "Ġà¤ĵà¤¡à¤£": 6432,
      "à¤¶à¤¨à¤¸": 6433,
      "Ġà¥§à¥¯à¥¨à¥«": 6434,
      "à¤£à¤¤à¤£": 6435,
      "Ġà¥§à¥¬à¥¦": 6436,
      "Ġà¤ªà¤ļà¤ªà¤ļ": 6437,
      "Ġà¤µà¤°à¤ķ": 6438,
      "Ġà¤ľà¤¯à¤¸": 6439,
      "Ġà¤Ĺà¤ľà¤¨": 6440,
      "à¤Ńà¤°à¤¯": 6441,
      "à¤Ĺà¤²à¤¦": 6442,
      "Ġà¤ħà¤¶à¤¯": 6443,
      "Ġà¤¬à¤°à¤¬à¤°": 6444,
      "à¤ĺà¤°à¤¦": 6445,
      "Ġà¤ħà¤ķà¤¦à¤®": 6446,
      "Ġà¥¤à¥¤à¥¤à¥¤": 6447,
      "à¤ªà¤°à¤¤à¤¤": 6448,
      "Ġà¤Ĺà¤¡à¤ķà¤°": 6449,
      "à¤ļà¤µà¤¤": 6450,
      "Ġà¤®à¤Ŀ": 6451,
      "Ġà¤²à¤Ĺà¤²": 6452,
      "à¤«à¤²à¤¤": 6453,
      "à¤Łà¤ķà¤³": 6454,
      "Ġà¤¡à¤Ŀà¤¨": 6455,
      "à¤ıà¤°à¤¨": 6456,
      "Ġà¤ĺà¤¡à¤ķ": 6457,
      "Ġà¤ľà¤¨à¤®à¤¤": 6458,
      "Ġà¤Ĭà¤¸": 6459,
      "à¤®à¤°à¤£à¤¶à¤ķ": 6460,
      "à¥§à¥¬à¥¨": 6461,
      "à¤²à¤¶à¤¹": 6462,
      "à¤ķà¤¸à¤°": 6463,
      "Ġà¤ķà¤¢": 6464,
      "à¤¦à¤·": 6465,
      "à¤¦à¤¡à¤ķ": 6466,
      "Ġà¤ľà¤³à¤ķ": 6467,
      "Ġà¤°à¤®à¤¨": 6468,
      "Ġ!...": 6469,
      "Ġà¤Ĩà¤¯à¤ıà¤ıà¤¸": 6470,
      "à¤µà¤£à¤¸": 6471,
      "à¥©à¥¦à¥¦": 6472,
      "à¤ķà¤³à¤¯à¤²": 6473,
      "à¤ĸà¤ķà¤®à¤³": 6474,
      "Ġà¤Ĭà¤¨": 6475,
      "à¥Ģ.....": 6476,
      "Ġà¥§à¥¨à¥¬": 6477,
      "à¤Ĳà¤¨": 6478,
      "Ġà¤Ŀà¤°à¤¯à¤²": 6479,
      "Ġà¤ħà¤Łà¤³": 6480,
      "Ġà¤¥à¤ªà¤¥à¤ª": 6481,
      "à¤°à¤¸à¤²": 6482,
      "à¤¿à¤¿": 6483,
      "Ġà¤Ĩà¤Łà¤¯": 6484,
      "à¤¬à¤°à¤ķ": 6485,
      "à¤ĸà¤ªà¤¤": 6486,
      "Ġà¤īà¤¸à¤µ": 6487,
      "Ġà¤ķà¤°à¤¯à¤²": 6488,
      "à¤µà¤¨à¤ª": 6489,
      "à¤µà¤³à¤²": 6490,
      "à¥¨à¥¨à¥¦": 6491,
      "Ġà¥§à¥¯à¥¯à¥¯": 6492,
      "Ġà¥§à¥®à¥¦": 6493,
      "Ġà¥§à¥«à¥©": 6494,
      "Ġà¥§à¥Ńà¥Ń": 6495,
      "à¤¯à¤®à¤ķ": 6496,
      "à¤¿à¥¥": 6497,
      "à¤µà¤®à¤¸": 6498,
      "Ġà¤ķà¤¬à¤¡": 6499,
      "à¤ªà¤¹à¤°": 6500,
      "à¤®à¤®à¤¨": 6501,
      "Ġà¤īà¤°à¤ķ": 6502,
      "Ġà¤īà¤®à¤ķ": 6503,
      "Ġà¤ķà¤°à¤Ĺ": 6504,
      "à¤°à¤£à¤¸": 6505,
      "à¤®à¤ļà¤ķ": 6506,
      "à¤ľà¤¨à¤µ": 6507,
      "Ġà¤ħà¤®à¤°à¤¤": 6508,
      "Ġà¥§à¥¬à¥©": 6509,
      "à¤§à¤ªà¤£": 6510,
      "à¤Ĩà¤µà¤Ł": 6511,
      "à¤ķà¤£à¤¯": 6512,
      "à¤®à¤¨à¤ļ": 6513,
      "Ġà¤ıà¤¡à¤®": 6514,
      "à¤¤à¤®à¤¬": 6515,
      "à¤¤à¤ļà¤°": 6516,
      "à¥§à¥«à¥ª": 6517,
      "à¥§à¥ªà¥¬": 6518,
      "à¥§à¥§à¥§": 6519,
      "Ġà¥§à¥¯à¥«à¥§": 6520,
      "à¤¸à¤¹à¤ľà¤¤": 6521,
      "à¤ļà¤¤à¤¤": 6522,
      "à¤¸à¤µà¤²": 6523,
      "Ġà¤¤à¤±": 6524,
      "Ġà¤ªà¤ļà¤ķ": 6525,
      "à¤³à¤§": 6526,
      "Ġà¤Ńà¤°à¤®": 6527,
      "à¤łà¤Ĺ": 6528,
      "à¤ħà¤¨à¤µ": 6529,
      "Ġà¤ªà¤¡à¤³": 6530,
      "Ġà¤ħà¤¸à¤µà¤¡": 6531,
      "à¤Ŀà¤¤": 6532,
      "à¤ľà¤¨à¤²": 6533,
      "Ġà¤ıà¤¤à¤¦": 6534,
      "Ġà¤Ķà¤¸": 6535,
      "Ġà¥Ńà¥Ńà¥Ń": 6536,
      "Ġà¤ľà¤Ĺà¤ľ": 6537,
      "Ġà¤Ŀà¤Ĺà¤¡à¤ļ": 6538,
      "Ġà¥§à¥¬à¥«": 6539,
      "Ġà¤®à¤°à¤¤à¤¨": 6540,
      "Ġà¥§à¥¯à¥®à¥®": 6541,
      "Ġà¥§à¥¯à¥¯à¥©": 6542,
      "Ġà¤ĵà¤³à¤ĸà¤²": 6543,
      "à¤¤à¤¯à¤¨": 6544,
      "à¥Ĥ..": 6545,
      "Ġà¤ªà¤ļà¤¯à¤²": 6546,
      "Ġà¤¬à¤Ĺà¤¤": 6547,
      "à¤Ĩà¤°à¤®": 6548,
      "à¤¤à¤°à¤®à¤¨": 6549,
      "Ġà¤ªà¤°à¤ªà¤°à¤¤": 6550,
      "Ġà¤Ĩà¤¯à¤¦à¤£": 6551,
      "à¤ıà¤¤à¤¨": 6552,
      "à¤ªà¤¸à¤°à¤ķ": 6553,
      "Ġà¤Ĺà¤£à¤¤": 6554,
      "à¤ķà¤°à¤¤à¤ķà¤ļ": 6555,
      "Ġà¥¦à¥«": 6556,
      "Ġà¤Ĩà¤Ńà¤°à¤£": 6557,
      "à¤²à¤ļà¤²à¤£": 6558,
      "à¤ķà¤¶à¤¨": 6559,
      "à¤µà¤łà¤£": 6560,
      "à¤®à¤ľà¤¨": 6561,
      "à¤Ĺà¤µà¤³": 6562,
      "Ġà¤®à¤ĺ": 6563,
      "Ġà¤¸à¤¬à¤¨": 6564,
      "Ġà¤ĸà¤ªà¤²": 6565,
      "Ġà¤ĩà¤°à¤®": 6566,
      "à¤«à¤°à¤¸": 6567,
      "à¤«à¤¸à¤°": 6568,
      "à¤¤à¤¨à¤ª": 6569,
      "à¤°à¤ªà¤²": 6570,
      "à¤ľà¤¨à¤°à¤²": 6571,
      "Ġà¤¨à¤µà¤±": 6572,
      "à¥¥.,": 6573,
      "à¤Ĩà¤¯à¤ľà¤µ": 6574,
      "Ġà¤ħà¤µà¤Ĺà¤¤": 6575,
      "à¤¿à¤ĥ,": 6576,
      "à¥§à¥ªà¥Ń": 6577,
      "Ġà¤ĵà¤ķà¤µà¤ļà¤¨": 6578,
      "à¥§à¥¬à¥ª": 6579,
      "à¥§à¥Ńà¥¬": 6580,
      "Ġà¥§à¥ªà¥¯": 6581,
      "Ġà¤·à¤£": 6582,
      "Ġà¤ĵà¤³à¤ĸà¤¤": 6583,
      "av": 6584,
      "à¤¯à¤«à¤²": 6585,
      "à¤ªà¤ł": 6586,
      "à¤Ĺà¤łà¤¨": 6587,
      "à¤¡à¤®à¤¯": 6588,
      "Ġà¤ľà¤°à¤¤": 6589,
      "Ġà¤ľà¤¡à¤²": 6590,
      "Ġà¤ħà¤®à¤ļ": 6591,
      "Ġà¤«à¤²à¤®": 6592,
      "Ġà¤¥à¤¤à¤°": 6593,
      "Ġà¤®à¤¨à¤·": 6594,
      "à¤īà¤ķà¤¡": 6595,
      "à¤¬à¤¸à¤¤à¤²": 6596,
      "Ġà¤ĭà¤¶": 6597,
      "à¥§à¥«à¥¬": 6598,
      "Ġà¤ļà¤ķà¤ļà¤ķà¤²": 6599,
      "à¤²à¤ĸà¤²": 6600,
      "à¤®à¤®à¤¯": 6601,
      "à¤³à¤µà¤Ł": 6602,
      "à¤ľà¤¯à¤¸": 6603,
      "Ġà¤Ĺà¤®à¤¤": 6604,
      "à¤Ľà¤³": 6605,
      "à¤®à¤£à¤¸": 6606,
      "à¤²à¤¯à¤£": 6607,
      "à¤°à¤ĸà¤ª": 6608,
      "à¤¿.,": 6609,
      "à¤®à¤¹à¤¸": 6610,
      "Ġà¤ķà¤®à¤ľ": 6611,
      "Ġà¥§à¥«à¥Ń": 6612,
      "à¤¨à¤®à¤²": 6613,
      "Ġà¤¸à¤Łà¤µ": 6614,
      "à¤¡à¤¥": 6615,
      "à¤¦à¤¬à¤¦": 6616,
      "à¤ľà¤µà¤¨": 6617,
      "à¤īà¤¡à¤¤": 6618,
      "à¤Ńà¤°à¤Ńà¤°": 6619,
      "à¤°à¤Ńà¤ķ": 6620,
      "Ġà¤ħà¤ľà¤Ĺà¤°": 6621,
      "Ġà¥§à¥¯à¥§à¥¨": 6622,
      "Ġà¤īà¤ľà¤¬": 6623,
      "à¤½à¤½à¤¯": 6624,
      "à¤¯à¤¥à¤¯": 6625,
      "Ġà¤ªà¤²à¤Ł": 6626,
      "à¤¤à¤¤à¤¨": 6627,
      "à¤¡à¤¸à¤°": 6628,
      "Ġà¤¬à¤¦à¤°": 6629,
      "Ġà¤°à¤ļà¤¯": 6630,
      "à¤·à¤¯à¤¤": 6631,
      "Ġà¤Ĩà¤¦à¤³à¤Ł": 6632,
      "à¤ļà¤²à¤²": 6633,
      "Ġà¤īà¤łà¤¯": 6634,
      "à¥§à¥¦à¥©": 6635,
      "Ġà¤µà¤¨à¤®à¤¹": 6636,
      "Ġà¥§à¥§à¥§à¥": 6637,
      "Ġà¤Ńà¤Ĺà¤¤à¤¸": 6638,
      "Ġbha": 6639,
      "à¤¨à¤ĺ": 6640,
      "Ġà¤¨à¤Łà¤²": 6641,
      "à¤¾.,": 6642,
      "à¤¯à¤²à¤°": 6643,
      "à¤Ĩà¤¯à¤µ": 6644,
      "à¤¥à¤ľ": 6645,
      "à¤«à¤¶": 6646,
      "à¤µà¤³à¤¨": 6647,
      "Ġà¤ķà¤°à¤ªà¤¤": 6648,
      "à¤Ľà¤¡": 6649,
      "à¤·à¤£à¤¸": 6650,
      "Ġà¤¨à¤µà¤µ": 6651,
      "Ġà¥¦à¥¯": 6652,
      "à¥§à¥®à¥¨": 6653,
      "à¥§à¥«à¥®": 6654,
      "à¥¨à¥¦à¥¬": 6655,
      "à¥§à¥©à¥®": 6656,
      "à¥§à¥Ńà¥¨": 6657,
      "Ġà¤ķà¤³à¤µà¤³à¤Ł": 6658,
      "à¤ķà¤¨à¤ķ": 6659,
      "à¤ļà¤ªà¤ķ": 6660,
      "à¤£à¤¤à¤²": 6661,
      "à¤¶à¤¯à¤¨": 6662,
      "Ġà¤Ńà¤µà¤¸": 6663,
      "Ġà¤²à¤¸à¤£": 6664,
      "à¤Ĩà¤¢": 6665,
      "Ġà¤ĩà¤¯à¤°": 6666,
      "Ġà¤¦à¤°à¤ıà¤ķà¤²": 6667,
      "Ġà¥§à¥¯à¥¨à¥¨": 6668,
      "à¤¶à¤ķà¤¤à¤²": 6669,
      "Ġà¤¬à¤³à¤ķà¤Ł": 6670,
      "à¤¨à¤®à¤§": 6671,
      "........": 6672,
      "à¤¨à¤¹à¤°": 6673,
      "Ġà¤¤à¤¨à¤¯": 6674,
      "à¤ªà¤ķà¤¡": 6675,
      "à¤®à¤³à¤Ł": 6676,
      "à¤µà¤°à¤¶": 6677,
      "à¤¯à¤¨à¤¯": 6678,
      "Ġà¤ļà¤²à¤¯à¤¤à¤¨": 6679,
      "à¤·à¤£à¤Ńà¤°": 6680,
      "Ġà¤īà¤¡à¤£": 6681,
      "à¤³à¤ªà¤¯à¤ļ": 6682,
      "Ġà¥§à¥¯à¥§à¥«": 6683,
      "Ġà¤¦à¤µà¤°à¤²à¤²": 6684,
      "à¤°à¤¥à¤®à¤ļ": 6685,
      "Ġà¤¸à¤¹à¤²": 6686,
      "à¤µà¤¦à¤¶": 6687,
      "à¤¤à¤§à¤°": 6688,
      "à¤²à¤Ļ": 6689,
      "à¤ķà¤¨à¤µ": 6690,
      "à¤ķà¤Ļ": 6691,
      "à¤¹à¤²à¤ª": 6692,
      "à¤¦à¤Ł": 6693,
      "Ġà¤¹à¤³à¤³": 6694,
      "à¤Łà¤µà¤¤": 6695,
      "à¤ĸà¤°à¤¸": 6696,
      "Ġà¤ªà¤³à¤µà¤ª": 6697,
      "à¤¤à¤ķà¤Ł": 6698,
      "à¤Łà¤ķà¤®": 6699,
      "à¤µà¤£à¤¤": 6700,
      "à¤°à¤ľà¤£": 6701,
      "à¤°à¤¹à¤¨": 6702,
      "Ġà¤µà¤³à¤³à¤¤": 6703,
      "Ġà¥§à¥¯à¥ªà¥§": 6704,
      "Ġà¤Ĺà¤³à¤¯à¤²": 6705,
      "Ġà¥§à¥®à¥«": 6706,
      "à¤Ŀà¤Ĺà¤Ŀà¤Ĺ": 6707,
      "à¤°à¤¯à¤ļ": 6708,
      "à¤¸à¤ŀ": 6709,
      "à¤Łà¤µà¤ª": 6710,
      "Ġà¤¨à¤ı": 6711,
      "Ġà¤¬à¤¸à¤°": 6712,
      "à¤ĸà¤®à¤³": 6713,
      "à¤Ńà¤ĸ": 6714,
      "Ġà¤«à¤³à¤¤": 6715,
      "à¤°à¤ķà¤¥": 6716,
      "Ġà¥¨à¥§à¥¯": 6717,
      "à¤®à¤£à¤ķ": 6718,
      "Ġà¤¨à¤®à¤¶": 6719,
      "Ġà¥§à¥©à¥¨": 6720,
      "Ġà¤ħà¤¬à¤°à¤Ĺà¤¤": 6721,
      "à¤²à¤¡à¤ķ": 6722,
      "à¤µà¤µà¤¨": 6723,
      "à¤®à¤·": 6724,
      "Ġà¤Ĩà¤Ĭ": 6725,
      "à¤¹à¤°à¤®à¤²": 6726,
      "Ġà¤ľà¤¯à¤¨": 6727,
      "Ġà¤Ĺà¤ł": 6728,
      "Ġà¤Ĺà¤µà¤¤": 6729,
      "Ġà¤Ĺà¤¡à¤ª": 6730,
      "à¤ĸà¤°à¤ļ": 6731,
      "Ġà¤«à¤¸à¤¤": 6732,
      "à¤ħà¤µà¤¯à¤µ": 6733,
      "à¤®à¤Łà¤µ": 6734,
      "Ġà¥§à¥®à¥Ń": 6735,
      "Ġà¥¨à¥¦à¥ª": 6736,
      "à¥Ģ...!": 6737,
      "Ġà¤ķà¤¸à¤ª": 6738,
      "Ġà¤Ĩà¤°à¤ľ": 6739,
      "à¤Ĺà¤§à¤°": 6740,
      "Ġà¤ħà¤²à¤¯": 6741,
      "Ġà¤ħà¤ªà¤¯à¤¶": 6742,
      "Ġà¤²à¤ľà¤ª": 6743,
      "à¤Ĩà¤ľà¤µ": 6744,
      "à¤µà¤°à¤¹": 6745,
      "Ġ?.": 6746,
      "à¤®à¤ķà¤¥à¤¨": 6747,
      "à¥Įà¤ģ": 6748,
      "Ġà¤ħà¤¸à¤¹à¤ķ": 6749,
      "à¤ªà¤¡à¤¸": 6750,
      "Ġà¥§à¥¯à¥©à¥®": 6751,
      "Ġà¤§à¤Ĺà¤§à¤Ĺ": 6752,
      "à¤ĸà¤³à¤ĸà¤³": 6753,
      "à¤¤à¤ł": 6754,
      "à¤²à¤ļà¤ķ": 6755,
      "à¤ļà¤¡à¤ª": 6756,
      "à¤ªà¤µà¤°": 6757,
      "à¤®à¤¹à¤ľ": 6758,
      "à¤¡à¤ĺ": 6759,
      "à¤ľà¤³à¤ª": 6760,
      "Ġà¤µà¤µà¤²": 6761,
      "à¤Łà¤°à¤®": 6762,
      "à¤¬à¤ķà¤³": 6763,
      "Ġà¤¬à¤¤à¤¨": 6764,
      "à¤§à¤µà¤³": 6765,
      "à¤·à¤¡": 6766,
      "à¤ķà¤£à¤®": 6767,
      "Ġà¤¨à¤µà¤¶": 6768,
      "Ġà¤ľà¤®à¤¶": 6769,
      "Ġà¤īà¤Ĺà¤¡à¤Łà¤²": 6770,
      "Ġà¤¬à¤³à¤ĸà¤¤": 6771,
      "Ġà¤°à¤¡à¤¯à¤¤": 6772,
      "Ġà¥§à¥«à¥¯": 6773,
      "Ġà¥§à¥©à¥ª": 6774,
      "à¤°à¤Ĺà¤³à¤Ł": 6775,
      "Ġà¤¸à¤Ĺà¤µ": 6776,
      "à¤¡à¤Ńà¤¶": 6777,
      "Ġà¤¬à¤¡à¤Ł": 6778,
      "Ġà¤ĸà¤ªà¤¨": 6779,
      "Ġà¤ĸà¤¡à¤ķ": 6780,
      "à¤µà¤ªà¤¨": 6781,
      "à¤ħà¤®à¤²": 6782,
      "Ġà¤ªà¤¡à¤¶": 6783,
      "à¤Īà¤ķà¤¡": 6784,
      "Ġà¤µà¤¸à¤ļ": 6785,
      "à¤¯à¤£à¤ª": 6786,
      "Ġà¥§à¥¯à¥¨à¥ª": 6787,
      "à¤Ĭà¤ªà¤°": 6788,
      "Ġà¤Īà¤²": 6789,
      "à¤«à¤³à¤¦": 6790,
      "à¥§à¥¨à¥©": 6791,
      "Ġà¥§à¥¬à¥§": 6792,
      "à¤ħà¤¹à¤®à¤¦": 6793,
      "ul": 6794,
      "à¤¤à¤¦à¤¨": 6795,
      "à¤¨à¤ķà¤³à¤¤": 6796,
      "Ġà¤¤à¤Łà¤¤à¤Ł": 6797,
      "à¤ªà¤Ĺà¤¡": 6798,
      "à¤®à¤Ļ": 6799,
      "Ġà¤¸à¤¬à¤³": 6800,
      "Ġà¤¸à¤Łà¤¯": 6801,
      "Ġà¤¹à¤°à¤®à¤²": 6802,
      "à¤ĸà¤¸à¤®": 6803,
      "Ġà¤¶à¤ļ": 6804,
      "Ġà¤Ĩà¤¸à¤ªà¤¤": 6805,
      "à¤Ĺà¤³à¤µ": 6806,
      "Ġà¤īà¤ªà¤µà¤¨": 6807,
      "à¤ªà¤²à¤²": 6808,
      "à¤¦à¤ķà¤ª": 6809,
      "Ġà¤łà¤¹à¤°": 6810,
      "à¤°à¤¬à¤ľ": 6811,
      "à¤¡à¤¨à¤Ĺ": 6812,
      "Ġà¤Ńà¤Ĺà¤Ńà¤Ĺà¤¤": 6813,
      "and": 6814,
      "Ġà¤µà¤³à¤µà¤³à¤¤": 6815,
      "Ġà¤¸à¤«à¤²à¤¤": 6816,
      "à¤²à¤¬à¤°": 6817,
      "à¤ľà¤µà¤ª": 6818,
      "à¤ľà¤¤à¤ķà¤ļ": 6819,
      "Ġà¤ħà¤¢à¤³": 6820,
      "à¤ĸà¤Ńà¤°": 6821,
      "à¤µà¤¨à¤§": 6822,
      "Ġà¤¤à¤°à¤ª": 6823,
      "à¤«à¤²à¤ķ": 6824,
      "à¤®à¤°à¤¤à¤²": 6825,
      "Ġà¤Ľà¤¬": 6826,
      "Ġà¥Ńà¥¦à¥¦": 6827,
      "Ġà¤¹à¤³à¤¦à¤ķ": 6828,
      "à¤ħà¤ªà¤µ": 6829,
      "à¥§à¥¨à¥Ń": 6830,
      "Ġà¥§à¥Ńà¥¦": 6831,
      "Ġà¤Ŀà¤Ĺà¤Ŀà¤Ĺà¤¤": 6832,
      "à¤¯à¤ľà¤°": 6833,
      "à¤²à¤ķà¤¡": 6834,
      "à¤ļà¤®à¤¨": 6835,
      "à¤Łà¤ªà¤°": 6836,
      "Ġà¤¦à¤¶à¤¨": 6837,
      "à¤¬à¤¸à¤µ": 6838,
      "Ġà¤°à¤ľà¤¤": 6839,
      "Ġà¤²à¤Ŀ": 6840,
      "à¤§à¤Ĺà¤§": 6841,
      "à¤Ĩà¤¸à¤°": 6842,
      "à¤µà¤¤à¤¸": 6843,
      "à¤°à¤¯à¤®": 6844,
      "à¤ķà¤³à¤¶": 6845,
      "à¤¯à¤£à¤°": 6846,
      "Ġà¥§à¥¯à¥¨à¥§": 6847,
      "Ġà¥§à¥®à¥©": 6848,
      "bhu": 6849,
      "à¤¯à¤§à¤°": 6850,
      "à¤¨à¤°à¤µ": 6851,
      "Ġà¤Ĩà¤Ĺà¤¤": 6852,
      "Ġà¤¸à¤µà¤²": 6853,
      "à¤¹à¤°à¤ķ": 6854,
      "à¤¦à¤®à¤¤": 6855,
      "Ġà¤ľà¤ĺ": 6856,
      "à¤Łà¤°à¤²": 6857,
      "à¤Ńà¤°à¤ļ": 6858,
      "à¤°à¤¤à¤ª": 6859,
      "à¤µà¤ªà¤¤": 6860,
      "à¤µà¤¤à¤Ĺ": 6861,
      "à¤¸à¤°à¤ªà¤³": 6862,
      "Ġà¥¨à¥¨à¥«": 6863,
      "Ġà¤łà¤°à¤¯à¤²": 6864,
      "Ġà¤°à¤¹à¤®": 6865,
      "à¥ģ.,": 6866,
      "à¥ĭ...!": 6867,
      "Ġà¤ħà¤¡à¤ķà¤²": 6868,
      "Ġà¤ķà¤·à¤Ł": 6869,
      "Ġà¤¹à¤³à¤¦à¤£à¤ķ": 6870,
      "Ġà¤Ĩà¤ĩà¤¨": 6871,
      "Ġà¤¸à¤ªà¤¤": 6872,
      "à¤³à¤°à¤²": 6873,
      "à¤¶à¤ªà¤£": 6874,
      "Ġà¤¦à¤³à¤ª": 6875,
      "Ġà¤¶à¤Ł": 6876,
      "à¤¤à¤°à¤Ń": 6877,
      "à¤ħà¤°à¤®à¤¨": 6878,
      "Ġà¤¸à¤®à¤²": 6879,
      "Ġà¤µà¤°à¤Ĺ": 6880,
      "Ġà¤ļà¤¡à¤¨": 6881,
      "à¤ĵà¤¶": 6882,
      "Ġà¤īà¤ľà¤³à¤£": 6883,
      "à¥«à¥«à¥¦": 6884,
      "à¤īà¤łà¤ª": 6885,
      "Ġà¥Ģ": 6886,
      "à¤°à¤Ĺà¤¡": 6887,
      "à¤¨à¤Ŀà¤¡": 6888,
      "Ġà¥¤à¥¥": 6889,
      "Ġ?!": 6890,
      "à¤½à¤¯à¤®": 6891,
      "à¤¬à¤²à¤ļà¤ķ": 6892,
      "Ġà¤Ĺà¤£à¤µ": 6893,
      "à¤Łà¤®à¤³à¤Ł": 6894,
      "Ġà¥¨à¥¦à¥§": 6895,
      "Ġà¤ħà¤¡à¤ļà¤²": 6896,
      "Ġà¥§à¥ªà¥¨": 6897,
      "à¤ĺà¤°à¤ķà¤¡": 6898,
      "à¤Ĺà¤®à¤°à¤µà¤°": 6899,
      "à¤¤à¤µà¤¸": 6900,
      "à¤µà¤µà¤¤": 6901,
      "Ġà¤¸à¤¬à¤¦": 6902,
      "Ġà¤¹à¤¹": 6903,
      "à¤Łà¤¨à¤¸": 6904,
      "à¤¬à¤¨à¤µ": 6905,
      "à¤ĸà¤Łà¤²": 6906,
      "Ġà¤ķà¤°à¤²": 6907,
      "à¤¤à¤°à¤ķà¤¥": 6908,
      "à¤Ĺà¤²à¤Ĺ": 6909,
      "à¤ħà¤Ĺà¤¸": 6910,
      "Ġà¤¡à¤ķ": 6911,
      "Ġà¤ħà¤¨à¤Ńà¤µ": 6912,
      "Ġà¤īà¤ªà¤ħà¤§": 6913,
      "Ġà¤µà¤¸à¤µà¤¸": 6914,
      "à¤½à¤£": 6915,
      "à¤³à¤ļà¤ķ": 6916,
      "Ġà¤°à¤¸à¤Ĺ": 6917,
      "à¤¾!!": 6918,
      "à¤£à¤µà¤µ": 6919,
      "Ġà¤°à¤ķà¤ķà¤®": 6920,
      "Ġà¤«à¤¡à¤«à¤¡à¤²": 6921,
      "à¤ķà¤¦à¤¤": 6922,
      "Ġà¤¤à¤¤à¤¸": 6923,
      "à¤®à¤¤à¤¨": 6924,
      "Ġà¤®à¤ļà¤µ": 6925,
      "Ġà¤¸à¤¨à¤µ": 6926,
      "à¤¦à¤ĸà¤²": 6927,
      "à¤³à¤Ĺà¤¤": 6928,
      "à¤Ńà¤Ĺà¤³": 6929,
      "à¤ªà¤£à¤ļ": 6930,
      "Ġà¤ħà¤¸à¤ļ": 6931,
      "à¤ĩà¤ı": 6932,
      "à¤ĩà¤¸à¤µ": 6933,
      "à¥¨à¥§à¥¦": 6934,
      "à¤½à¤¹à¤®": 6935,
      "à¤¹à¤¨à¤®": 6936,
      "Ġà¥®à¥¦à¥¦": 6937,
      "Ġà¤Ĩà¤«à¤¯": 6938,
      "à¥¨à¥¦à¥ª": 6939,
      "à¥§à¥©à¥«": 6940,
      "Ġ........": 6941,
      "Ġà¥ģ": 6942,
      "à¤¯à¤ĺ": 6943,
      "à¤¯à¤ªà¤²": 6944,
      "à¤¨à¤ªà¤¶": 6945,
      "à¤ļà¤¡à¤¸": 6946,
      "à¤µà¤Ĺà¤²": 6947,
      "Ġà¤¤à¤¸à¤¤": 6948,
      "à¤ªà¤µà¤²": 6949,
      "à¤®à¤¤à¤°": 6950,
      "Ġà¤°à¤¸à¤¨": 6951,
      "à¤Ńà¤²à¤¤": 6952,
      "Ġà¤¥à¤µà¤¯": 6953,
      "Ġà¤®à¤¨à¤µ": 6954,
      "Ġà¤¬à¤°à¤¬": 6955,
      "à¤°à¤£à¤ľ": 6956,
      "à¤¯à¤¨à¤¸": 6957,
      "à¤Ĺà¤°à¤¶": 6958,
      "à¤®à¤¨à¤²": 6959,
      "à¤®à¤¨à¤¯à¤²": 6960,
      "Ġà¤ıà¤¹": 6961,
      "Ġà¤Ĩà¤¯à¤ķà¤ļ": 6962,
      "à¤¦à¤¨à¤ķ": 6963,
      "à¤¸à¤®à¤§": 6964,
      "à¤½à¤²": 6965,
      "à¤½à¤Ńà¤µà¤¤": 6966,
      "à¤¤à¤³à¤ļ": 6967,
      "Ġà¤Ľà¤¡": 6968,
      "Ġà¥§à¥¯à¥¨à¥©": 6969,
      "à¤¨à¤ķà¤³à¤Ł": 6970,
      "Ġà¥¬à¥¦à¥¦": 6971,
      "Ġà¥¨à¥¦à¥§à¥¬": 6972,
      "à¥§à¥¨à¥§": 6973,
      "Ġà¤°à¤£à¤Ń": 6974,
      "à¤¡à¤µà¤£à¤¦": 6975,
      "Ġà¤²à¤ĸà¤²à¤ĸà¤¤": 6976,
      "angar": 6977,
      "Ġà¤µà¤¦à¤¤": 6978,
      "à¤ĸà¤¤à¤¨": 6979,
      "à¤°à¤ķà¤Łà¤¤": 6980,
      "à¤µà¤¡à¤¤": 6981,
      "Ġà¤¸à¤®à¤ľà¤ļ": 6982,
      "à¤¸à¤®à¤¦": 6983,
      "Ġà¤ªà¤¯à¤¸à¤ļ": 6984,
      "Ġà¤ħà¤£à¤µ": 6985,
      "à¥§à¥Ńà¥ª": 6986,
      "Ġà¤īà¤ĸà¤²à¤¨": 6987,
      "à¤®à¤Ĺà¤¤": 6988,
      "Ġà¤¸à¤µà¤¡": 6989,
      "à¤ľà¤Ĺà¤£": 6990,
      "Ġà¤°à¤ľà¤¸": 6991,
      "Ġà¤ķà¤°à¤¯à¤¤": 6992,
      "à¤Ĩà¤µà¤ķ": 6993,
      "à¤µà¤¨à¤Ĺ": 6994,
      "Ġà¤«à¤³à¤Ł": 6995,
      "Ġà¤§à¤µà¤¨": 6996,
      "à¤°à¤¸à¤Ļ": 6997,
      "à¤Īà¤ªà¤°": 6998,
      "Ġà¤ħà¤Ńà¤¦": 6999,
      "à¥§à¥¬à¥¬": 7000,
      "à¥¨à¥¨à¥ª": 7001,
      "Ġà¤¤à¤¡à¤«à¤¡": 7002,
      "Ġà¤¦à¤¸à¤¯à¤²": 7003,
      "Ġà¤²à¤¯à¤¬à¤¦": 7004,
      "Ġà¤¿": 7005,
      "Ġà¤Ĩà¤²à¤¤": 7006,
      "Ġà¤ªà¤¹à¤¤": 7007,
      "à¤¡à¤µà¤¡": 7008,
      "à¤§à¤µà¤¨": 7009,
      "à¤·à¤°à¤ľ": 7010,
      "à¤īà¤ĺà¤¡": 7011,
      "à¤®à¤£à¤¯": 7012,
      "à¤ĵà¤µà¤³": 7013,
      "Ġà¤ªà¤°à¤¸à¤°": 7014,
      "à¥§à¥¯à¥¦": 7015,
      "à¤ĺà¤¡à¤¯à¤¤": 7016,
      "à¥§à¥ªà¥«": 7017,
      "à¥§à¥¬à¥®": 7018,
      "à¤¸à¤¹à¤Ń": 7019,
      "Ġà¤Łà¤ķà¤Łà¤ķ": 7020,
      "à¤ĺà¤®à¤ĺà¤®": 7021,
      "à¤¯à¤Ĺà¤¡": 7022,
      "à¤ªà¤¸à¤²": 7023,
      "Ġà¤µà¤¨à¤¦": 7024,
      "Ġà¤¦à¤¬à¤°à¤²": 7025,
      "à¤µà¤°à¤Ń": 7026,
      "..,": 7027,
      "à¤¦à¤°à¤¶": 7028,
      "à¤ªà¤£à¤ĸ": 7029,
      "à¤ŀà¤µ": 7030,
      "à¤¯à¤Łà¤¸": 7031,
      "à¤ķà¤Łà¤°à¤®à¤£à¤¯": 7032,
      "Ġà¤Īà¤ķ": 7033,
      "Ġà¤ķà¤£à¤ĸà¤°": 7034,
      "Ġà¥§à¥Ńà¥§": 7035,
      "Ġà¥§à¥ªà¥¬": 7036,
      "Ġà¤¦à¤®à¤¨à¤ķ": 7037,
      "Ġà¤Ńà¤³à¤Ńà¤³": 7038,
      "bhuin": 7039,
      "ee": 7040,
      "ka": 7041,
      "à¤ķà¤Łà¤ķà¤Ł": 7042,
      "Ġà¤Ĩà¤³à¤¯à¤¤": 7043,
      "à¤¹à¤°à¤¸": 7044,
      "à¤¦à¤ī": 7045,
      "à¤¦à¤ķà¤¤": 7046,
      "à¤¦à¤±à¤¯": 7047,
      "à¤Łà¤°à¤ľ": 7048,
      "Ġà¤Ńà¤Ĺà¤¶": 7049,
      "à¤Ĩà¤µà¤ľ": 7050,
      "à¤Ĩà¤ĩà¤²": 7051,
      "à¤¹à¤£à¤¸": 7052,
      "à¤łà¤µà¤£": 7053,
      "à¤ħà¤°à¤ļ": 7054,
      "à¤¬à¤°à¤®à¤¤": 7055,
      "à¤ªà¤£à¤¯": 7056,
      "Ġà¤Ŀà¤£": 7057,
      "à¤Ŀà¤°à¤²": 7058,
      "Ġà¤īà¤¦à¤¯à¤¨": 7059,
      "Ġà¤Łà¤µ": 7060,
      "à¤²à¤¯à¤®": 7061,
      "Ġà¤¸à¤¦à¤¯": 7062,
      "à¤µà¤ľà¤ª": 7063,
      "à¤®à¤²à¤²": 7064,
      "Ġà¤ĳà¤¯à¤²": 7065,
      "à¥§à¥¯à¥«à¥«": 7066,
      "à¤Łà¤¸à¤Ł": 7067,
      "Ġà¤Ĺà¤³à¤¸à¤£à¤²": 7068,
      "20": 7069,
      "à¤°à¤¡à¤µ": 7070,
      "à¤¯à¤ľà¤¯": 7071,
      "à¤¨à¤Ĺà¤¨": 7072,
      "à¤¦à¤¯à¤®": 7073,
      "Ġà¤¨à¤¤à¤®à¤¸": 7074,
      "à¥Ģà¤Ĥ....": 7075,
      "Ġà¤ĺà¤¬à¤°": 7076,
      "Ġà¤Ĩà¤¸à¤Ĺ": 7077,
      "à¤Ĩà¤¯à¤¨": 7078,
      "Ġà¤ıà¤ķà¤¹": 7079,
      "à¤¦à¤°à¤ª": 7080,
      "à¤¤à¤ķà¤¤": 7081,
      "Ġà¤ķà¤°à¤¤à¤ļ": 7082,
      "Ġà¤ľà¤²à¤§": 7083,
      "à¤°à¤ĸà¤¨": 7084,
      "à¤²à¤®à¤§": 7085,
      "Ġbhaangar": 7086,
      "à¤²à¤¹à¤°": 7087,
      "à¤ªà¤¯à¤ļ": 7088,
      "à¤®à¤¶à¤ķ": 7089,
      "Ġà¤Ĩà¤°à¤µ": 7090,
      "Ġà¤Ĩà¤ĸà¤°": 7091,
      "à¤Ĺà¤µà¤ļà¤¨": 7092,
      "Ġà¤ľà¤¥": 7093,
      "Ġà¤ħà¤¤à¤®": 7094,
      "Ġà¤Ĺà¤³à¤³": 7095,
      "à¤§à¤ķà¤°": 7096,
      "Ġà¤Ĩà¤ªà¤¯à¤¨": 7097,
      "à¤«à¤¡à¤ķ": 7098,
      "à¤¦à¤°à¤µà¤£": 7099,
      "à¤µà¤³à¤Łà¤²": 7100,
      "à¤°à¤®à¤ľ": 7101,
      "à¤ŀà¤¶": 7102,
      "à¤ıà¤ķà¤¯": 7103,
      "Ġà¤ľà¤¨à¤ª": 7104,
      "Ġà¥§à¥¯à¥ªà¥ª": 7105,
      "à¥©à¥¦à¥Ń": 7106,
      "à¥«à¥¦à¥«": 7107,
      "à¤®à¤³à¤¬à¤Ĺ": 7108,
      "Ġà¤ıà¤ħà¤°à¤ª": 7109,
      "Ġbhaangarbhuin": 7110,
      "?,": 7111,
      "Ġà¤İ": 7112,
      "à¤¯à¤ªà¤¸": 7113,
      "à¤ªà¤ªà¤£": 7114,
      "à¤¹à¤²à¤¤": 7115,
      "à¤¡à¤¬à¤°": 7116,
      "Ġà¤µà¤ĸà¤µ": 7117,
      "Ġà¤¨à¤®à¤¤": 7118,
      "à¤§à¤ªà¤°": 7119,
      "à¤·à¤¯à¤¦": 7120,
      "Ġà¤«à¤²à¤¸": 7121,
      "Ġà¤ĺà¤°à¤ªà¤£": 7122,
      "Ġà¤µà¤ļà¤¸à¤°": 7123,
      "à¤ıà¤¬": 7124,
      "à¤·à¤£à¤¶": 7125,
      "Ġà¤Ńà¤°à¤¯à¤¤": 7126,
      "Ġà¤µà¤³à¤¨": 7127,
      "à¤Ĭà¤ł": 7128,
      "Ġà¤ªà¤ķà¤¦à¤¸": 7129,
      "Ġà¤ħà¤£à¤Ńà¤µà¤µ": 7130,
      "à¥ĩà¤Ĥ...!": 7131,
      "Ġà¥§à¥¬à¥®": 7132,
      "Ġà¥§à¥ªà¥®": 7133,
      "à¥¨à¥ªà¥¦": 7134,
      "à¤ķà¤¸à¤¨": 7135,
      "à¤µà¤Ľ": 7136,
      "à¤¬à¤³à¤ª": 7137,
      "Ġà¤ħà¤³à¤¸": 7138,
      "à¤¥à¤Ł": 7139,
      "à¤¥à¤ķà¤²": 7140,
      "à¤¯à¤¤à¤¯": 7141,
      "à¤ķà¤°à¤¡": 7142,
      "à¤°à¤£à¤Ń": 7143,
      "à¤¼à¥ĭ,": 7144,
      "Ġà¤ľà¤¨à¤¸à¤®": 7145,
      "Ġà¤Ĩà¤Īà¤ķà¤¡": 7146,
      "Ġà¤īà¤ľà¤³à¤Ł": 7147,
      "Ġà¤Ĩà¤łà¤µà¤¤": 7148,
      "Ġà¥§à¥®à¥§": 7149,
      "à¥ĭ...?": 7150,
      "Ġà¥§à¥Ńà¥©": 7151,
      "Ġà¥§à¥Ńà¥¯": 7152,
      "à¤ıà¤¸à¤¬": 7153,
      "à¤¸à¤Ńà¤Ł": 7154,
      "à¤°à¤°à¤µ": 7155,
      "Ġà¤Ĩà¤ĩà¤ķ": 7156,
      "Ġà¤ªà¤¸à¤¨": 7157,
      "à¤Łà¤µà¤³": 7158,
      "Ġà¤¦à¤ļ": 7159,
      "Ġà¤¬à¤µ": 7160,
      "à¤ħà¤³à¤®": 7161,
      "Ġà¤¸à¤®à¤ª": 7162,
      "à¤ķà¤£à¤¦": 7163,
      "à¤ªà¤²à¤ķ": 7164,
      "à¤¯à¤®à¤§": 7165,
      "Ġà¤ľà¤²à¤¨": 7166,
      "Ġà¤®à¤¤à¤ª": 7167,
      "à¤¦à¤ķà¤ªà¤£": 7168,
      "à¤ķà¤Łà¤¯": 7169,
      "à¤µà¤¶à¤°": 7170,
      "à¥ªà¥¦à¥§": 7171,
      "Ġà¤Ĩà¤¡à¤ķà¤³": 7172,
      "Ġdli": 7173,
      "à¤®à¤¸à¤®à¤°": 7174,
      "à¤Ĺà¤¸à¤¤": 7175,
      "à¤¬à¤¸à¤°": 7176,
      "Ġà¤Ńà¤®": 7177,
      "Ġà¤īà¤¹": 7178,
      "Ġà¤ĺà¤µ": 7179,
      "à¤Ĩà¤ªà¤¤": 7180,
      "à¤Ĩà¤²à¤¤à¤¡à¤ļ": 7181,
      "à¤¥à¤ħà¤ª": 7182,
      "à¤µà¤¤à¤¶": 7183,
      "à¤ĺà¤¡à¤¨": 7184,
      "Ġà¤ĩà¤¤à¤³": 7185,
      "Ġà¤Ľà¤¦": 7186,
      "à¤®à¤¸à¤£": 7187,
      "Ġà¤¸à¤²à¤¹": 7188,
      "Ġà¥§à¥®à¥«à¥Ń": 7189,
      "à¥§à¥®à¥®": 7190,
      "Ġà¥§à¥¬à¥¯": 7191,
      "Ġà¤¨à¤µà¤¨à¤µ": 7192,
      "Ġà¤¹à¤°à¤®à¤²à¤ķ": 7193,
      "?!": 7194,
      "à¤¨à¤®à¤¤": 7195,
      "Ġà¤®à¤¸à¤²": 7196,
      "à¤¹à¤¸à¤ķ": 7197,
      "Ġà¤¨à¤µà¤ļ": 7198,
      "Ġà¤°à¤µà¤°": 7199,
      "Ġà¤īà¤¤à¤²": 7200,
      "Ġà¤ļà¤°à¤¨": 7201,
      "Ġà¤¥à¤¡à¤Ĺ": 7202,
      "Ġà¤¥à¤°à¤¤à¤²": 7203,
      "§à¥§à¥": 7204,
      "à¤¼à¥ĩà¥¤": 7205,
      "Ġà¤¡à¤®à¤°": 7206,
      "Ġà¤Ĩà¤ªà¤£à¤ª": 7207,
      "Ġà¤®à¤°à¤¡": 7208,
      "Ġà¤Ĩà¤ľà¤Ĺ": 7209,
      "à¤¸à¤¨à¤¸": 7210,
      "à¤®à¤²à¤¦": 7211,
      "à¥ĩà¤Ĥ?...": 7212,
      "à¤ķà¤¶à¤¤à¤¤à¤®": 7213,
      "Ġà¤Ĺà¤³à¤¸": 7214,
      "Ġà¤¢à¤¬": 7215,
      "Ġà¤Ńà¤°à¤²à¤²": 7216,
      "Ġà¤µà¤ķà¤¦": 7217,
      "Ġp": 7218,
      "à¤¾à¥ĩà¤Ĥ": 7219,
      "à¤ļà¤µà¤ķ": 7220,
      "à¤µà¤®à¤¯": 7221,
      "Ġà¤®à¤²à¤ª": 7222,
      "Ġà¤®à¤Łà¤¨": 7223,
      "Ġà¤ªà¤ľ": 7224,
      "à¤¦à¤¸à¤±": 7225,
      "à¤³à¤¯à¤¤à¤¨": 7226,
      "Ġà¤¦à¤°à¤ľ": 7227,
      "Ġà¤¨à¤Ĭ": 7228,
      "Ġà¤¬à¤¶à¤¯": 7229,
      "Ġà¤ħà¤¢": 7230,
      "Ġà¤ļà¤¢à¤²": 7231,
      "Ġà¤Ĩà¤ªà¤¯à¤¤à¤²": 7232,
      "à¤ħà¤ľà¤¨": 7233,
      "à¤ħà¤ªà¤ķ": 7234,
      "à¤µà¤²à¤ª": 7235,
      "à¤°à¤£à¤ļ": 7236,
      "Ġà¤ħà¤¸à¤¨": 7237,
      "Ġà¤¡à¤¨": 7238,
      "Ġà¤¡à¤Ĺ": 7239,
      "Ġà¤ķà¤³à¤¯à¤¨": 7240,
      "à¤°à¤ľà¤Ń": 7241,
      "à¤¢à¤¸": 7242,
      "à¤°à¤¦à¤¤": 7243,
      "Ġà¤īà¤¡à¤ļ": 7244,
      "à¤Ĭà¤²à¤ĸ": 7245,
      "Ġà¤§à¤¨à¤®": 7246,
      "Ġà¤Īà¤³à¤µ": 7247,
      "à¥§à¥¨à¥¯": 7248,
      "à¥¨à¥¨à¥¬": 7249,
      "Ġà¤°à¤¸à¤°à¤¸à¤¤": 7250,
      "à¤¾à¥ī": 7251,
      "à¤°à¤ī": 7252,
      "à¤µà¤«": 7253,
      "à¤µà¤µà¤²": 7254,
      "à¤®à¤§à¤°": 7255,
      "Ġà¤¸à¤ľà¤¨": 7256,
      "à¤¹à¤¯à¤°": 7257,
      "à¤¡à¤¬à¤²": 7258,
      "à¤³à¤®à¤³": 7259,
      "Ġà¤ľà¤®à¤¦": 7260,
      "Ġà¤¶à¤¤à¤ª": 7261,
      "Ġà¤Ĩà¤¸à¤¤à¤ķ": 7262,
      "à¤Ĩà¤³à¤µ": 7263,
      "à¤¬à¤°à¤£": 7264,
      "à¤°à¤®à¤ļ": 7265,
      "à¤®à¤¨à¤Ń": 7266,
      "à¤µà¤£à¤Ĺ": 7267,
      "à¥¨à¥§à¥®": 7268,
      "Ġà¤Łà¤²": 7269,
      "Ġà¥¨à¥§à¥Ń": 7270,
      "à¤¯à¤£à¤¦": 7271,
      "à¤°à¤¬à¤¤": 7272,
      "Ġà¤ħà¤µà¤¤à¤°": 7273,
      "Ġà¤¦à¤µà¤°à¤¤à¤ķà¤ļ": 7274,
      "à¥§à¥¯à¥¯": 7275,
      "Ġà¥§à¥«à¥ª": 7276,
      "à¥¦à¥¦à¥¦à¥¦à¥¦": 7277,
      "Ġà¤§à¤¡à¤§à¤¡à¤ª": 7278,
      "à¤Ĩà¤¡à¤¨à¤¦à¤°": 7279,
      "à¤ķà¤Ŀ": 7280,
      "à¤Ĺà¤ĺ": 7281,
      "Ġà¤®à¤¹à¤£": 7282,
      "Ġà¤®à¤ĸà¤²": 7283,
      "à¤¤à¤²à¤¯": 7284,
      "à¤·à¤Ńà¤°": 7285,
      "à¤¤à¤°à¤«": 7286,
      "Ġà¤¥à¤¯à¤¥à¤¯": 7287,
      "à¤īà¤¡à¤²": 7288,
      "Ġà¤ĵà¤µà¤°": 7289,
      "Ġà¤īà¤ªà¤°à¤£": 7290,
      "à¤ķà¤ļà¤°": 7291,
      "Ġà¤Ĩà¤¡à¤³à¤¤": 7292,
      "à¤ªà¤³à¤¯à¤¤à¤¨": 7293,
      "à¤ĵà¤¢": 7294,
      "à¤ķà¤°à¤£à¤®": 7295,
      "à¤¹à¤µà¤±à¤¯": 7296,
      "à¤£à¤µà¤¯à¤¨": 7297,
      "à¤ħà¤ķà¤¬à¤°": 7298,
      "à¥ĩ...?": 7299,
      "à¥§à¥©à¥§": 7300,
      "Ġà¤½à¤½à¤½": 7301,
      "Ġà¤ķà¤¡à¤ķà¤¡à¤¤": 7302,
      "Ġà¤ķà¤¸à¤°": 7303,
      "Ġà¤ķà¤ªà¤ļ": 7304,
      "Ġà¤ľà¤²à¤¤": 7305,
      "à¤¬à¤µà¤²": 7306,
      "Ġà¤¬à¤¡à¤ķ": 7307,
      "à¤¤à¤²à¤ķ": 7308,
      "Ġà¤¶à¤°à¤®": 7309,
      "à¤§à¤°à¤¸": 7310,
      "à¤¹à¤£à¤½": 7311,
      "à¤µà¤³à¤µà¤³": 7312,
      "Ġà¤ħà¤°à¤¬à¤¸": 7313,
      "Ġà¤ķà¤¡à¤ķà¤¡à¤²": 7314,
      "Ġà¤¸à¤¦à¤¦": 7315,
      "Ġà¤²à¤Ĺà¤¬à¤Ĺ": 7316,
      "à¤¦à¤¤à¤¶": 7317,
      "Ġà¤¸à¤°à¤ķà¤²": 7318,
      "Ġà¤īà¤Ĺà¤¡à¤¨": 7319,
      "Ġà¤ªà¤Łà¤¤": 7320,
      "à¤µà¤Ńà¤Ł": 7321,
      "à¥ĩ...!": 7322,
      "Ġà¤Ŀà¤°à¤Ŀà¤°": 7323,
      "à¤ľà¤°à¤¸": 7324,
      "Ġà¤µà¤¸à¤°": 7325,
      "Ġà¤¨à¤µà¤ķ": 7326,
      "Ġà¤²à¤¯à¤ķ": 7327,
      "Ġà¤ļà¤°à¤ļ": 7328,
      "à¤§à¤°à¤®": 7329,
      "à¤°à¤¤à¤¯": 7330,
      "Ġà¤µà¤°à¤®": 7331,
      "à¤īà¤ľà¤³": 7332,
      "à¤µà¤³à¤¬": 7333,
      "à¤Īà¤¸à¤°": 7334,
      "Ġà¤¡à¤²": 7335,
      "à¥©à¥«à¥«": 7336,
      "Ġà¥§à¥¯à¥§": 7337,
      "Ġà¥¤à¥¤à¥¤": 7338,
      "Ġà¤¤à¤³à¤¹": 7339,
      "à¤ļà¤¡à¤¯à¤²": 7340,
      "à¥§à¥©à¥©": 7341,
      "à¥§à¥Ńà¥®": 7342,
      "Ġà¥ªà¥¦à¥§": 7343,
      "Ġà¤ªà¤°à¤Ĺà¤Łà¤²": 7344,
      "à¤Ĥ..": 7345,
      "à¤ļà¤ľà¤¨": 7346,
      "Ġà¤ªà¤¨à¤µ": 7347,
      "à¤ľà¤µà¤²": 7348,
      "Ġà¤µà¤¡à¤¯à¤¤à¤²": 7349,
      "Ġà¤ľà¤¬à¤¡": 7350,
      "à¤ĸà¤°à¤¶": 7351,
      "Ġà¤¶à¤ķà¤°": 7352,
      "Ġà¤Ĩà¤¸à¤¸à¤°": 7353,
      "à¤Ĩà¤²à¤¸": 7354,
      "Ġà¤«à¤²à¤¤": 7355,
      "Ġà¤ıà¤ķà¤Łà¤¯": 7356,
      "à¤¯à¤ķà¤°à¤£": 7357,
      "à¤°à¤®à¤¤à¤µ": 7358,
      "Ġà¤¸à¤°à¤ªà¤Łà¤¤": 7359,
      "à¤µà¤ķà¤®": 7360,
      "à¤®à¤¤à¤Ń": 7361,
      "Ġà¤ªà¤Łà¤ļ": 7362,
      "à¤īà¤ªà¤µ": 7363,
      "Ġà¤ħà¤Ĺà¤°à¤¸": 7364,
      "à¥¨à¥¦à¥¨": 7365,
      "à¥¨à¥ªà¥©": 7366,
      "Ġà¤Ńà¤°à¤Ĺà¤ļ": 7367,
      "à¥ĭà¤¾": 7368,
      "à¤®à¤ķà¤£": 7369,
      "à¤¬à¤²à¤¤": 7370,
      "à¤¬à¤ľà¤²": 7371,
      "Ġà¤¬à¤²à¤¦": 7372,
      "Ġà¤ħà¤°à¤¸": 7373,
      "Ġà¤Ĺà¤Ļ": 7374,
      "Ġà¤īà¤Łà¤¤": 7375,
      "Ġà¤¶à¤ķà¤£": 7376,
      "Ġà¤Ĩà¤¸à¤¶": 7377,
      "Ġà¤«à¤£à¤¸": 7378,
      "Ġà¤ıà¤ķà¤Łà¤ķ": 7379,
      "à¤Ĺà¤¡à¤Ł": 7380,
      "Ġà¤µà¤ļà¤°": 7381,
      "à¤Ŀà¤Ł": 7382,
      "Ġà¥¨à¥¨à¥Ń": 7383,
      "Ġà¤µà¤³à¤²": 7384,
      "Ġà¤ľà¤¨à¤µà¤°": 7385,
      "à¤¨à¤µà¤¦": 7386,
      "Ġà¤Ķà¤ªà¤ļ": 7387,
      "Ġà¤īà¤¸à¤£": 7388,
      "à¤¡à¤£à¤ķà¤°": 7389,
      "Ġà¤¬à¤²à¤Ńà¤¦": 7390,
      "Ġà¤ľà¤³à¤¯à¤²": 7391,
      "Ġà¤ĭà¤·à¤Ń": 7392,
      "Ġà¤ªà¤¯à¤±": 7393,
      "im": 7394,
      "à¤¾à¥Ģ": 7395,
      "à¤²à¤ªà¤°": 7396,
      "à¤ļà¤²à¤ķ": 7397,
      "à¤®à¤¯à¤®": 7398,
      "Ġà¤Ĩà¤ıà¤Ĺ": 7399,
      "Ġà¤®à¤¸à¤¤": 7400,
      "à¤ľà¤ķà¤°à¤£": 7401,
      "Ġà¤µà¤¥à¤°": 7402,
      "Ġà¤ĺà¤¨à¤¤": 7403,
      "Ġà¤ļà¤³à¤¤": 7404,
      "à¤¤à¤°à¤Ĺ": 7405,
      "à¤°à¤ķà¤¯": 7406,
      "à¤ħà¤¥à¤°": 7407,
      "à¤ķà¤°à¤Ń": 7408,
      "à¤¯à¤ļà¤°": 7409,
      "Ġà¤īà¤²à¤Ĺ": 7410,
      "Ġà¤ħà¤¨à¤¶": 7411,
      "Ġà¤Ĩà¤ªà¤£à¤ļ": 7412,
      "Ġà¤ķà¤²à¤ķà¤²à¤¤": 7413,
      "Ġà¤¸à¤ķà¤¨": 7414,
      "Ġà¤µà¤³à¤¤": 7415,
      "à¤Ńà¤µà¤®": 7416,
      "Ġà¥§à¥®à¥¯": 7417,
      "à¥§à¥«à¥«": 7418,
      "Ġà¤Ĩà¤Łà¤¯à¤¤": 7419,
      "à¥ªà¥¦à¥ª": 7420,
      "Ġà¤®à¤Ĺà¤¨": 7421,
      "Ġà¤¸à¤¥": 7422,
      "à¤¶à¤¯à¤ķà¤²": 7423,
      "Ġà¤ķà¤°à¤¸": 7424,
      "à¥ĭ.,": 7425,
      "Ġà¤¥à¤°à¤µ": 7426,
      "Ġà¤¥à¤ªà¤ķà¤²": 7427,
      "à¤¯à¤ļà¤ķ": 7428,
      "à¤ĺà¤°à¤Ĺ": 7429,
      "à¤īà¤¢": 7430,
      "à¤ģ?": 7431,
      "Ġà¤®à¤¹à¤¨": 7432,
      "à¤Łà¤°à¤«": 7433,
      "Ġà¤ħà¤Ńà¤¯à¤ķ": 7434,
      "Ġà¤īà¤¸à¤³à¤¤": 7435,
      "à¥ĳà¤Ĥ": 7436,
      "Ġà¤ĭà¤ķ": 7437,
      "Ġà¥§à¥«à¥¨": 7438,
      "à¥§à¥®à¥¬": 7439,
      "à¤ļà¤ķà¤ļà¤ķà¤¤": 7440,
      "go": 7441,
      "Ġà¤µà¤¨à¤®": 7442,
      "à¤ħà¤Ļ": 7443,
      "à¤¤à¤ļà¤ķ": 7444,
      "à¤¨à¤µà¤®": 7445,
      "à¤¾à¤ĥ,": 7446,
      "Ġà¤¸à¤ªà¤¨à¤«": 7447,
      "à¥ĭ!!": 7448,
      "à¤½à¤½à¤°": 7449,
      "à¤ħà¤µà¤¸à¤°": 7450,
      "à¥įà¤ĥ": 7451,
      "à¤°à¤ªà¤¨": 7452,
      "à¤¨à¤¤à¤®": 7453,
      "à¤¸à¤µà¤ª": 7454,
      "Ġà¤ªà¤°à¤Ń": 7455,
      "à¤Ĺà¤¤à¤Ĺ": 7456,
      "Ġ!.": 7457,
      "Ġà¤ĵà¤ªà¤°": 7458,
      "à¤Ľà¤¬": 7459,
      "Ġà¤¸à¤¤à¤®": 7460,
      "Ġà¥¨à¥§à¥¦": 7461,
      "Ġà¥¨à¥¨à¥©": 7462,
      "Ġà¤ħà¤ªà¤¸": 7463,
      "Ġà¤ħà¤ªà¤¦": 7464,
      "à¤¡à¤ļà¤¡à¤ķ": 7465,
      "à¤īà¤ªà¤ķà¤°à¤£": 7466,
      "Ġà¤µà¤¯à¤¤à¤ķ": 7467,
      "dr": 7468,
      "à¥ĭà¤ģ": 7469,
      "à¤ļà¤¤à¤°": 7470,
      "à¤ªà¤¯à¤£": 7471,
      "à¤Ĺà¤¯à¤¨": 7472,
      "à¤¡à¤°à¤²": 7473,
      "à¤Łà¤¨à¤ļ": 7474,
      "Ġà¤ĸà¤¬à¤±": 7475,
      "Ġà¤ļà¤ªà¤°": 7476,
      "Ġà¤§à¤³": 7477,
      "à¤µà¤°à¤Ĺ": 7478,
      "Ġà¤¸à¤°à¤¹à¤¦": 7479,
      "à¥¨à¥Ńà¥¦": 7480,
      "à¤ıà¤¡à¤µ": 7481,
      "à¤¸à¤¨à¤®": 7482,
      "à¤ħà¤¨à¤ĺ": 7483,
      "à¤£à¤¨à¤®": 7484,
      "à¥§à¥®à¥ª": 7485,
      "Ġà¤«à¤°à¤«à¤°": 7486,
      "à¤¸à¤®à¤ľà¤£": 7487,
      "à¥¨à¥¬à¥¦": 7488,
      "Ġà¤Ĺà¤¡à¤Ĺà¤¡à¤¤": 7489,
      "Ġà¤ĺà¤®à¤ĺ": 7490,
      "Ġà¤ľà¤µà¤³à¤ļ": 7491,
      "Ġà¤Ĩà¤¢à¤³": 7492,
      "Ġà¤¬à¤¡à¤¬à¤¡à¤²": 7493,
      "Ġà¤¸à¤°à¤µà¤¯": 7494,
      "à¤¦à¤ķà¤³": 7495,
      "à¤ľà¤«": 7496,
      "Ġà¤°à¤¸à¤ª": 7497,
      "à¤Ĩà¤£à¤ķ": 7498,
      "à¤¯à¤ķà¤ļ": 7499,
      "à¥ģà¤Ĥ?": 7500,
      "à¥ħà¤ģ": 7501,
      "Ġà¤ħà¤¸à¤ķ": 7502,
      "à¤Īà¤ª": 7503,
      "Ġà¤Ĩà¤¦à¤°à¤£": 7504,
      "à¤°à¤ľà¤²": 7505,
      "à¤°à¤ľà¤¤à¤«": 7506,
      "à¤µà¤¡à¤¯à¤²": 7507,
      "à¤¨à¤µà¤¶": 7508,
      "Ġà¥§à¥¯à¥§à¥ª": 7509,
      "Ġà¤ħà¤£à¤¸": 7510,
      "Ġà¤Ĺà¤£à¤¯à¤¤": 7511,
      "Ġà¥§à¥¬à¥¬": 7512,
      "à¤¤à¤µà¤²": 7513,
      "à¤¶à¤ķà¤ļ": 7514,
      "Ġà¤īà¤¢": 7515,
      "Ġà¤ĺà¤¯à¤°": 7516,
      "Ġà¤ļà¤¢à¤¤": 7517,
      "à¤§à¤«": 7518,
      "Ġà¤«à¤³à¤ª": 7519,
      "à¤¹à¤£à¤³": 7520,
      "Ġà¤§à¤¤à¤°à¤ļ": 7521,
      "à¥ĩ.....": 7522,
      "à¤ħà¤ªà¤£": 7523,
      "à¤īà¤¡à¤ª": 7524,
      "à¤¤à¤ķà¤¯": 7525,
      "Ġà¤¡à¤¯": 7526,
      "à¥¨à¥§à¥ª": 7527,
      "à¤ªà¤¤à¤ļ": 7528,
      "Ġà¤ªà¤°à¤¤à¤¯": 7529,
      "Ġà¤µà¤¤à¤Ĺ": 7530,
      "à¤¢à¤Ĺ": 7531,
      "à¤¸à¤®à¤µ": 7532,
      "à¤½à¤·": 7533,
      "à¤ĵà¤ľ": 7534,
      "à¤Ńà¤µà¤¶": 7535,
      "Ġà¤ħà¤£à¤¸à¤°": 7536,
      "à¤ľà¤®à¤ľ": 7537,
      "Ġà¤¨à¤Ĺà¤°à¤¹à¤µ": 7538,
      "à¥¨à¥¦à¥®": 7539,
      "à¥¨à¥©à¥®": 7540,
      "Ġà¤ĸà¤³à¤¬à¤³": 7541,
      "Ġà¤¸à¤µà¤ķà¤¸": 7542,
      "Ġà¤µà¤Ŀà¤±": 7543,
      "à¥įà¥¤à¥¤": 7544,
      "à¤¤à¤Ĳà¤µà¤ľ": 7545,
      "à¤ļà¤°à¤¨": 7546,
      "Ġà¤Ĩà¤Łà¤ķ": 7547,
      "à¤Ĺà¤®à¤£": 7548,
      "Ġà¤®à¤°à¤®": 7549,
      "à¤Łà¤¸à¤±": 7550,
      "Ġà¤°à¤ķà¤²": 7551,
      "Ġà¤Ĺà¤³à¤ļ": 7552,
      "à¤Ĩà¤Ļ": 7553,
      "Ġà¤§à¤¡à¤ķ": 7554,
      "à¤µà¤ªà¤ķ": 7555,
      "à¤ħà¤ī": 7556,
      "à¤ħà¤Ĺà¤¦": 7557,
      "Ġà¤¸à¤Ĺà¤³à¤ļ": 7558,
      "à¤°à¤ªà¤ķ": 7559,
      "à¤Ĺà¤µà¤¦": 7560,
      "à¤ªà¤ķà¤¨": 7561,
      "à¤īà¤¦à¤¯à¤¬": 7562,
      "Ġà¥§à¥«à¥®": 7563,
      "à¥§à¥«à¥¯": 7564,
      "à¥§à¥Ńà¥«": 7565,
      "à¤¯à¤¸à¤°à¤ļ": 7566,
      "à¥¨à¥ªà¥¨": 7567,
      "à¤«à¤¡à¤«à¤¡": 7568,
      "à¤¸à¤ĸà¤¸": 7569,
      "ad": 7570,
      "à¤ļà¤ªà¤£": 7571,
      "Ġà¤¤à¤ªà¤ķ": 7572,
      "Ġà¤¨à¤®à¤ķ": 7573,
      "Ġà¤ħà¤¯à¤¸": 7574,
      "Ġà¤ħà¤ĸà¤£": 7575,
      "à¤°à¤µà¤¶": 7576,
      "à¥Īà¤Ĥ!": 7577,
      "Ġà¤ħà¤ªà¤¶": 7578,
      "Ġà¤Ĩà¤¡à¤µà¤£": 7579,
      "Ġà¤ĳà¤¨à¤°": 7580,
      "Ġà¤Ĳà¤µà¤ľ": 7581,
      "à¤¸à¤¦à¤³": 7582,
      "à¥§à¥¯à¥ª": 7583,
      "à¥Ģ...?": 7584,
      "à¥§à¥Ńà¥Ń": 7585,
      "à¤¸à¤°à¤¤à¤¨": 7586,
      "à¤Ńà¤Ĺà¤µà¤¨": 7587,
      "Ġà¤ħà¤£à¤Ńà¤µà¤ļ": 7588,
      "Ġà¤Ŀà¤Ĺà¤®à¤Ĺ": 7589,
      "Ġà¤¹à¤°à¤¦à¤¤": 7590,
      "à¤ķà¤µà¤ļà¤¨": 7591,
      "Ġà¤ªà¤¹à¤°": 7592,
      "à¤¦à¤¥": 7593,
      "Ġà¤¬à¤°à¤ķà¤¤": 7594,
      "à¤§à¤¡à¤ªà¤¡": 7595,
      "à¤Ĩà¤¡à¤ļ": 7596,
      "à¥ĩà¤Ĥ.....": 7597,
      "Ġà¥¤!": 7598,
      "à¤µà¤³à¤ĸà¤¨": 7599,
      "à¤Ŀà¤³à¤ķ": 7600,
      "à¥¨à¥§à¥¬": 7601,
      "à¤µà¤ķà¤¯": 7602,
      "à¤¶à¤¨à¤±": 7603,
      "Ġà¤Ĩà¤¯à¤ķà¤°": 7604,
      "Ġà¥¨à¥§à¥«": 7605,
      "à¤ĵà¤¡à¤ª": 7606,
      "Ġà¤Ĩà¤²à¤®à¤ª": 7607,
      "Ġà¤ħà¤µà¤¹": 7608,
      "Ġà¤Īà¤¡": 7609,
      "à¤Ĩà¤ľà¤®": 7610,
      "à¥§à¥¯à¥®": 7611,
      "Ġà¤Īà¤¶à¤µà¤°": 7612,
      "Ġà¤µà¤ľà¤¨à¤¦": 7613,
      "à¤²à¤µà¤ļ": 7614,
      "à¤ķà¤¬à¤°": 7615,
      "Ġà¤¤à¤®à¤Ĺ": 7616,
      "Ġà¤Ĩà¤ķà¤³": 7617,
      "Ġà¤®à¤Ļ": 7618,
      "à¤¶à¤µà¤¦": 7619,
      "Ġà¤µà¤ĸà¤¤": 7620,
      "Ġà¤ľà¤²à¤ķ": 7621,
      "Ġà¤ľà¤ªà¤ª": 7622,
      "Ġà¤Ńà¤°à¤ľà¤°": 7623,
      "Ġà¤°à¤°": 7624,
      "à¤ĸà¤°à¤¨": 7625,
      "à¤·à¤ķà¤°": 7626,
      "Ġà¤Ĩà¤®à¤¤": 7627,
      "à¤ħà¤ļà¤²": 7628,
      "Ġà¤®à¤¨à¤ª": 7629,
      "Ġà¤¬à¤°à¤£": 7630,
      "à¤°à¤£à¤¨": 7631,
      "à¤¦à¤°à¤µà¤°": 7632,
      "à¤īà¤°à¤µ": 7633,
      "Ġà¤ªà¤¡à¤¸à¤°": 7634,
      "Ġà¤ıà¤Ĺ": 7635,
      "à¤ªà¤¡à¤¦": 7636,
      "à¤¨à¤¸à¤³": 7637,
      "à¤ļà¤²à¤¤à¤¨": 7638,
      "à¤ĵà¤³à¤ĸ": 7639,
      "à¤²à¤¨à¤ª": 7640,
      "à¤¹à¤¨à¤¶": 7641,
      "Ġà¥§à¥¯à¥ªà¥©": 7642,
      "Ġà¤Ĳà¤¸à¤²": 7643,
      "Ġà¤§à¤¨à¤°": 7644,
      "Ġà¤¤à¤³à¤ªà¤£à¤ķ": 7645,
      "Ġà¤°à¤¹à¤ķà¤°": 7646,
      "Ġà¥§à¥®à¥¬": 7647,
      "Ġà¤Ĩà¤µà¤°à¤²": 7648,
      "Ġà¥Ĳà¤ķ": 7649,
      "à¤¥à¤°à¤¥à¤°": 7650,
      "à¤°à¤Ī": 7651,
      "à¥Ģà¥į": 7652,
      "à¤¨à¤ķà¤¡": 7653,
      "à¤¸à¤«à¤²": 7654,
      "à¤®à¤µà¤¸": 7655,
      "à¤®à¤®à¤°": 7656,
      "à¤¶à¤®à¤¯": 7657,
      "Ġà¤µà¤¯à¤®": 7658,
      "Ġà¤¹à¤³à¤¤": 7659,
      "Ġà¤¹à¤²à¤µ": 7660,
      "Ġà¤ļà¤µà¤¨": 7661,
      "à¤Ĺà¤²à¤ª": 7662,
      "à¤ªà¤£à¤Ł": 7663,
      "Ġà¥¨à¥§à¥®": 7664,
      "Ġà¤īà¤¬à¤¯à¤¤": 7665,
      "à¥§à¥¦à¥¯": 7666,
      "Ġà¥¨à¥¦à¥¨à¥©": 7667,
      "à¥ĭ.....": 7668,
      "à¤¸à¤¯à¤Ńà¤°": 7669,
      "Ġà¥§à¥«à¥¬": 7670,
      "Ġà¤¸à¤¹à¤¨à¤¶": 7671,
      "Ġà¤īà¤§à¤³": 7672,
      "Ġà¤ĺà¤£à¤ĺ": 7673,
      "à¤®à¤Ĺà¤²à¤°": 7674,
      "à¤ļà¤®à¤ļ": 7675,
      "à¥ģà¥¤à¥¤": 7676,
      "à¤¦à¤¸à¤ķ": 7677,
      "à¤ľà¤ªà¤¦": 7678,
      "Ġà¤ħà¤¤à¤²": 7679,
      "Ġà¤²à¤Ńà¤¤": 7680,
      "à¤¹à¤£à¤µ": 7681,
      "à¤Ĺà¤²à¤¤": 7682,
      "à¤ħà¤¦à¤ķ": 7683,
      "Ġà¤®à¤¨à¤ķ": 7684,
      "à¤¬à¤°à¤¯à¤¤à¤¨": 7685,
      "à¤¹à¤¯à¤µà¤¯": 7686,
      "Ġà¤ħà¤¸à¤ķà¤¤": 7687,
      "à¤µà¤ķà¤±": 7688,
      "à¤Łà¤°à¤¬": 7689,
      "à¤µà¤ľà¤¸": 7690,
      "à¤¨à¤¸à¤¡": 7691,
      "à¤ĵà¤«": 7692,
      "Ġà¥§à¥¯à¥ª": 7693,
      "Ġà¤ªà¤Łà¤µà¤°": 7694,
      "Ġà¥§à¥®à¥®": 7695,
      "à¤īà¤ªà¤Ń": 7696,
      "Ġà¥§à¥«à¥§à¥¦": 7697,
      "à¥§à¥®à¥Ń": 7698,
      "Ġà¤ľà¤³à¤¯à¤¤": 7699,
      "à¥¨à¥©à¥¬": 7700,
      "Ġà¤łà¤°à¤µà¤²": 7701,
      "Ġà¥¯à¥®à¥¨à¥¨": 7702,
      "à¤°à¤īà¤¦": 7703,
      "à¤¤à¤°à¤¤à¤°": 7704,
      "à¤¨à¤°à¤²": 7705,
      "à¤£à¤Łà¤¯": 7706,
      "Ġà¤®à¤ª": 7707,
      "Ġà¤¸à¤¹à¤°": 7708,
      "à¤¦à¤¯à¤ķ": 7709,
      "à¤¶à¤Ńà¤¶": 7710,
      "Ġà¤¦à¤¸à¤®": 7711,
      "à¤Ĩà¤Ĺà¤¸": 7712,
      "Ġà¤ªà¤°à¤ªà¤°": 7713,
      "à¤ķà¤£à¤ļ": 7714,
      "Ġà¤Ŀà¤¡à¤¯à¤¤": 7715,
      "à¤Ŀà¤ļ": 7716,
      "à¤ªà¤¨à¤®": 7717,
      "Ġà¤īà¤ªà¤¸à¤Ń": 7718,
      "à¤ľà¤¨à¤ª": 7719,
      "Ġà¤Ĩà¤¯à¤ķà¤¯à¤²": 7720,
      "Ġà¤Ĩà¤ľà¤ªà¤°": 7721,
      "à¤Łà¤°à¤°": 7722,
      "à¤¤à¤®à¤²": 7723,
      "Ġà¤ħà¤²à¤¯à¤²": 7724,
      "à¥§à¥©à¥Ń": 7725,
      "Ġà¤°à¤ļà¤ļ": 7726,
      "Ġà¤īà¤ªà¤¨à¤¯à¤¨": 7727,
      "Ġà¤Ĩà¤Ļà¤®": 7728,
      "Ġja": 7729,
      "à¤¨à¤ĺà¤°": 7730,
      "Ġà¤ķà¤¦à¤²": 7731,
      "à¤®à¤¤à¤ķ": 7732,
      "à¤Ĺà¤¯à¤¤à¤¨": 7733,
      "à¤¬à¤¦à¤¨": 7734,
      "Ġà¤¥à¤ķà¤µ": 7735,
      "à¤ªà¤°à¤¥": 7736,
      "Ġà¤ªà¤¡à¤°à¤²": 7737,
      "Ġà¤Ŀà¤®": 7738,
      "Ġà¤īà¤²à¤Ĺà¤¤": 7739,
      "à¤ıà¤ķà¤¡": 7740,
      "à¤Ľà¤®": 7741,
      "à¤·à¤£à¤¯": 7742,
      "à¤·à¤£à¤Ń": 7743,
      "à¤ªà¤¡à¤Łà¤ķà¤ļ": 7744,
      "Ġà¤Ľà¤ķ": 7745,
      "Ġà¤ħà¤®à¤Ĺ": 7746,
      "Ġà¤Īà¤·": 7747,
      "à¤¬à¤¸à¤¸": 7748,
      "à¥Ģ!!": 7749,
      "Ġà¥¦à¥¨": 7750,
      "Ġà¤Ŀà¤Ĺà¤¡à¤Łà¤²": 7751,
      "à¥§à¥«à¥Ń": 7752,
      "à¤ħà¤£à¤Ńà¤µà¤²": 7753,
      "Ġà¤¸à¤³à¤¸à¤³à¤¤": 7754,
      "!!!": 7755,
      "Ġà¤ķà¤¸à¤µà¤Łà¤£": 7756,
      "à¤¤à¤¤à¤¶": 7757,
      "à¤®à¤¯à¤ª": 7758,
      "Ġà¤Ĩà¤²à¤¤à¤¡à¤ļ": 7759,
      "à¤Ĺà¤°à¤µ": 7760,
      "Ġà¤¸à¤«à¤°": 7761,
      "Ġà¤¸à¤Łà¤¸à¤Ł": 7762,
      "à¤ľà¤Ĺà¤²": 7763,
      "Ġà¤ļà¤°à¤²": 7764,
      "à¤·à¤¯à¤µ": 7765,
      "à¤¤à¤°à¤ļà¤¨": 7766,
      "Ġà¤¥à¤µ": 7767,
      "à¤ħà¤ĺ": 7768,
      "à¤ħà¤µà¤Ĺ": 7769,
      "à¤ªà¤°à¤Ńà¤°": 7770,
      "Ġà¤Łà¤ļ": 7771,
      "Ġà¤ħà¤°à¤¦": 7772,
      "à¤µà¤¡à¤¯à¤¤": 7773,
      "Ġà¥¨à¥©à¥©": 7774,
      "à¤½à¤Ļ": 7775,
      "Ġà¤¶à¤ķà¤ķ": 7776,
      "Ġà¥§à¥¯à¥¨": 7777,
      "à¤ħà¤¨à¤°": 7778,
      "à¤īà¤ªà¤¹": 7779,
      "à¤¹à¤²à¤Ĺà¤¡": 7780,
      "Ġà¤½à¤§": 7781,
      "Ġà¥¦à¥®à¥©à¥¨": 7782,
      "à¤¨à¤¦à¤¯": 7783,
      "à¤ªà¤¯à¤¤à¤¨": 7784,
      "à¤¦à¤¤à¤ķà¤ļ": 7785,
      "Ġà¤ħà¤¦à¤¯": 7786,
      "Ġà¤ļà¤°à¤®": 7787,
      "à¤·à¤ªà¤°": 7788,
      "à¤µà¤ªà¤µà¤ļà¤ª": 7789,
      "Ġà¤Ĩà¤ªà¤¦": 7790,
      "à¤ĺà¤µà¤®": 7791,
      "Ġà¤ªà¤°à¤«": 7792,
      "à¤Ĺà¤¤à¤¯": 7793,
      "Ġà¤ªà¤¡à¤µà¤³": 7794,
      "à¤¤à¤¨à¤µ": 7795,
      "Ġà¤ªà¤°à¤¤à¤¨": 7796,
      "à¤°à¤¯à¤¦": 7797,
      "à¤¸à¤ªà¤¡": 7798,
      "Ġà¤ħà¤ªà¤¸à¤°à¤£": 7799,
      "Ġà¤°à¤¸à¤Ń": 7800,
      "à¥§à¥¯à¥¬": 7801,
      "Ġà¥§à¥®à¥ª": 7802,
      "à¤ĳà¤¡": 7803,
      "Ġà¤ªà¤°à¤µà¤¡à¤Ł": 7804,
      "à¤§à¤¡à¤§": 7805,
      "unse": 7806,
      "Ġà¤µà¤¯à¤°à¤¸à¤ķà¤¯à¤²": 7807,
      "à¤¤à¤Łà¤¸": 7808,
      "à¤ļà¤µà¤²": 7809,
      "à¤ªà¤¥à¤ķ": 7810,
      "Ġà¤Ĩà¤¹à¤¤": 7811,
      "à¤Ĺà¤ľà¤°": 7812,
      "à¤Ĺà¤®à¤¸": 7813,
      "à¤¹à¤¥": 7814,
      "Ġà¤¨à¤Łà¤°": 7815,
      "Ġà¤Ńà¤ªà¤ķ": 7816,
      "à¤§à¤ķà¤¥": 7817,
      "à¤·à¤¯à¤¸": 7818,
      "à¤µà¤¨à¤²": 7819,
      "Ġà¤®à¤¨à¤¯à¤¤à¤¨": 7820,
      "à¤ĺà¤ķà¤¥": 7821,
      "à¤īà¤ĸ": 7822,
      "Ġà¤ĺà¤°à¤ľ": 7823,
      "à¤µà¤¸à¤Ńà¤°": 7824,
      "à¥©à¥ªà¥¦": 7825,
      "à¤¯à¤£à¤®": 7826,
      "Ġà¤°à¤¸à¤£": 7827,
      "Ġà¤ľà¤®à¤¯à¤¤": 7828,
      "Ġà¤ħà¤²à¤®": 7829,
      "Ġà¤¦à¤³à¤Ń": 7830,
      "Ġà¤§à¤¡à¤ªà¤¡à¤ª": 7831,
      "Ġà¤ļà¤®à¤ķà¤£": 7832,
      "Ġà¤ªà¤°à¤ľà¤³à¤Ł": 7833,
      "à¤ľà¤®à¤¹à¤²": 7834,
      "à¤¸à¤³à¤¸à¤³": 7835,
      "à¤¯à¤ĺà¤Łà¤¨": 7836,
      "à¤²à¤¸à¤¨": 7837,
      "à¤¨à¤¬à¤°": 7838,
      "à¤ķà¤§à¤°": 7839,
      "à¤Ĺà¤ı": 7840,
      "à¤¶à¤µà¤¸": 7841,
      "Ġà¤¹à¤·": 7842,
      "Ġà¤¹à¤°à¤µà¤³": 7843,
      "Ġà¤¦à¤¬à¤²": 7844,
      "à¤ĺà¤¯": 7845,
      "à¤®à¤¨à¤µ": 7846,
      "à¤µà¤£à¤¯": 7847,
      "à¤¤à¤¨à¤¤": 7848,
      "à¤ıà¤¤à¤¦": 7849,
      "Ġà¤ıà¤¨à¤¸": 7850,
      "Ġà¤ªà¤°à¤¤à¤ª": 7851,
      "à¤¤à¤³à¤ķ": 7852,
      "Ġà¤īà¤®à¤ľ": 7853,
      "à¤°à¤¬à¤¦": 7854,
      "à¤³à¤³à¤²": 7855,
      "à¤°à¤¥à¤ķ": 7856,
      "à¤¬à¤¸à¤¯à¤¤": 7857,
      "Ġà¤ļà¤°à¤¡": 7858,
      "Ġà¤Ĭà¤Ł": 7859,
      "à¥§à¥¯à¥¨": 7860,
      "à¥¨à¥¦à¥§à¥¯": 7861,
      "à¥¨à¥¦à¥§à¥§": 7862,
      "Ġà¤°à¤ļà¤¤à¤²": 7863,
      "à¥©à¥¦à¥¬": 7864,
      "Ġà¤Ŀà¤³à¤ķà¤¨": 7865,
      "!.": 7866,
      "à¤¯à¤¸à¤°à¤²": 7867,
      "à¥ĭà¥į": 7868,
      "à¤®à¤ľà¤ķ": 7869,
      "Ġà¤Ĩà¤¨à¤¦": 7870,
      "à¤µà¤°à¤«": 7871,
      "à¤ħà¤Ĺà¤¡": 7872,
      "à¤ħà¤ªà¤²": 7873,
      "à¤Ĺà¤³à¤ª": 7874,
      "à¤¹à¤³à¤¤": 7875,
      "Ġà¤ĺà¤°à¤¯": 7876,
      "à¤®à¤¨à¤Ĺà¤°": 7877,
      "Ġà¤ĵà¤ļ": 7878,
      "à¤ªà¤¤à¤¯": 7879,
      "Ġà¤Ĩà¤ľà¤ķà¤²": 7880,
      "à¤¹à¤¡à¤¯": 7881,
      "Ġà¤ľà¤²à¤®à¤²": 7882,
      "Ġà¤īà¤łà¤ķà¤°": 7883,
      "Ġà¤Ĩà¤£à¤¤": 7884,
      "Ġà¥§à¥«à¥¦à¥¦": 7885,
      "à¥¨à¥«à¥¨": 7886,
      "Ġà¤ªà¤¦à¤°à¤ļ": 7887,
      "à¤«à¤¡à¤«": 7888,
      "Ġà¤ĸà¤ªà¤ĸà¤ª": 7889,
      "à¤°à¤Ľ": 7890,
      "à¤¨à¤Ļ": 7891,
      "à¤³à¤ķà¤¤": 7892,
      "à¤ľà¤ĸ": 7893,
      "à¤Łà¤¯à¤¨": 7894,
      "Ġà¤¬à¤¹à¤¤": 7895,
      "Ġà¤ħà¤ĸà¤²": 7896,
      "Ġà¤Ńà¤Ĺà¤¸à¤£": 7897,
      "Ġà¤ĺà¤¤": 7898,
      "Ġà¤ļà¤£à¤ļ": 7899,
      "Ġà¤«à¤°à¤¶": 7900,
      "Ġà¤ĩà¤ľà¤¨": 7901,
      "à¤°à¤¸à¤Ĺ": 7902,
      "à¤ªà¤°à¤§": 7903,
      "à¤ĺà¤µà¤¨": 7904,
      "à¤ķà¤²à¤ķà¤²": 7905,
      "à¤ķà¤¤à¤¤": 7906,
      "Ġà¤īà¤¦à¤¯à¤ª": 7907,
      "à¥¨à¥§à¥¨": 7908,
      "Ġà¤īà¤ªà¤ªà¤¤": 7909,
      "Ġà¤Ĩà¤¦à¤¤": 7910,
      "Ġà¥¨à¥§à¥ª": 7911,
      "Ġà¤µà¤¸à¤±": 7912,
      "Ġà¤¶à¤ķà¤ª": 7913,
      "Ġà¤īà¤¡à¤Łà¤²": 7914,
      "à¤¬à¤²à¤¸": 7915,
      "à¤ļà¤²à¤µ": 7916,
      "à¤Ĭà¤ľ": 7917,
      "Ġà¥¨à¥¦à¥Ń": 7918,
      "à¥§à¥«à¥§": 7919,
      "Ġà¥§à¥¬à¥ª": 7920,
      "Ġà¥§à¥Ńà¥®": 7921,
      "à¤¿à¥Ģ": 7922,
      "à¤®à¤¬à¤³": 7923,
      "à¤£à¤µà¤¸": 7924,
      "à¤¡à¤¯à¤¤à¤¨": 7925,
      "à¤ľà¤µà¤¤": 7926,
      "Ġà¤¹à¤ļ": 7927,
      "Ġà¤ħà¤¡à¤®": 7928,
      "Ġà¤ĺà¤ª": 7929,
      "à¤Ńà¤°à¤Ĺ": 7930,
      "à¤Ĩà¤°à¤¸": 7931,
      "à¤Ĩà¤°à¤µ": 7932,
      "à¤Ĩà¤®à¤²": 7933,
      "à¤¥à¤ªà¤°": 7934,
      "Ġà¤«à¤¸à¤µ": 7935,
      "à¤ħà¤Ĺà¤¤": 7936,
      "à¤°à¤µà¤®": 7937,
      "Ġà¤¦à¤µà¤°à¤¯": 7938,
      "à¤¸à¤ķà¤¨": 7939,
      "Ġà¤ľà¤²à¤µ": 7940,
      "Ġà¤īà¤¡à¤µà¤ª": 7941,
      "à¤ĺà¤°à¤Ńà¤°": 7942,
      "à¤¸à¤µà¤®": 7943,
      "à¤¤à¤µà¤¶": 7944,
      "Ġà¤°à¤¸à¤¸": 7945,
      "Ġà¤ĵà¤¡à¤Łà¤²": 7946,
      "à¤īà¤ªà¤¸à¤°à¤ª": 7947,
      "Ġà¥¨à¥¦à¥«": 7948,
      "à¥¨à¥¨à¥®": 7949,
      "ant": 7950,
      "Ġà¤°à¤ĸà¤°à¤ĸà¤¤": 7951,
      "à¤Łà¤¤à¤ķà¤¤": 7952,
      "à¤¤à¤Ĺà¤ļ": 7953,
      "à¤¯à¤Łà¤²": 7954,
      "à¤²à¤Łà¤ķ": 7955,
      "à¤¨à¤°à¤¶": 7956,
      "à¤µà¤¡à¤ª": 7957,
      "à¤µà¤Ļ": 7958,
      "à¤¸à¤µà¤²à¤¤": 7959,
      "Ġà¤¤à¤£à¤¤": 7960,
      "à¤®à¤ĸà¤°": 7961,
      "à¤¦à¤¶à¤¨": 7962,
      "à¤³à¤ªà¤°": 7963,
      "à¤ľà¤³à¤ļ": 7964,
      "Ġà¤¦à¤¬à¤ķ": 7965,
      "Ġà¤Ĺà¤«": 7966,
      "à¤Ĩà¤Ĺà¤°": 7967,
      "Ġà¤§à¤ľ": 7968,
      "à¤ĺà¤°à¤ª": 7969,
      "à¤¬à¤°à¤¦": 7970,
      "à¤¤à¤ķà¤±": 7971,
      "Ġà¤ªà¤¡à¤ķ": 7972,
      "à¤®à¤ļà¤°à¤£": 7973,
      "Ġà¤µà¤³à¤ķà¤¤": 7974,
      "à¤ªà¤³à¤µ": 7975,
      "à¤®à¤³à¤£": 7976,
      "Ġà¤ľà¤®à¤¯": 7977,
      "à¤Ĩà¤¡à¤¸à¤°": 7978,
      "Ġà¥§à¥Ńà¥¨": 7979,
      "à¤īà¤¬à¤Ĺà¤£": 7980,
      "à¥¨à¥¨à¥¨": 7981,
      "à¤Ńà¤Łà¤ľ": 7982,
      "à¤ıà¤²à¤¡": 7983,
      "Ġà¤«à¤Łà¤ķà¤³": 7984,
      "à¤Ŀà¤Ĺà¤¡à¤Ł": 7985,
      "à¤£à¤¸à¤°": 7986,
      "Ġà¤ªà¤Ļ": 7987,
      "à¤³à¤µà¤¡": 7988,
      "à¤³à¤Ńà¤°": 7989,
      "à¤¶à¤°à¤¥": 7990,
      "Ġà¤µà¤ķà¤¤": 7991,
      "Ġà¤¹à¤¸à¤²": 7992,
      "Ġà¤¨à¤³à¤ķ": 7993,
      "à¤¬à¤°à¤¸à¤°": 7994,
      "Ġà¤¬à¤Ŀ": 7995,
      "à¤µà¤°à¤¤à¤²": 7996,
      "à¤ħà¤Ĺà¤£": 7997,
      "à¤¯à¤¨à¤¨": 7998,
      "à¤¤à¤ķà¤¸": 7999,
      "Ġà¤īà¤²à¤¥": 8000,
      "Ġà¤ħà¤°à¤§": 8001,
      "à¤·à¤£à¤ļ": 8002,
      "à¤¸à¤®à¤Łà¤®": 8003,
      "à¤°à¤¦à¤¶": 8004,
      "Ġà¤īà¤°à¤¬": 8005,
      "à¤ľà¤²à¤®": 8006,
      "à¤¾!...": 8007,
      "à¤ħà¤¨à¤®à¤¨": 8008,
      "Ġà¤¸à¤¹à¤ª": 8009,
      "à¤Ĩà¤°à¤¡": 8010,
      "Ġà¤ıà¤¸à¤ıà¤®à¤ıà¤¸": 8011,
      "Ġà¤ĸà¤¡à¤ĸà¤¡": 8012,
      "à¤ħà¤«à¤Ĺ": 8013,
      "Ġà¤ĥ": 8014,
      "à¤¯à¤µà¤ļà¤¨": 8015,
      "à¤ķà¤®à¤£": 8016,
      "à¤£à¤ķà¤³": 8017,
      "à¤£à¤Ńà¤ķ": 8018,
      "à¤¹à¤¤à¤°": 8019,
      "à¤¡à¤¯à¤ķ": 8020,
      "à¤¦à¤Ĺà¤¡": 8021,
      "Ġà¤¹à¤°à¤ª": 8022,
      "Ġà¤ľà¤¡à¤£": 8023,
      "Ġà¤¦à¤°à¤ķ": 8024,
      "Ġà¤¦à¤¯à¤¨": 8025,
      "à¤¬à¤ł": 8026,
      "à¤¬à¤¤à¤ķà¤ļ": 8027,
      "Ġà¤²à¤¨": 8028,
      "à¤ĸà¤°à¤²": 8029,
      "à¤·à¤¹": 8030,
      "Ġà¤Ĩà¤®à¤¶": 8031,
      "Ġà¤ĩà¤Ĺà¤ľ": 8032,
      "Ġà¤ļà¤²à¤ķà¤°": 8033,
      "Ġà¤īà¤ªà¤īà¤ªà¤ķà¤²à¤®": 8034,
      "Ġà¤ħà¤°à¤¨": 8035,
      "Ġà¤īà¤¦à¤ķà¤ļ": 8036,
      "Ġà¤µà¤¸à¤Ńà¤°": 8037,
      "à¤¤à¤®à¤°": 8038,
      "à¤¤à¤®à¤ľ": 8039,
      "à¤ªà¤°à¤¤à¤¨": 8040,
      "à¤¸à¤£à¤¸à¤£": 8041,
      "Ġà¤ľà¤¯à¤ĺ": 8042,
      "à¤²à¤¬à¤¹": 8043,
      "à¥§à¥«à¥©": 8044,
      "à¥§à¥¬à¥«": 8045,
      "à¥¨à¥©à¥©": 8046,
      "à¤°à¤Ĺà¤³à¤ķ": 8047,
      "Ġkonkani": 8048,
      "it": 8049,
      "Ġà¤¤à¤¸à¤°": 8050,
      "à¤ªà¤Łà¤¯": 8051,
      "à¤¦à¤¯à¤¦": 8052,
      "à¤¬à¤ļà¤¨": 8053,
      "Ġà¤Ĺà¤§": 8054,
      "à¤ĸà¤³à¤¯": 8055,
      "Ġà¤ĸà¤ļà¤²": 8056,
      "à¤¥à¤°à¤²": 8057,
      "à¤ħà¤¹à¤®": 8058,
      "à¤¯à¤ļà¤¨": 8059,
      "à¤īà¤¹": 8060,
      "Ġà¤¸à¤°à¤ªà¤Ł": 8061,
      "à¤µà¤£à¤ļ": 8062,
      "à¤ĩà¤¸à¤®": 8063,
      "Ġà¤¡à¤¸": 8064,
      "Ġà¤Ĩà¤¡à¤¦": 8065,
      "Ġà¤ĳà¤Ĺ": 8066,
      "Ġà¤®à¤³à¤ķà¤°": 8067,
      "Ġà¤«à¤³à¤Ŀ": 8068,
      "Ġà¤¢à¤ķ": 8069,
      "Ġà¤¢à¤³": 8070,
      "Ġà¤°à¤¡à¤¤à¤ļ": 8071,
      "à¥§à¥¬à¥Ń": 8072,
      "à¥¨à¥ªà¥ª": 8073,
      "à¥¨à¥¬à¥ª": 8074,
      "à¤°à¤¢": 8075,
      "à¤²à¤¤à¤°": 8076,
      "à¤µà¤ķà¤¤": 8077,
      "à¤¦à¤¸à¤®": 8078,
      "Ġà¤¨à¤Łà¤¯à¤²": 8079,
[...]
